export default {"layers":[{"type":"input","sx":1,"sy":1,"sz":200},{"type":"dense","filters":100,"bias":0.1,"_biases":"4NsxEPo/Qojuj0Ja6puA7QEL/CkCD9dM96y9AP7tsIr3FbhE8xBFRvPj/WT8gGbW6+uoDPG5rlD9x1es/sLEAQNifC0Ail2ZALUBQQK/zCD8p784/TIXcP39XW75kZPQ9rrU8QN5dSrgQieY5jK6XP5/aLUBSER9ACjDAP+HTGzy0LxlAVy0VudOJUUDCzhhAukH9PZywpj+JMhA9SIEuurxc/DzeSP09oFRUP71pGDvWoBy+X4X6P1QsxL6YllpAxScEQFRjRjpbrdU/4V2XP/lpYz4huM07PnPOuhv4bT/K7eU8TbqSu4ytZL4lzM0/EAk+QGR7Ujt+MtA/5hDkP5NyDz/IIRNAamb8P6aNLT/czS0/ik4QPHs9DT8/3gFAG08fQISuMUCehwo/nDMku9ZrhTwvM+g59YpWQNKdRj/cytM/FWdoPzH1er6qRg050qTXP5eXuzvyoj1APSROQDbfIkDIG1NA9jj5OSicdEDI9iFAphuQPAWvlT+xn1Y7YcAKPwI2zz/wLh5ArcGFPw==","_filters":["4mVsSQDOB3D/OEZk+2ERcP2JrKj+DH0y/G2qSvrfWGkCUJbq+X2SyvQsaAT+rAbg+DBOdP5bnSMAr3MI/+qtrP0oADj+HdQlAWwMkQA/bzz/RFNC/L+8FQMAwD8Bsw68+wbrFP7hJ775jAgC/iraKPyjUsD7AY4u+5N6ivtAlYT9lNsS/JXh+v0IZfj7q2F0/FPLfvw7sBD/5wh1AyN7ePxjPSD9+a6c/ACQmQJ/c5D5g6ghAWfkxP6GCJb9WR+I/tQyoP77AjL9LKLc/spV3P4jXIj4F7gG+C4H5Pigrjr+GdmY/pbUXQMsXlL5lV/a9ZqX+vhQIfz8frW8/zWbVv3u+8T9uPe8/K2pKv+kEAkA5e6Q/2JKyP1n/mL88lkdASm94Pxs/0D6NfwRA4+40vRVZuj6P5kQ/AkqzPjRi6z5wbtK+NsGxP8PF7b9E1tc+TsGGv+nByD8U6wLAlQEFQESjP79xGak/cYpwP5DX5j9YehJARCbWvi4pKUCCmVA+ivLKPzeb4D//U7Q/LxOGv5XV472T9Dw/JQaCPiM2sL74/+I+yC4SP3gjaz+cSWE/aCfevflBlb5CE/w/Vn+OP3+hVz/cdMe/vqszPbtEFb//mYc/kAE4PjCCAUD2M6k/RGFivy0xYD9ThOG/w12aPiNn2T9soKS+0+Zjv/A9YbzQdrk+SdK+PhcJsr48Fsc/IFakv29PKb91gte+3i1hPydpqr9afFY/pqXWPt1qYj+L/wo/tmeOPCLiSj9kuRc/s0TwP87I5T8qSgI+oD1ZP2yIHT/YjQC/xwMuPeuIRj5fWUM/nccfP9ZfrT6okHe/sv46v0d3H0D2VZC+auMzva2fHz5syPU+tC1hP+Is1r9Afrs+7K2DP2vpXL84Hu4/uocyQJGcoz9Orpu/C3jHPpE81b+q87s+gr3rP501Dz0fa8u/7HARP1mKvj6CQo0+Q13QvqH2fz90nZe/dNhQvSeIKT4E2cw/2cTdv1Owcj+R35o+swVuP/oQZD/fsqQ/FlETQCE6uT+9FoM/HyUWP29lKD+DSFs/fSjSPy3LW78=","4zKYCQBynGMDq6+k+/0urPqX2Ez8FeEQ+2rEvPyyYpT+//FW/LCqIPoN5CEAEnQ9AFp/+vyjX+D/gVYI//mgkP5zXFECi1pg/WbwwP8Qzur9m0gC/3ikwvrTy7T/G4+E+kJW/v21UPL1Lcck/duK+P/iVBz9h04y+uMONPbVByD7M+mi/HX6nPfGpOz9jzpi9LM+zv4Q1xT8iBpc/omudPx+F3z/d5gC/RCJPP1ISMT80aZ4/QNbBPyhFXT9a9e0/1NzrPlOtbz8sMn4/lf6Tv/ja5T4dLoU+8avoPsFY1z36zNE/EFdoP9O2Gb84O7M9HqocQIb13T/sUrO/h3kLP83atD+sCrM/4kkjv6IrDj9MGUVA7zuqv2I5sb4fgFI/doOaPxuS6T7ih6W/RyW0PizA0D9ER3g/N2gIP5XFrz5jZek9Go4tPg0FoL+MyaG+/ebUPzJPET8TpLe/ZqaLP1EfqT87yNC+KyEAPw1VOr86CE4/6cG6PS4fIz0GuZA/OzrIP1nHwD9JbaA+YsCKP4c0vz/EjCe/NqxrPktniL14h+A+Sz/PvB6I+j+rXes+Ouwrv9sPLz4vzb8/FOIOQM0brb/Yl6w/IzQCQEUtNz5Yops/CoZsPgtkEUCa6ZG/DA1vvpEUeb7rlJo+bfSVPqNgaT8GqKm9aHz5P/xg6z1nUsg+ywf1PuN/zT0Lqyk9wnp3v5J5vr6MpdM+rMcYPykaj78y87E/QkKjvxXq1b58DZQ/Jh8Wv6pzrj+xEaE/DlfxPUHHID+AK6Q/ukvgPw8liD1Z0cM/05e3vQmO1b7hGxc/RXurvllI5T5mw8W+pKccQG1NHD/jpBO/pqs5PQLP0j6YerA/P4C4v2cs3z+DWN4/3N0OQFKnIb+tj9y9sfLvPV0tl7+ntBG+ZWzwveBBKT4C39s+1R0qv0oHqD2Qdag/HzpjPwfNqT408Ao91MSePUuyn7+DIUS/06yTvnLBAUDq8jk/vKXKv2HBuj9X/IA9tT4/viv71j+6/g6/axQSP4MzdT+SDJc/9dRjP8mXqj5gEb8/lZoiP5X7gD8=","4xXLQP5dGoL+mcwg9guJoP9oqHD8sRo0/IQGXP3MOhT9CqqI/dp4pvjK2r7zg0gRAk5KCvwALFr+BOKc/5xG5P5cIXT+A/wJAHL4GQC9e7D9KcvE/5QD1P4BS6j+PwsI+FgPSP2T1hL9HCk09hvdYv+LU/j6HPTs+PhF/PrVV0j/yswO/rEBTvaQiuD/boFa/TzNIvzNC7T/KMA1AuI3cP5HuJD8+WzQ+I/JZP0Jooz/+hog/0IoGQEH/973YIQC/TXuDv8VXJb8abKw+CtIrv/Lemj3760E/W9b2PtwzHj/h3rA/8QboP0TMhD/+5e29swGdvxI4qD/jqW6/f4QOP0Fbrj8ucEM/RucFQJYF/D80qkw/3iDVP8/gsz9igOQ/1HAuQPTg0D5CMSc/5/TAvypFdz6eFR6/zwTvPrJSNj9lFok+kerJP5jCW78aiLI+JEUiPx/Rbb+OMIG/bG4NQG06Br2JVy4/dmfNP13eUD+hEe4/hipVP7Jvaj+xArs/OF8JQLLmJb+VjDc/bycnv4HYMz/JFL2+e8GqvDDJET9grfw+efsAP++8aD9VMcI/qISDP4nsy72FRXw/E/fFP8fYIr9rehg+/XrKPz/3bz0t3tA/aVS7PxF1CT/dQcI/0jadP8T/ZT9Na7s/+BubPgl+sT52+U6/59N3v4oYjL12jAY/5Ra/Ps5usT6jN+E/t2Ygv3zWB7+KzMw/6rfNO0edG78SCao/LN/xPw5axz4ywfe+/psQP/zAKj/wCSE95e2qPy03PUAQUJc+XeORvyNdrT771Cy+KzYkQNehWr5ZvBk6oijbPtq/mj4HKhs++zChO4W53T8seHs/7pcpPRvbrr2zQao/zMtjv6QSZL8zv7o/7jtVPdA74T/KaQy+dDWSPyDsxz/tJrA+kqqGvNF5oT8qxfk+c1YbP0nvA7+Ehcu/OfYFv1uJfz41nY0+Sn07Pit6rj8gsxC/N5qgPdO5Mj9KZxS/aQRmvxMtqD/1EYY/LnPIPueZgz/+2us/Ubl0PaOUE0CiKI0/IQW9P/nKjT8FKG+/b/iHv6gnHL8=","413PIP5crOsAy9Xi+WBs3vlaFurxNBaC97LjhPWKg8D5AJpu/1+8FPuWDgz863cs9tJAAQBff6z5PIio/1MIWvwJGwj5YXQxAbW/lP94a3j/oX8A/dXrPP2wpiD4M3MU9An2Iv2Ru6b7L0tq+GbLUP8OClT6gmOy9z+qVvhtsx76xCpa/vkVwv5f42L2/Dwy+l+P6v/1AnD98WylALXfHP4z4FD6GLo2/JjUKQGvi+j6ymQg/hegKQDlU8j+bXWQ/9sTAvrJTQj9XpoC+/7Cyv/eXC741sug9jRj9PXF5gT4eoeE+jgKsvpy5bb8HJD0+UrF3v1srkD/FTrc/ATpnvyJ9fT9ZCb8/ox74v4waYj9cZa8+Ua7bPwq4oz8oRCBAbH+eP7YrNT7qKos+uJMBv5Wbkj8XToU/55J6PquibD4HNJW+Kpxuvpw0yL/PjA+/p0kqv8KlAj/RhwbAW/2VP9rYDT8iudg/5r+uvf0u+7+sHZY/CC2uv24IhD9ZVcM/uafzP7OqlL6zQ4a/OGwxP4tOnb4gnUW/pXvGvQf4gb71rZi95NQmvwT5ojtWVEa/kRVBv0IpOT4pX0A/JWDEP//Bpz9CCqO/1ar+u6jBtb4rhCe9BkWgPQh3ub2p4bw/akePPyXw9L9MAI2/jcY6Pvf/xj5JX1C+3CPmv+BNh73EZ28+u5nVPiilU75T1Nu+3zyFv0aTlL9T0lM93uQrP0hHub/ee7I/LN8+P1cDpT+gL1S+zodpvwNZDT9LxR6/b87aP8iHkj9jS4E/anpgvokoAb84pEk/LvW8vkYJqr427bK9b2dBv/yd671qudC+ADqsvvHADb+SpE+/OGpiPX1cvL41Fzw/AmS+P31SO79eJP++hiBQP+lgAMBeoCo/8/H1vcynrz9LZLw+SQcOP9IKgr9NVZU+JS4uPLbaH75+YuW/735qPzO4WT5y6uc9uCqJvjuAu7+D24a/ZzKzv2w0iz4VDfg+4VTovxTnvT/A4z4/foCnP8LHKj98X52/uTaqvayS2D/8nhw/miPCP5uxjj5JYTY9qRkJvySCRj8=","4ip1Pv+iEJUCKFPM8zycOvy965r14kSy/CDfOP8zh0j6wUz0/XaTaPc84Db3lSag/0P8cwL0hTr+T2Ys+RriwP2N+1D4RipM/mNTAvqeGyr9gKsI/7Cc4vMQVET9uuM8+JfgjPxx1fb8EGZa/eaLOP32eAj+vsLa+OZp1O5gDQT8CZIe/ki1jv5CGuT9PuiU/7lQkP345AL+oEBdAM0CBP8qcdj+Mt46/8yOGP8/67z/bt4E+oFbZP6qr1D8fvhI/Oa3Wv8K6Yj/OoLU9xoO9PxocCT6sLzg+9XgePlSPb78nBuM+aH9bP6oCIz+CWZ49Kub/PcVmoL+g486/b9b5vw6GQT8yqJA+LAcuvQSRdr5Ual8/ohu2v/7qjT+iAo2/H6UmPy1z7z7RI0U+4zgZv1aQer90OIc/6vHUPgjgsT7dvai935iWP524xL8Hipi/70dJP5oi4D595k4/i6k0PS1bmD1cS4E/uY86P4lrHb4LOLK9ztT2P52ywD79Cp0/DeV/P6NDhzw8O7q+EJsuP0h9gD9rtWg/tz+2Pe9/kr7ceaO8MD5+v3n6gD8Ut2k/b9gmP9NyDT5crO0/T7pHvySG27/VIgPAJ1IYvnAt9jycBXk8P2FOv6Bmrz8j2pq/eWR5PxQKBj6nEMs/vIHmPrNP8D+NdBm/Hv0QPssY2bt0iwA/UeigPmoIPb50sPc+6hKOv0LuB7/cXNQ/S8hOPzpfAj8knk0/zWu1vaoIaz8BTuQ+EdQkvwDA/772hDs/wI/TPizYy72GPwE/Tyx1P4S1er9B0Y6+mu/yPj37vD4QN/09fkBivzHt4L1UlIG/IRmrP0s4Ur2BVhY/p8ROPfIj+D7jVdK/33/zv/fBwL8PZSI/f2+HP9ybQr5kVIO/eNfBP3rTr79Reo0+u5MnvvG4lj9Wuao+YyjAPgkbbr/Godu/9eFdP2io7T6eBQI+lBtmvqcNjD8YMoC/xnMFvz2rET9YJpU+R78jP3YxtL/sBXK+mOd7P58DZT9+k74+evm3P0Zty76Me4s+unqhPw45FT8Oqa4/QTiWv3jATT8=","4YlTyPxm9pT83VDm+6AVHv9RkNr+w/H0/Hxx2PyeIjz8h6fu+jI7BPNNeiDx7flM+e4wIv7IlPUC8KA289l4Wv2NdQT6GRUM95Ho/v6VP0T8fDjG+bpdZv3EbOECJ+oC+INhFPs1kbD5hcrw/g77BPxSADr+pVck+UR+FPOMxyj9K/lc/UxiaP2Zqs79T5jG/8Hzrv4HcrD60Hpe/FUOaPvNjhz7SHhq/K+EgvxHMjT9CY7i/KwT7v6nXzbo0v+++Co4Gv50beD9D8uc+lUd8P2cxQ77DBSi/ijD7vlwJjj/R3vQ/YVDrPm2IA79y4Q0+9qG0Pl5vG0DzbIm+hWixP3daTz/wENO+6jeqPzcDJEDPz3i+Ic6yP0Nmxb1H4ZQ99eoaQLw0XL64vk2/NUlWPuPAoj/GyVo/xSWOvokkDr+dpqw9JHADP5fQlD+e6ZG+v/k4v26LWL8pMQDArf2bP9fDKkBXlnW+jchZvk9LaL9XWR8/m3EdP5UsDL4rdLC/kf+4PgYwpz70p4u/Y/ZrPxtpaj7+Ng8/7lhPvjafzb4U3si+lIWjvgu0Kj9v850/8hj7vrUWpj7JCN2/Zd8iQF2ilL4b/9I/6MntPwKgGD/QYjo/11byPxh1578KZJ0/+t9WvubSIT5s9aY/Z2uOvnJXxL8zqTs+rzIMPi2ylL21s+m+Alu1vsOPHj0ONtQ/3O9ZPxjbHD9dQp+/VkGpv/Narr/k5ai+368AQE10V75yzOK96PHBPdDWaD/ffqA+ph6qvmFbZj/OQJE/dp5Tv/2m1r57BytAADonP1slmD7tqJG9WfimvhKpuL5WZXc/9RkXvo7Umz9yvee+9q/xPfxXbD6yJA5AHIsHv2Ovrz+58HE/jraZvgQvoz/TQGs/e+K0vl/SqT/AM8G+ebYPv6K/oj/FDZm+VAyBv2hzMz/OA7w/9wBBPz6QtL6GBA67dN8pPdo4L76UTkc/zZOiPk8zSr4ow4y/CNrnv0i4tj8qtglAjyqcvn9bIT8ePja/9puEPJh8BEDAxy0+Y06yvyK2Uj9K2Wu/ObISv69tcD8=","4wvAMQNZ4FkBMQCm+wBfIvgkjJb9ASwe/UQIpP4/qZD/rubu9JG3EPXovHT9Ewmq/KAdvPpO9AkA+cMc9tX/sv3Tuob9cLbw/PLFovrRwpj/KU8y/SXR1vzCiwz7sPPO+JJ6zvUh1CD/QaRlAbTrBPxA8DL9Tw3w9+tx9vvPtQEDCJIY/nVNRvgAb8b/wWZC//WusP7rntT4NaXo9fbWKP1oCRz9SNSU/BnsAv5dqIkCgCAG//bPcvsD+kT/ypE0+nahLv1gwaj/ur1g/N2iwPyskd76Hqdm+r5cBv58AMr8FEQVA8GLcPQ6RO761okI9DUNbvpECEEApxbM+WgEwP8/tSj/YTWw+vay6v2AGPD9OEQg+QgKVP2u5l78nwu++ktR/P3Ai/77Vnd88dqBlPoLKMz8xy4k/QDDzvgQXsL4Eriu+KfgxP7L1zT871xw+wC9ov23DfL8PesQ/RhjbPxydGkA1i3o/GYqjv49s0T+ydds/1GkGQNH2gz45ula/aiEJP8JtoT8CGzM+qYRQPztEWr907UY/UzuVvoVAWb4F69G+c7xPvukkUT+Ehdw/KMoHvqOGJz6SsO6+SPEqQEWudj4AUnM/C3SsvAU7hr43oSO/2OIkPyWt3r/pYGo/sYaHv5Zu1j4vypW/2VzAvhxQmL8J/NM+pkICQCHRRbxPtry+si6VvhUDAL4v+QhA3tCHP8DbEz+Om8G/9icqvmnCfj8U0E8+DS4LQJJpRj8Eaf+9G6JFPxJbmD50GYQ/KPI/O2X93j4DLrc/HkrPvmEfaL7hZARAcftCP4IknD4OFTE9lRLHvXUYur5l1xK+paaAPsRAnD9Eg6i9mUH0PSSBZj4UfwdAbBu4vWvplD8NFKC+WJoivn8Unb9Q7sw+fd6CvjTEnj8BLuK+a0Plvt38jr9sGL++F2Emv06ZUz9mlmQ/6C5OPzb8n748Tak7wrqhvjQ+xD/D7Wk/fYlgP1IN5z73eai/Nla9P+Qdmj/bjME/VPw0P8JSDD8ALaY/oU8aP6+Ttj/kVti9PW9svlZXtD3JKMu+IOTyvhUMWj8=","42gGcPznoar+f+iM+Jvn2PbaRkj43kYA+OnnoP44xXz9wIuC+bQIcvqyFiz8imj5Asroqv+mz4T+53Rw/Pa4vQA0vP0BStjFA1BT3P6+/+b4EShq/l7zePvANPkARcYw9VoIdQNNvmb9D5aM+S+ojv65Bhz4H54M+b+KfPqoFUUDikqk/gCghPn28uD/QUTm/9ILnPz44Or35XQhAqdEMQHSYyD/T1DA/xoL6PkeaPEBXRic/FeLkP/FbDUDfndg9L0y0P2mTWj+GIDZA+4gOv6TdGj7Xj4C+t8JhPgcJKb4LqhxAavR9Pl49sL7IsmU6x9muP3c5xj/2Bg+/KlXAPp/RC0CaDH8/t4gKQG91kj/t9hQ/fOn1vloK8r4oWZq/OfwLPbqcGT51dqQ+mKTpvi1owT87iQm/69RWPoPkUT5/QHY+Mn0jQMRH6j/FM029Gm0KQNoFdb8r+AVAopdFvfLaKz+ic/0/mPvYP1UtaD8QToo+rB4KQDWegj8asN0/j/kaP4Klvr61qWs/lj41P1DM7T7W6S6+M+6IPuho8Lxtgro9IQeCPhYQjD8uFoy/ipekvkmfir1yjNk/z0yOP8+5A78CL3Y/pRglQAz/Dz9uHUY/ziaeP3ycBD6IdMm+nSjWvhjSmT/V1YY/BivAPcUkxj8/a12/xrNxP6dCTL2HrZ4+7wqCPmH1ij7+9+Y/hzGyPwp3EL7xnd0/HtGNvjB2xz+x7sM/rjmfvcNE5T+mvUA+32yRvY2cuz0oHhtAEiICP7LXUT+1XbE/hGV/vyNn6D25IxE+KIdjQOxTFr5mcV09EdWAPqfxgD1mrFG+4H3oPz7TGT8ZmJC+ZpbIvIuFiT85HPs/S7T+vpoUhT9QL7Y/00BhP+ao6T81kH6/yH6MP2lmxb7NbZo9rugCutMgiT/RxoI+xitmP8s3IL95Mm6+NkeJvg2Gjj47GCU+vEVGPu59rj9boKY/ZbQGPVo08z+2iZm+uA35P7XMgr9vw4K90oLRPxhQ5j8bRQs+c3umPymfkD/0C30/IFGrP+IYvT/nKS6/niLTP7kAWD8=","4RqRgQNcrAECbu94+0PW7PsvnND+EjlI/qN8eQFY3/L5o94Q/RtNXvgCygb4WgKM/QlSaP1tpD8D5lR4/stMVv2Kj2b7xGwpAOt41P+ivyL8WtvE/HJrIP6DaM0BeG8c+qBVvvtUN8b4JgX8/1tzOv/jQ6j74JVI/uEvMPmV9Zz8D4IC/naVQP0rBUL5t9PK+AwK8v4EvAUCcegNAj3PiP8LC8T6CJtk+BAgOv01hdUDVY6a+Qvzrv87dwr+L65e+CwsEP25Sfr+GAAM/kOacP4YpzD6QY2890EYSP10sYT/dqxpAjqSDP+c4hz8gN1u+IOckv2VGBEBdVIM/8iKQv1pnkz/hrqa+ERWDv49ppD8yHCQ/GMWwv7sruD+M2eU/VGwvQEiO9j4eQjI+wXDUPYDf6T8qAX2/b/roPq9RiT72I3c+IIAOv1KMyr8OxDg/ziJeP04beL8GpNq//ZEnQLjyzz9th8g/qudSvgWQujxbaNA/r7WLP5RnoL4chB2/U5oWQOw6AL4n+4k+7PFXv3n8oT+c0zE/XJdFPpiFBT+xuw0/Jw8GP/Jv7T/7f6A/CZd8PwmF8b3k/Wy/9aSRPwKMYj/r1gg+oj6PP8LBNz+HahS8thwZQC66xr/ZcJO/daqOP8lmRb/7Ye0/rOP1PvMUqr+8Gfu+VjONP2h/I71Ssds+gQQOPo2+UT6Wc3c/rQmdv8iaLj+O7t4/u7bvv1mPor9kq/o/IXOmPiDDxT+iFD09kIoXP/WeDD8VVuM/BVVkP4Wi7j5Qf58+ZmaBv2z9CD+7ESM/wSmBPyFpZz4scWW8OAcSPxopyD5hLYI/mEU1QCjUJz+V9Fo/Phoovpp3eD35vvo/rv+QP652u7/1wXc/tfmfvvAjgr9Zwok/ehl7v34Hnb9GyOs+gEnSPW851j/iR9U+kFCVvyBNcL209Cg9meIYv7zx6j6sMv4+X1rOPi+Kpb/MgZK/vVfUPjAGvz//7da/K9zGv7b1tz/oUPY/Oym1P7PEJj9pc92+W+Rlv8icPEC7zI4++u2hv7aniT+quD6/5NNJPncMR78=","4syYUQJtrJL9vE1M6S6+RP2WWLz10esU/PxGQP7oGUUD8gRi9z2OkvejxI0CZ7kFAa0wWv+aHCkC2SEs/3WBNu3fFoj/6kF1A/MZpPxaW7L7+oxW/bfEAQAhNhj5cAJM9U0OAPiacE7+Vuj5AIZ7Pvs5dLj18NHQ/noq3PcmuYD8uS5k/2HiBP/654T+LDh4/59rOvjXNBj9szzhAAo53QIxtkj/cWd4/zzorQBYzDUCKczM/ghH8P5UtSz9QcTK8eJKpu/vjqT+x6rg/pkGuvl1Ou728ojk+yE47PUMBlz81EUBAkCA2P3nNLD1R9IK94K2/Pzh1/z/oM7++f6ToPth2gz+PxxZAEUz7P1auXkBKeto/+7C7vgip574zJGxAhtKfP9j1Zj4GeZi/BkVDP5uCRkAy0mC+lfHFvIZdYz5cHxU9/CpMv9iX5T+ks6k/i72/PkRlqD+yIA2/1e5yQEeAQkCNtXo/QPSXPhTO2j8Ibk5AeQzzPsFjqT9xV5k/4h2aP0Wj4743AWg/UD+IP2jjN78HFym+XZD+PacaKD8MLhI+dHK+P3fBdEDpJdw/xQZUPJjZMr1xNd4+EfZCQMiXtb5JTt4/cU9bQKKmqb51lfc/tZ6pPz5iGcCXUaa+jRDXvgSSOz/un8W/ZhgAPg7bBMBvYpu+ZfAeQAkRAD0qFtk9iYDTPPyDMj5Zf4w/ZBeqP7nqFT/PwaO/hXwYQHb5175QZ6E/PxZFv0pjWT//zpG+jiTaP0la8T8PMBRAiDh7P0SjIEDE/XM/wL6Gv5lwrT+rT11AVDgBvkpCg722DPG9UlO2P/eEET0TnJw/i+cIQEgEKUBAJDy98D/BvTRGPUAYIMU/WXb1vvCHKz89cSlAf0Xhvh10vT9vHS9ALV7nvmZOt77hiUu981f9Pkcsub+uetE9ju9cvVS2bD1QL6A/HbdHvs7Exz3IsOE+pNJpuoquob/YPJs/uNt8P0CHLb6yrEE/sFsDvzm6pT8dyfQ/+MMtP5hpkj8PCtI/Y2i2P5usakBixcQ/7vezP9CN2j/bvIy/ZfRCv+i4iz8=","42xQBP535H0DFkxg+GMKePyA4ID9Pixc/8RfFvhh2xD6chw6/Bx+Evj9imT5TVl0/gBMWwDupmj/mefk+iXnzP3l1mz9HrEy/PkyVPgBd5b/22/m/f+ndvzc7xz9uBrM+E/O7P1Cjtb6lmeQ/CV/FPwh71j7kkYy8l+OgPTQY8T2oTsu/TPUIPuy9mT9xWrI/H062v7rOSz9N+7C/pKwfPyjCsj9XqGQ/1V+JP6qzwb/2z48+h+XMPAIwyz8bHma+b2akvMbNgT68i7k/Cf6tPxqoiz7DIt8+IfHuPpKKxD6cCcm+QL/VPKjt5L4KLzW97jjhP47qWr79MNy/1ZxgPyoymj8oYw8/Pf6WP2Tr8D6Qww0/avDkvwRdwb8WX76+HrzmPyu33D500JA/c0ACPnsjkj+uGHM/igzdPvZj1j5ZF1E+To4HvXJ9rL9f0VM/S9etvjQgej8vHvS/i4GpPOGo9LuCycS//SWKP0u2qj9/kBY/POBAPnr4IT8U9RY+sp2FP0CegL8TIpw/IdKmPdc6Gj+DLy4/W4DlPQu/mD50D/Y+MMd1P1wlrb6BToG/nJS9vqjjN7454to9qrWpPrxuuL+SN2Q/mO2WPwcRHz+ZS5I+6e4kPUAZrz4Ke72/cCmXv/dAmz+NYsU/C0KePunW4T/5dvG96dwQP4YwZ71YmPk+rWDCPhBQuz2dFNM+SiUcv6udC772aY++yzhZP/CVgL83Cr4+7BmAP6+0rb+Uv4k9mePfPlpbTD8Ppdy+VKhNPjx6Ob786ZA/Ev4fvylEdz+fQiw+OHF9vuVjnz5AbFw89MA/P6NwiD5I8TC+AAE0vzFckj3EEOe+eFlKvdV7IL/s80C/rQfev+4GXD+2+NQ/+5COP+gxgz8UEpe9sWhlPxXVur9Z26K/UekPvv6awz9Vw8I+ReRdP11vkL5jcbM/Z3ReP0229j5REi4+bn7NPadqgz5awby+9iTKPg2Mlr/J+wZA/1nRv0FSnT8Qq3C+q6Cqv7foHz8Yeqg/SWwDPteE8T2aiJM/r7+8PcTflz/74ju/S6q+vrdQdT4=","4B2Q6QEqkG8BhtIY+9IiMP+XVKT/99lE/4t4cP1ahLj1kwYe+KqGfvSvfHj/EkaY/1iHMPi0mIr5NAEY/etwAPuJix76W7ylAfzg9QAlDUj9epvo/xboVQBfDUUA7f8E+aUYHP20zqr/Qyo8/GREzP2/UDD8L7gs/rZurvWX8AECeb/Y/kCtPP3tToz+kSZG+tbHGvyf0+z9ZxRBAwjFCQGXaTz8n/hJAI72dPtfprz/Y20o/DPnhP+RbMb9oX1G9k3yAP3ndOr8dNX0/X0yQv7sdxT0uJne+HA/cPs9/Rz7vigJAX7uEP7ihi74zmWi+Sk72PDHHH0ChCnY+HIJ7P7phlz8gFc8/sbHTv5jlaz7pYw0/ZchUP5kjwT8lJAdAZXiUP3lS2T5S4MG+nEqXv+0v4D+LtBM/vFbsPqlOhD7U7c+9TnuTP+2i1T80H+k/5gNVP1WhRb8SNMW/ZRzoP9gcGb9k1LE/D7TrvVcR/T/rJ/I/VYfCPgv2Ab4AzuA/WCADQJMSib8Kmow/RPlOv2v9Zj9efSW/58TJPSXovT6Aius+2ParP807tj5iAU0/9m4jvjTtNb3PLfo+hHUFQPQpqD7YbqI/IvymP9riEz/pb7u+8xL9P/L2LL9pZBo/v4eWP9/u5L4i0ZY/eWSxPlnyWL9WG3S/CP0/P15mAj45FrI+l4iePu8+2TsxzOE+X/6NPwF3kD8MxuQ/M2NzPsWsor8i8ANAZRYWvxbohz91NcW+xNfbPxD7ZT/Mu2I/3lynP0I9DUB+xDo/idDHvxTjwz85G4k+loYeQKKpqb7vXkm+ivHLP62L8D4ngis/F5rRPwrQBD2sW26+ETgEvQFHeb1Vw9s/qErTPQNauT4jIYc/M7M/Pie43b9KrAo/X3wevyWqFT+2fKY/ijsaPzVIlj+tH9c+uAspv54EBr9ydb++nsS6PgZLij6fRQ0/X3wcvhWajz0Nb1s/sMPSP17fpz8G8ea+jM2zv8Iprj9X0JO+za1nP01c+j6eQ/4/hgY4v8BX1j806wc//cumPwZZhL5LP7G//w/DPm6ocb8=","4iIfPP7ooBMBokag+czKCvDeYRz9HgXs/vCmMP5SiJkAjiuU+H3KxvVjkfDxisVU/pmvUv9FHJr/7RXA/C3UXP0YR8z/o33I/H63YPjT45T9y/lW/HMPwP0LEtD96OpY+EY+xPt4cg7sqtZI+ozKbv3eU0j7hlbs+fp3uPbQt6T8lRa8/9FOfPmmZsz8JOsA+9Uauv5UXjT/0vCVAJj8CQJZZSz9+WIi/uIeePxA37j+2+4I8lpO/v6xF4b4Fppm+ySByv88hWL/nOfa+s4hxv1A5gj4LyVA9llboPrLBgT/B3s4/y90nQMJxBz+BnTq+lswXvyRalb089J2/byXjPqufEEDXgI8+tFC0P31HLEDGhbQ/Q/7EP1OYGb+4Jbc/IhbhPu6uij7KHpY+sl0LPlF4iD8n7F2/8sadPl75nT7ctRQ+JgIaQGgk7z/7LSO93JyUP9wbpT6GPbi/eyf8P/mMBT97P/M/DQTRP9d83782UuI/9ZzpP8m0GD+RCBe/nkTFP6XZ6D4VTa2/mLFvvwFt7D1J5RG/AASLPqCdfr2VdOc+efPTPXFW2D8kKO0/1s7nPixL9719T9c/gzYlvivrjr9bxqE+30cpPz1QvL4LVNA/BEMIP/oHqD8b+bI/i5i9voZCkz+I/da+AGLwPsG6P73NHaa95iEvvYZNsL3C5L0+BBysPrflhz4Jme4/EvavP/rTv764eJ8/Hf4Gv4p6k78E8W4/JJIYP2VT6D9b5yU+2I+mPTwFhj9Nb9g/Hl5LPqYONT/m3mQ+zit4PkKegD5IFPS9snwzQOsfYL5Feys9FDhOvoBAiz7UZEo/YMedP6AUXj/TwpU+52kCvmBziT+5Sei+57icv3B3Cb51Wag/nDYaPz6JnD+RUMw/EB/wP5I9uz8HFkU+keG2vWbM9L44zJ4+VYJUvmLVs75/eNi/vQ0Kv4z9cD4AnI4+VauGPobrzT9ZBZ8/cxQ6v6f2Cz+upVk/6b2tvwRf+70LpJw/KfLFP1Rv9j9dJU2/ckzFPzcfxj+lP8c+ac6Sv7Kziz/l1M0+OlaDv446LL8=","4e66EPusatz9iBfO9JG5HPszpNr7/1lC/nkw0PScMEj9hXGy/uydkPpJ6hz0Qq9M+W2H/P11Moj+W2lU/Cgvivj3Y0j+gA0I/1VN7P1Uwsj+uwpe/tm4+vgrpTj/YHBS9AUFvv8Nkkb5HhzpAEYWEvx67d71Nqli/htFMvmiZIz/uwkg/Kuu9v/Hlkb+H8n+/kBDov522e70Zzta+mLHCPquXIT/0reQ/T0mKvryZVT9GmMY/PloZPr6uHD/m1M4+ZHC2P1aJLj9S7Ta+OoCLP4cO+buw8GS/+E9MvtX5wL/pf6s+Ae6LvuSPVb9Ug1g+b+otP8HlKD/nHZ4/YTNaPmAGGD/bWQs+F8ShPx48KT867e4/qJSFP/nYOr8T/qs+nQc0PsnT3b1+6w+/JXR1vng0W7yT1RK/SfeVvtscpL7vAJW+MxwXP8ijnj+1SaM8igpTv/FqL7/Q39O/FUngP7DcsD+aEs2+YW5XP777LECsyH4/yqHDPxxICz8Nft6+fDnHP4/Ber4UOvk/sBw1P+KSKr/enxM/hP83vTv+Tr9gTjm+0Cj0PHnzxT/tRLM/l6A4v0ZVVz4Wn9W8nB6oP3Pjoj/nNaE/wCDLP8yK4b7WO0E/h5+fvi//Gz79oYg/m0uAv7G2kz7LsaC/8OBJvm499T3WVLW+6UkeQLuLLb2Zh0W8gHxVvoi/p759qB0/2yJDP38SWb/gy82/VapmPlF2kr+C4LQ+OdcxP+wezr4Cmf2+sifSvht2CD/equE+F1/0Pde8Dz/j8aY/obW1vpNvt725a+c/CCJav/qOlj7G6xW9BV+qPlla5j12TOG/7miAPdbCGT88Tga/5Z9pPvhIqz7crTg/4d7JPxuSLD9p3EM/ByhcP6emez/pHuS+T8iRPjGCmj9fM/W+IY6GPpmhmb+86ku+1h5HvzAtED1KP8U/s6tOvz3+Nb7FR42+FEKGvpnRor5vKTQ/hQ17vnP2hL6E4hO+QZ/KvzK8pz+e6zI/kMkDv1xCpz91AOk/gN2gPgZkZT/9Bao/8JTZPVtuxz+wzSS/FcPSP/IoHj8=","4bAvYv+YX8j8lPH8+dOE/vfachj63A7W+MuLSPnlFmb8bO6W+IZsvPPUrZj+thpy/HIiYP/no6z4TqfE/xrY3vk1DkD6saAM/ZxwcQLfV0j8b438/vSphP80WTrupOtw+xssAP3YYmDyG1ao/cbe7P8IZfj64Q2A+LUZTvijRDkAOpms/mA63vetvCL//U6m/ZhzhvxHBCb+R7W8/I6Mrv3G1xj+FGV4+28K7v15QlD8tN1FAvAO7P5J36b+t0qU/9qEBP/NKTb/pr60/RwOlP8UCvD63NxC/z2vJPRZ5Db541GE/SC4iv0AP1r5gqsc9hq6tPgBJ0b8v1z0/5TjKP4yHtr6BfBs9QT/8vwfcnL6EQWE/RBOrPwPjIT9Ftri/BdgfwE0n4T4I+0a/JtNVv0zIQz97ml0/Xn3tPWgPAT5geIS+wywBQHhnhz/sEmc+KqDEP2plT78orwPAWrAOv5i3+D8mZ/+/rhMYvj9WMT4aq/S9N3AFQHFeo72iRCQ/4gSbv7wC7j8usAu+hqMlv1lzYD20FB0/vRjYPhzkY74i+Gk+20QVvstBjT4KdIu/iMCkvlEHKD70BShAWijOv3o/eT/ug/k/h0/kPnaWaL6hoXM9IxnvPpeSG0DAp4s/BIYaPxxWYT9bh7u/eF88PmJhhT+w6F88r6UoQLh0hT3bDWs+OpwwPNFtAb5b1o0/xdgsPzDjoT4OZ/8+U+ewvmvFrr96fL6++lAKQO+Cyr816Hc//hATPvbi6z5p920/0+DQvg3noT49suK+fbqEP1/02LwblXK/AoQlQGYusD77PUo/ka0kPg2OWz62KX8+veAHvxnV+T5dYTe+cA42Ph7PFD+fVee/lddfPwQvBkB93Z+/GaF0P4QU7r98jxU+ue50vnpelz9H0N4+5pSjPs+Ot7+ESMI+/7sxvqY7er7qfZ0/rVZHP1GeDT6T4Kw+kFkGvmOZsT9geDQ/LVGhPmFlvT+li7e8PXrev/Iwrr/Dmv8//s+7v0OQGz47ujm+mDVpv2hrP79mG+Q76qeXP27Blb8ja2I/5UAdP/ubIb8=","4eR3SvwqE+D8zR02+8lT5Ps1kdb7txqw9xUhZvM4iUb/Ddjc+OEkfPh2GDD505CE/l39oP790BkC7Idi+bKJjPhzEoL8Q5Aa/NiEQwHKul78tY/I+jnfmvzfayD800SC+tQgjPxJNqj4DAe0/WJTQP9fTAL9ixoy8OoK4PN0emL9mU2c/icubPlYYNT/9qEo+f5nlPnmwAr9Dj66/7ycrvzVCPT3Elrc/lZ+8vpziA78pHB2/sMZWP0FNuD/1GU2/YPyDP8zZTz8tIAu/iZSaP4WgMb70Bhe/cKrRvmXYlr5dFIW+ETadv+65BD4ZgkS9yCPZP2dTu783cWM/3uw+P+5Pjb//Ccu+4LAWviv7lL//rMO9mOZtvxW9xT4szki//rY6P/cZCr4flCu946K7PS+LMr/Nc4c/cjjmvva5vb7w6x0+vgk2wArDsT8SG9g+0UWjvlDIur1EriQ/SZ0EP7hm/z6FauW/bYdBv2k3CEBXoF++hrOdPhMMdb+68ws+QC0lvqIgvr+oLrU/XMAkP15sqTzddC0//dOivnpl2r5dfJW+IF5TPzNOBT4mCuM/YxAVPgQ9Ezzu15q/NqGYPStbMD9EtiE/OwaSPlt1ZD5fwHK/e2nJPfxXEMBfxx+/5KiAPnG5jL8gKKw/ZT1MvmeJs74TaS4+RXPJPyqybb0BXsW+78O7vp7zW72UloW/9VqHPwJ7kL6iJZS//jWtPwMKpj6Qlkm/KkQlv0wtwL+5dQC/EPgpP/FzVL7EMim/EFcNvxusAT7zfO0+kSeTv3G8+T6rCo4/aZ3+v8qKoD6w2QC/nvZDP/etGr6T4bw9OlzNPv7AQj/B5gk+iAaGPfgClT/Vuci/8cU1Pzreoj+PgyQ/iZA4v11sib1dgA6/3CzEv6g7gr8Z2Zy9PKHdveGLqz/uknS+Nd/kPPhxkj6qOK4/FCw+P4xvmb4KNJS+ergUPuhfs78B0Fg/DdmKPpjc97+xxyo9Y90JPwoTbz86f16+fhfGv90GSb6Ce5w/Zh2Lv3681L73d6I9rKtgP+EBCL63rZS/b6JbP73uSz8=","4TMyEPg+AFUDcnlA815yAPuVHCz0ECze/d8MYP97Vrz9/J3E/ISo2Pje9Db9KPa4/HLMHQFohLECX5xu/yKwVQOlLEz8+PSw+EVxEP8cy4L9fA5G/3UrwP1Zd8T/NyhE+j+8OQPl+N783dlq/9IzPP+4RwT3pCaa++imEvllR0D9DpKO/UMjCPtlzRj+WAL09b93tPx1OEUDFJVM+JIxpv8Cvq79GdEm+mMbNvhEN2T5sPw++kjMMwP1qlT9uway7YGWlP0IvYD+Dar+/+Qu4P6X3Db4lc1O9pkgSvh7EDD6viOI/6ewBPtM3aj+uf4M+Kt14PRFjmL8lyK0/MbOYPx+pJz+HD4+/JtHjPzhdkT0R3pS/9TvbvxVkar/rV70/F3BEv7NclD3LYsC9R9Pbvgs/i74c6nk/YPeHPP0W2r7AGDW+YnGYP064vr8ooPY+Qe/XP9qGF79CcgJAT0JqP1MYFL6HhJi+kXY/P7bfwL9ByDs/adiBP66lhz8XGZ+/Pn0+PxfXfL9MqOK+e7ZHPyO7Oz8TNzg//NMlPSsgVL7z0AI+9KKHvU4/yr6BV9O/XtZNP7MItj7gnP++9RtkvzBCsz+FhQM+lZ7NPyWsgz4cNcg/aQrjP9//Ir8e47O/VSBov4yYwj4L490/f+AvvQ5hJz/Kgye/qFGWPd0hor0rqpQ9RWgRvR98Vb7yfJ0/EhaRv1qEST+v1/M/4w3Bv/wQsD+27To/BmsawPfg9b7ruUe/5XIKv8k9GL2qx90/kLVRP6JgLT9msi6+lF5Rv9Octz577uU+Yr1RQET5wT5UvZy+wC+7vQpaED7xCNa9z25sPzUTgb+9yVU/PdNlPiaHUT8MUIq//UjOP5PgtT8VHRc/Vz2cvsTp1D9LeyC+GsJLP1T1tb9Kp5e/YXCgPgZ21j/edn497MPQPsraCL+Fr8y/TaFtP13krT3kq1c8YHFpvkUt2T9q+XO/uGJLPgWMSb08hq0+jsHeP8snwT8RAci+KJDJvt9TWj6UDJ2/9mq+Pea1lj9qz7k+NRXEv0Wg9b1Q14K/MGdCPw+zTT8=","4p6ecv9uLC0A3C4K+Iaruvgg2Or2Equ++oq/7PrMxHT9Q+1i+d9okPpA8s7/KVeI+nq2xP0TFzT9WzcW+oSyZP4DLpb/Z57u//8NCv1v/3T/7yKK/hREjvcTN0z7qKa2+h4CvP6hzjr/uL/k+xjnRPydvUb5k1Xk94jEovW39gb8ftmw/ASyhvuse3D9C5nU/D1G8P33gzz9VtHe+MBB8v/Aihr/UDjw/IBR/PupXkr9TLAu/maPzvz5w9D7qT8a/miPCvoQMvb5dTq+/Y9auP4ceib4VVQK/+zgcvv086L5XHJK/uiSJv86G3b4YJ7E9iSVpv23Oy7+n74A/7UXdP6liz74aA9S/scP+Pyb77L6Cmd2/jAa+P+iaeb+p5kE/yaYSQP6mg77QWAm+Gdlev4xPtr8RdmU/ng8xvvaMvL64giU+5h8cwKYgmj9iIzc+tSSePx43dD+0Gck/9qfAPv+xrr/uBKe/Ld6GPoHWkz/Lcny+xkGnvsbNYr++gIS/7O+KPbqzTcBnFb2+MRvGvhdQwD6oD1U/TAuNvq8Ik77JNkE+hXUyvkGPsr88ZCy+aRmbvjMBzz2PDcu/wExmv9VzWj+32dk8R3WWvyi6tT4588g/nk4dv2fJ2L8KH6c/iYVcvyOvjr/5f9Y/DxqyvqlFXL+QK0a/b46jv0Kk+Ts6di2+BcsNvzm3jbwSEJq/9nRdP/EzqD52wck/X9IIv877iz9mQJ+9XdCdP5hQqb/O6KG/dmnVPv/3yL+CBAPAbq9pP3GvML9sKVi/stLdv5B0jr7oICi/jHQbP7vpuD5Se+e+HO3vPWwuHb2WEb08Rr23vqetnT4Fr0q+lexuPuZdJL+hLuy/+6GLP913lz/fH5c/3DjSv4Qp4j/3sdS/KZWtv2pEqj/rv8++xnVzPsb8zD8v9bW+Zn6VPo5ZlL+PGqi/521mP/BBR74p+Yq8TBETvVISqb/ndWI/D6T6PqQCgb+uRIM/t9POP3FOwz8x7D+/ERWcv36iP75i/2s/c9dmv4rwdz5Yn5++3lewvxScCL+ZMMm/Iu9Bv1Fmq74=","4ttfOPvnmLsDhgKE+9eF+P0jNDz88At4+iVgsQAT9oj42nbG9bQM2PcNRsj8dRRVAfcTZP/9csb/KRWk+En+jP7e1w75ZPTBALChcvlkv7L9cG1w/Ur/vPW1w+D83weg+Pv0MQI0WED5BDp2/TqnUP0663z792zk/R4uOPtZReT8wlaO/cBtAPwNNwz8RMXU/na7pPxmKX7+bfWZA3qv+PwFISD9D4MA/FzibP/hpPEAe8ro9SfTVPp/iN7/P70c/k4gGQBlkVr+73OM/DOCyv5mLij6H75G9IX3aPuScJT+Bs9U/uHbqPQZBwj0RO609ADCLP/ezDD8A4aA/WlIQvusVNT5OlQ4/yXLSvxHtbz+fU5S+IBvNv8jXHz+wvsO+s7G9P1Q6qz6Xdic/AdYhP5fEiz/SNIE/Cz4BP6EDsD4O6wg+SPmCv0+I7r+rHLM/N0evP+YCDD+0HAJA7xdYPqvXuz8SiMA/LdR4vz791j41f6q+zJHLP16z1L6pD4M/pwAOv+pNvj+xah0/WV4qv8kOjT/FXEO/M0/VPhvPzj4VNew+dgarP5XEaD5z+g8/B6wDPFl7mT2dEdg/aXVGPFCViD8thVO+kc+vvjDdQD/3eu6+wl2CP1pQrz3OkbS//EEiPzZDpr/M9t0/U4HCPtMBRr5EpS89E19nvwS9JT6tpGU+IUw9PkBLSj6K0dy9cCiov8vL6T7nv9E/nfOGvodPmj8FfJU+OKy+P0mzuz/YKns/+9s8P8tZ57yhQz8/0nkEP8IUpT5UMgm/5+4jP16KkD9Z3j2/QkqTP7Zo7L48w5o+AUiWP09DuT6tv0U/CcHXP/Pp1T9izgM9oBpoPC9kxD82tQU/R9SvP5hVEL+UFxo//tMOvvedt7+Ugh0/SygRv6SLur//+mE+wvJbvdDX0D+NatY+ur5LP/YFNzx6H6y/o8xzPxteej4NNso+p8mCPk7ppr+uP6K/uFoUP5MgoD8bWou+gnDWP8SmxL9rhuI/LUyaP6owpT0Ch4C+w3zMPs0UGj+BQxq/zLThPjunLb8BKzA/8xevP1tYF78=","4z9y6P7+YG7+Cr48+2fPDvf5DzT7cpYi+H7wDQFsRez/M2NA+NRGCPU15PD7VDA5Arv6zP7gsKsBnUQE/4JvFP2afpL6mHOQ/e1y6Ppk+6L9sGP+/aiKPPsKitD4bqao+1F7rPym+g78ZYk684yLYvzkYBT+U13E+PiIavnGOmbxXSVg/xK1CPUKYA0CEvdw/Ysy0PzBMxD9mKhhAst3DP/qqAz5OGrw+PejSP7BPyz+olng/6XP0v2zDmb/zaeY+OxVHP0kfRL+S20E+DQFnv5tDpj7MBu2+GH3MPTbtEjve3dc8AnUHvrysCT+XeUM773UbPbSyVD8ntH8/QYq6v4jFDD8nEos8tOuzP1NSdT/ghU++v5vWv2gKwb9fYbg/wJdnQG9Dnj6ximI//Op1PzUNKb+KHIa/xDNsPgHP670H1Zq+e/sWwFd7jD8uLT4+fNk5PyPJhT+7Od4/WC27PyIsJb+6ScU/z3QNPyvzdr6mWEc/F6IWP4k94D5w5RW/EnJvP3aOab9/R2i+hHdAvwLSoj/mle6+z/htPmBK470jh7k+KJYSPUOhSD+s2vI+glwgP7yn6bz0G6s+N/KnPkEMYz94fLO/0HBsv/d2Cj8lov0/qLeMvndMML+GerK/iKScv7v/oL7fydY/c2QhPpk7O7/INFC/QVbWvgKmlz10StU+2xXhvVVoEL5P4fO9nulSP7BCqD6Np9o/iqAjPtiYjD+79pc/MCQHQHakmz8c9sy9XRTaPVCpjL8t5/++SVsmQCj/Pr5UNMO+neGtvHEOobwpfla/Wc2ovq62k74A2ow8uvF3PljveT2RyY8+FsSMPxwtAkAx6NY+okXRu/lqrj4W+jE/ETeWPx1/yL/tZgtAvqervqU+pT8bAZ6/DykEPxIZvr8putK+oe6ePmK3zz8wojM+YgEbP6xq7r5fmMm/9suFvztPvD7RRFs++BIcvtEkuL/Vdkg/Hc2vPlXzkT7CAqw+VyDPP7ZTuz8Ocj89rO6XPxY4Bj8C3gS/1/hYP8Bu8T+pHf0+jfqkvyfrLD+zHei+ZlQMP6EdQL8=","4M5pHPjU4LECENwO+CrBKP073vL4LO0a9JdzBPzaII703z8q90Hk2PidAwj8mCiU/e2MJQOdOJkA9Qhe+KKrYvSpYaL9/6IQ/k7ISv4853j84/jU/3CrivVIhDUCD9VW+xg6LP+RI2j1WVlk/qbXHv0QDhr4M9Zo+LDmcPqQjA0CUDsQ/3rWyPsP+gz4Nyfc+LRnev2nBnL6WOM8/HnB+PzYdEz/eW8y+GFEPPwSx1z9BdEe/Wl45P87UEUBDGrA+G/kFP5VPfD/tnpM/Fh2vP6c0S777Xqs+zaUbvqVzFT/AwNk/VJKUO31TET2aniM+tFmTP8Kchj+OAs8/x5qQP0HCwj3XVkU+aVH8v0cY1j5DTH+/mXXcPw8JGz+f9SG/xyqNP8zLRL4PqrW7Mw8HPsollT8p62a/kvZQvvkHNL2dCJg+QqTtvsY43z+d4gw/dH/bPvgTJD9QeAXAkfQIv61wBkDfR2u/yZOxv1Gn7b+9olK+FTe/P1wzqL5YIYc/9sHlvgLZlT9MRAa/6O9rP1TiJj8iwTU/leLsvap99j6ShA2+IPsAP0j3N7/SaMO/C0qMvc1X/D0nK6I+Na13P2l8tT9mYEE/fhe7Pjkroj6XaI2/0q6AP4DlnL+QXMk/97oyPyHmRr4GJsU/yX+DvoUZ2L4FOB4+B+mGvbD3Bb15dRS+bPfWPStkEz60Bnk/Y3SpP/kZez1cLxM/s+dXvYsrlL+GpxG+JqIKQOYbCb+ddQ4/5RddvgFhFj+ERdE9EZ7QOtwdPb5kmXk/j8+hPiEm/j4jxl8/zb7dP6vYpT6v5YC9GfYfPkDki75AWgY/7YDkPZ0Cc743C9U8TdU5PhK3VD8YdYA/e0zXP/1AvD9l3eI+B5+hPX6R4795df0+loEAv8EFuj9Rm2Y/+ymUvjFk2z/5qSy++vJfPlwzMz0B/pw+ANJmvwL5P74fAsa9NI0YPoOv8z5amZg/jcwiv3WkGj+sta4+ivnnv2fPgL80/70/1x3ivkcxDb8Y1t+/12MRvpfqSz5cww+/wtEqPyKdNb+A1i8/VbSdPd83aT8=","4wAUlvxCjOkC2tdA880vdvjISjTumjUm+xOvTvugT/D2ytqu/SCUlvp5YDsDpZuq+KMUMQGqaqz7xQQS/De8qv7AFfD/O+tS/Sul+vgTwxz8taO+/4US/P1KHFz+diCW93VLzv0ciQb/ZJcw+xm7Ov/tqvL0YUaO+L/oKPU3suT+xeKA/Oo+tvtVybb+5lne/R/LwP7ahtL8/S46/JbHgvKauq766WrO/YOfwv3uQ9j6pTxW/mT78Pw5Nmb7Uon6/wNzivi1ifb6C4b6/DAq4P478Lr7ObZw+E6mbPYMaN75uiP0/cCe+P8kFjb++xVy+FfmcvqkiFj+5cc0/g2qLP5fsIr7ShTk+vgfhP+W6Kj8tXgo/XR6+P4H0wL8lEZM97c3dv3TmJr14PkG/mTEKwPsalr55h5W/nmawPQTbiD5wIMo9tlJvP37h9z/Q8Xi/9t+Fv0/NJb8Nevc/8ZD7PtkYXb5PHvu+M32hP/mwtb9Wte8+4zJ2P1EsJTzfEWA/KQGBP3NHKr+a7RS/qidmvtnGbL9PGmE/l6FEvgX5O74R12q9LbxEv550oj+Bz9I/3zuGvyzqA75lGZi/oXl7PxuBxD/jnWY/5UgIQD0Vu77T6Nm9aQeQPa92Gz71AZE/i82ivwcEaz8B6hi+wPqIPdzCJT8zUiK/qP4hPyll0b0nmwI+8XmhPi9cJz73pfQ+fwK7P10hF7+sHKe/+KEQPtSbtj+6ztI+XXzuvzZXWb5rPUy/kvycv0Jgbz1NDWg/WOFWv7H1ez++dQ8/wPRJv69AJL8YFgG/zv2NPoQ+wT6Lj7W+psJov539tL2V8za/tabiPHHkbzyoIH6/qTIxvsZhzD7Cw9w+7rjiPzRwvj+n3c69UdCfvgwPzD+Z/Se9l2/tPkqcqj9BybO+YsIuPZB4Pr70Rb07rjoqv92sUL9L3fe+LkZivzEgcD1ovSQ9QsOxPQ5wez+w3p8/s8piv2Y1rL9tyYi8SBrvPynOwL+cKIC+vIzCveLA7D4h8oG/OY+svotyMr+5dTS9NsKnP6qZYD+vbvi+B2v7vZAyUr4=","4gyJCQFDLqb8pVEI9hSI1PreSqz4y/64/nIQZPicULED32x0/LHv3PS0fuz+e419ACa1+v09tFkB2JyC//inBP7lWrz8a6Lk/8xWMPlsyoT8SewK/kcWcP7DqA0Cw0aQ+sXVeP5GvYr8V1H28AZykP8tlvj5eFkw/O8ZlvLm7vz+OFki/p1O3P6UaTkAifZE/WHsuvw08CUC7kNo/AzUJQG5r1b04kMg+imctP6QX5z3atyjAw5ssvxCX+j8U9C2/SZ3SvqEugj+X/BQ/6TMcv+Pvib0Osxq+tEKsPueCpj+e8A1AV/cGQKBbLT8Deha8I9xGP63C3T+UYCu/QaGFPxuEJECmLmQ/X+zfP7tMMEAGKCm/7aylP0Dg/74HYQpAAxbRP5grfj4AyJo+fBlZP4HdJkAQ6YE/lAKGPnTbFD71phu+JKzSPyHPVr+8Agk/kBvNP9lqaD8GhC6/sb2JP5uKgz7Fee8/XhiAP/PfGj7dssE/LakEv/+ICT9AWRI//w7JP/z2L7+OtIu+cYiHP9K0NT/6p7K+q7xQvjRPfT2MHZA+ZSWPPsN8Sj9P+c8/KyoQP30hOz30hQG/88QMQJ4OQ79br7E+twsSQKdwvz4MOK0/p68DQKW7BcAI6Z0/Kgv7vum8bT8W8Lw/4ePIPiLps78KWvi+6Nsnv4ox8jvGxnE+AqskPvpIWL2E1uo/rVM7v8Nqjz8aqO0/RRjMvXqo/b7DhKc/U4Pev7l4wj+sMPm+fAcfP1qNmz6XTARAvygWPzFS6z+LeJY/u+98v6E9hT6uDM0/3mVVQN/6G77YRSS+WpWnPlsllT3ngX0/4J20PyRYED61cik/RDZgPY8GAj9Gfeo/yjo8v13MXT87GhVAKCuavpsjyT9JPOo/V4x/PxRHjz8O2xG/wcBovg1mwT/9lbg+c7hZPklF0r6E9Qq/6StOP1TDlT5os64+ofosvjtxpT9LRUO//wRfP+M4Zz+Il08/SL1Bv4v4qz9U4oS94ui7P4YtsD7iGSE+cjqUP8mEFEDNNYU+ZxesvqgkCD+YBGK/zePuvoOkhD8=","40GndP7hQL8BL3x0+z4jzu3t7gb7vkZ6+Z+fSvh+1+z89OHQ/XUgVPpwnhD7iYI0/9C8MwAmgSD/Ojfa+JFCuv6Isez8Isqc+2RSmv8nR3r+f46U/r7HSvb04hj5MDFY8VYOGvzGBdD45XyhAyKG4PzJxiD32puO+aMxgPsRBV70ks9g/dsxBvuRP1r4wqRg8Sq7SvwUH/z5DiSM/sVPjPwbl175omY6/ocojPyW6IT+3n6+/N5CdPwJevr/FtQq/hMeIPxA6E78pj3I+Vhu5vwVf9D1yPQg/v5v2vUNAGzzLpAhAtHWAPBc8VT9pS1g+gC+gP9pL5T8pZMG//RbgPwv0xD0cxG0/4HjnPybGKUAeeno/nc7Ov9EIaD9c3t4/4WQJvZvrnr1AiZm/RsYdPgM1G0DuvmY/dCvUPYbkij0+7rE+E8mtv0Yl8z80PyS/qFrqvi8xhz/PuvO/Kx4oQKs5ez+T8S0/ysE6vn+ta7+L9eM/DloZvdsCUL3eKyw/idn8vTptOD4/iWQ/0NPbvifGur8xJVK/bBqHvbKK6T2FGpO9ES7AvjIWHEBsO6I/p/03P/3ilT4UvZO/n+QDQJwhqL/J4A1A3TgnQBx8B78KzQM/SkCXPzH54b/taq6/P2FLP5B4pb5IDc+/p4pKPVFe7r/NiQs+4Bx1P2BDPr0L+o49eJqWPrZbMj6FwdE92q+6P/SSIb/XoAnAu/g4Py9dqL8Rq9Y8c3jKv4MdQj+7DLy+n7Czv9cyAEAhE9c/DDs7v/TZvj858Y8+SiZCv8JyxL2KVME/GCZ2v8N7rr5/K0e+LCkNv4BpNL4QtRG/VMJ5P2B+ND91rRU/IdBtPqoxBUBieoc/D83fv1sG4j/tVNY//ZcxvyNJtD+uRjVAqbWVv5b+tL8DTYE/0c29vvlbwL/fIn49vyPbvhcKdj7VIJw/F2JsP+oxfj0/37U7zVt5Pt3DuL93Fpo/qzMov7nQnb/O2cQ+7aTev1VHpT/pxiI/X1ABP5tO2z6FWqu/grfiPVUz+D98Mfk+znhcP94LgT8F01+/RjrHPx9BHL8=","43Bhcv71Tbz5c+6e9X067Pni89zwCOh4/Q2KMPr19jLufuAs+xcWiPR4o0T1013o9iZbQP7Tvjr0RFzQ/HG51PyoTsD93bUG/P3hQv37HoT40ytM+PqsGwFPjkT+iPbq8Lm8iPkmkjT5kdis/MR2Dvw9eab0pAYo+AC2svuLg5b+3sl4/9h3tugB9Qj9F198/yYioP2XbqDzjbz6/Sh6TPWMEaj8d47E/5NpMP26pn79WSRg+fRzJv6Bb1j54F5Q+nL3bvtcLWT9M35C+XyytPLP4Vr7NI9i+QLOCvWzGFD6w2v+/swHHvsnFYTwmfCw9uy+yP9PA47/2KZE/0b2Yv34skT93oI6+DOWiP9D8ij8Eg2M/rvecPm7Lrz7Bf/O+KguqP8Vegj2Hwoa8Xk3ePxz1kj9z/gS/wlhEvjnBhr7OpZC+bH8RP38LlD8NHiw/qPjVvlztvj/yaN4/SSg4vl0O2L73+9Q+eWGPP4HJvT98xYS+dgi+vpM3pz5nW5O/O3YVP+cb5b4B81Y+w5MrPy+wbT8yLeW891MevrqM8r053eA9P0glP+E4Xz+aXTm/XiYBPWZ6XTzC278+kTGLv3PxiT8xdgu/QdqsPrawjD5ONlE/BmHyvtMUSD/H68s96/isPW7eMD9YN+o/o8QDvnulaD+k+L0+T/gJPxnaqTxo1BQ9IBiqvgwgur70Tcw9ykRDP73+Ar+psDK/4mVWP5KTfj/h/h2/YjFjPi17WT55t4I9SYSuP0V+Wj3RQaw9tOAdP+4AT78bkyE/3GMkP13R6T7dzSg/EtT8v7A2Tz7DNIw95LceP8Nisz3L0BM/i13Lvg47q7zol8Y80EsXPpJbrb5GV+m/3966Py6zg786n8Q/1xuaP1Vcqj8Xfdc+EOOHPwn3Wj7847e9eNd6vqc+yj/wWU+9ZSEcvu4Scz4QOpY/seFOv2BwgL3W4qq+0iTFvn0XTr8GNTg/gLQRvviKlr/hnLo/r6LAPwaHqT8Z3xS/utHLPghrIj9juKQ/JIl8P1jXLD/eMqY/ql2cv5Aeiz+yxi8/Bs9Pvy5PLT8=","4heUAQHqlzb9BimE+QHicP6rYDz/WHrG+omDEPqahiz+THfK+f2fLvaMGJT8RUss/X7OYvxAHuz/c7Ys+2SIzPyVLoT7jkoU+a8jkPleqrz+dT6w/bQicP5aZDkA0nf8+ymW9PoKbb79i6gdAEr28P4QYwj5Bvoi+pMpavTNhTT8GExy/3yD8vsVqjD9ZA5A/cD2Ov76clT/W6Le9R72kPzuNcD9ovoE/cLlBP+My5z6tCk+/DvBovgKn9z/5Afc92/wyP0XscD8WJ+I/9W9Dv6UAFD4XHTw/ot4iP08QB7/sAR9A6W38P6gL7r7Be8m920y0P0Fj0j/ueWa/PrFZvHt5tT9+MJ4/LbSzv/yyqD82kW4/Rya7P+iHhT/HnClAqgb+P8/Mpz5l6zs/Q6MXPqxCL0ALhGU/4NrcPoeyCj+200Q92AMiPovhh78okV0/CH2pvhLxmz+EfJK/eW7dPyOw4D9zM8K/LjT4PUdu2j+xMMg/ePQlPbkbdbxkXcM+U3AQQFz7zL6fzr0/YlWDP69sfz/u3fS+cOB7Pg58AD94Cbo+ropoP/OFLD+oRMs/oLnAvuoTIr7G4i+/HRgPQCdAdr97/Q0/kHUHQKVHET++fC+/DkIRQIvSPr8HZos/jn92P15Xhz3pU9E/G6G3PqaGsT5xsiC/VJCEP0+HzjsCyLM+tEmiPjy5CL6XAV8/7b1Xv39rrr7JE70+YrnDPvkbY789Dgw/SkDev/8err8SeTQ++zaePaSs5D+iWL4/oCz4vopuyD9olJ8/hMJ4v9fPSz9zESdA3ElGPz7yYr5XXkK9nJ81PxKZqz6L+iS/kMDBPwZBRT8VUOO+NvISvfaCAD4mnIw/kwmBv/Hz8j76oJ8/T3FaP+exs780I0BA1SBXPiBGlT+Vhr4+Z1TFvBh5vz+8qLc+VzZLP2PRlr7MTqQ/ImpyPxp+wT7ILCM+ilCePRxSDLzUxEu/G1VzPsoI5LxEx7c/fTOCv/HCtj9O3HY/5DWxv+lN9D4IHnw/EiYzPX3aqj+OUts+8RKMvLLaMD2G+1K/U285P5EWeD8=","4Sjevv/wUC0BjB4k+bSyZP/R8Pj9uRcU+ATv/Pt6SdLw1/Z0/2ZVpvvPgyD8Fmto+Yc0IwNoltT6PYyk/DCHzPh26l777n6w/aoDCP50/0b/EzZK/n7wdQNsxZL+1lrs+tcyfP8b3ED8EeABAMMWxP0wABT+ZlTg/+cWLPkVaCEDjUai/C/JeP7kw6T+hDqo/7sXtP9pw4T1YewRAeXqoPynUTz/EwwNAsAamvgjgZz/iqro/UcjNvenpQj4G0du+iw/dP/eFbr9bXC8/pbytPzccsj7FAHg+JEvjPpyqmj08jLE/YPlRve0MeT/CdHi9gO4RPxWP2r+Dv8e/rKziP/4y071K2+U++AtDvka34j4XBK++jHasv4oBa79MvtI/Nybav03x/D6U+GQ/rUREPxwztz+Pk2c/IxHrPuyb3D74S4g+sTuSvVDE27/rlpA/FfPtP4HBoz+hh8w/yMdYP1matD9MSeG/URSLPhAKK0D/vYg/msjJPxfvWz/X250+5mcSvzenQ77fiRZAvTJUv4adWb8deRc/v56MPteFDT/lMts+gYt+P8RSOT+nGa+/ZR1sP0tBS773McE/YU4AwDRJvr/7X7I/2YBNP/ojfL6L47o+PWhdP9CU+b8fSZe/23Jlv/dvzz8CdM+/GN6YPr2Qpb/8cb4+e4ANQGQa7D1G0BI/VPh0Ptqeaj6mAPE/2Nmev58SnD9D8II/dGIsPxiuoj8y3+k+uPZlPwU5yr8FBko9KulhP0yGrD5KccI/1H9PvRN7OD7cjYG+HwHEv9R/mD/kCNy+8MRsQI3gaj6dvi66nq2fPzM9wT7rQvw8BcDLPDeH5D4WATY/hvpMvQVBGUDcVNm/A9TQv6OAmz9Ft0U+rJl9vx65hL4o1g1Aeg+kPQEflL/0jzy/sHcpPyIL0r9Uu9Q+417sPh42vz3bqAQ/kcVgP1TNjD6qcu0+8ju1PuZGmz+jlZK/dPXmP4szZj6y6sU/IZ69Px1rsr97Nc4/GeW4v/SwD7/QVMc/Oqomv43PDD/wRIi6o2rovS8Myj41isS/2HbMPyzbNr8=","4j/tsPxI9NEATQ7c9yipLP6kZyz22IJ2+hdCQP6ICNr8n/Wk/KGzMPVZTMz+sHYc/TisYwC9gCMBhS4c/TSMOvwrhyL18MvI/CQsYQGnw279r0MW/0CAgQMpW9z8WMLg+jxoqv+BLxL5MpQ6/aRi9PzP6CT/tKoq+aohtPpmRQL9skqK/4BMkv4Is3D9VLABAq5CzP5Q0vD+A3yZA84WVP2XHjb5HvQw/K7kQP0aSIT+WhGc/FJjuvytO0b/Yq6I+XItwP93BIL98Spu/ufO1P9F7FT4w3Z88OC9GPopvJ7+t1ik/DOXCP32KVz+vGx49pUZvv1lVKD8YScy/ps7rv6a+eT8dpx4/zDgPwCn/xj/SoYq+5+vKv66Ckr/LLIhAQeJlQPli9T6N0vc96ywnP0qLhD/5Jng/yn6iPr3X5T49u1I+Gt+9PCDEuL9dePA+UGPOPV7ttj8Eeqk/6v7lP8K7BT/7m0U/E9rYPWVrCT+dI4c/jM00vwf2oD6fPvS+czlIQK1uW79+8Jc/1ckNv1l7RD+Wj0w/+zADPvydBb7eTLY8D1oQPz23hL5FIJo/IM0qPx94UD52N9Q9BH63PlnG0b+zUMi/mJLjvkKoLz67l2u+oKDAP+d8Wz1Az6q/ewl6v3wO1L94vrY/A/ECPzC4lL0Bq0i+0UTrv4aPQT21d94+CyLzPjtYuj4+Ije+KayLv5n57L7xrso/v7DXPoJrhT90VIk/h7DaP4cYAj8xY6++rvcrvsFKsD6Pwg2/yLfrP//kED+kDkq+TtBwvzKiGj8rhoI++chNPkveqD4lNg2+sRDVPn5V9Tteg0W/OEiWPr8kPD3adCM/6Q38PVwjhb5hBKa8Tofbv3kNCcCZIKc+F0/vPqNh578M/AVAKjcLvwY/qb/bo5K/43cBP7fvuT9AlgE/jyFZv/YSnL5YZ7i/BRNdPxjlvD7eRDE+5U3CPuP4y78ax0q/B07pvUT0iL0KCss/1K2nP+VPuj/0264/H1cZP+2f4D7WzMI+8yCKv4dBCUA/SPY+NS/AvxeBMTzrOiy/6gaSPw2/Ab8=","4dElLv1IUDkAux62+F2oPwGicN78gVlW/uRcZP7rvEEA8+kA/DSUEviaClTxE5KQ/iJujP8g25D+YkSE/6FwJQNr8oD8ErXU/04erP/NJzT/pot2/ezv0P0BCIUC/Tem+bD7DP192kT9iMTS+BU/YP/VszL5N2IO/5uKLvtXC4T7YCJY/wx28v90j1j/BjoC/UdmCPxtohz/Tvv8/vGKlPm79Cj9jA0S/qgjXP++8jb6SlSQ/xNLQPyr/lT7YVzw+kukdwDsISb5Uzhi/OF21Pws43L7+p4a/oKLfvmH4zr+FxBI9tik9QDbiHj+BJL68LsWPvaFyyL+Mq2M/CRHMP7Yejj94A5K+oK2hPx+6TT9pB1c/1NepP7BunL/ntVI//gp/P9g+5b4K8Xu+yyxvv/uQXr5pn3I/i7PVvmekxr69apy+zL/YP/4CyD/fgAXA7hEZQIz0wb+F3cI/gM7uPqO9Ur4bcWI+2eZTPzJooD/HO1c/54p0vgSSTD+4mZc/V954P1842j4k01a/HGi4PJmQmD/S0h0/xKuPvsEYoL9ZpMi+QdYOwG/iXz9wguE/Ke4jP4e3Y742wu8/lF3nvX5pSz/vfFW9h3BDP1D2Xz6sbM0/imyEPwysqj9t944/tViFvxhtmT9GZcI/7ugEv1uTMT9wpFE/ddCRv2MswD2LmNG+sOXhvvWycL5OUw0/mnWSP2z/AL9CB/o/aSRVvt3AOT89vio/oaMIPtYgjT1DjtS9kF9dv3t8BT9ezh4+Mgt+P1W07z+owZc+KPzYPrGcJMDm7y0+bxc3QE018z5NiA8+yPy7v1+D2b5E/eS/9eZIPWZdgz+iy9s+iqxgvmputb2jzr6/RcaHP2Irzz+QqYA/gMyzPufimT8CAFy+K2d6P900lz/E37++zhs3Pc/Gxz8w5Oy+Xp6aPrF/kD5BB7q/us1tP6fqzr7DQhK/vqasvrVBvD/FaI8/f30JvfWQiD+VNIi90OOyP/MDJb9t5e8+meC5PQsbRz+ybf0/WRuhPxNvFz9LDY0/1XCiP7/sgT64DPc+3rDbv4+SNjs=","448AAPgl6K77wZK6+CfZ6vzKfNr8eVm6/HAgXPsz2P0BwPWq/Fb1aPIaAGb16gHw/C9UDPyFhGUDfv8Y+6MZWvaW3Tj4kpHc/+PBCvj1h0D8ePVE/NzygPgsElr5lKwK//RubvWtOfr8UoTU/h/TKP/F17r756YW+Ol0OvrKxWz+dnHg/rFHZvnpgIj9s6Km/KST7vwmptz9ihPw/Z/enP9478j67Yhe/JKwLQKw6Mr56TAY/FfgNQHdxij7w+Uk/Bcn1Pn+CKz+wyRS/SYK/vgFTqr5qJwq/kk8Jvy1qHr9u5xq/Vb8WP7/lUb9kFZw97kWlvxI9jr9/YA0/8WuIP86Fyj5gWbm+ByUCQIEA9z6Ae5k+YRy9P6vREz/Qeco+UTS3P140s75Al82/pJHXv1Q6jL9z14M/5Z+GvpfoCL9eoLm+AxtfPslkrj8b0yW/S8i9P/blMb/lCQPA2ROhP9BmrL83X4k/VEgaP8/++L7//bw/kRHpPu/fAz/MQpI/CMh/PtfUp74uqMy+yEcaPzWWBz8vZ9e9/7VwvlfM675RzsC+Pcplvx3LCT6pLO0+Q2xbv+d+ajfLgIs/7J4rP42u+j5r5q6+hQY3vyerAb86+jdAl5+0v/vIaz45z48/JgAHP6YZRj/oBYq/imeCvvuRwb8ZhE6/2upjvwjoTL0F4J++qurGvmbUwb5pB/w+UhFhP4r8fz5e8mU/n3XZvSecv78axOg+2JquPyPfKz/WH6y+WWsBv/xmAr/mzL2/DVujPxd9kz+2ogE9G7G8P46kW78DZeA+XzGzP8znNL63uwo8uVITv1tjyr4Dlsm+BdayvkWvFT/aKBS/a0ebPeVFTr9hB8K/Tz2DPokarj8kPHs/jzzMvp0O6D+H3QzA7/puP6FjoT/pFrk+bdROPn06ib+oMJS+nw1Bv/nRfr8Kdb2/NFd6P/ftWb73bQy+lXx5vl4WRD+kWT8/XpSnPf+PbD+uqmW/zZTtv2CSmD/BW4u/PtwRP2ibFz+3gDG/cL/3P7sxET+u/gQ/4TXHP+rB470VwbI/Jig5P5PgIz8=","4f0XgPfBMB0BoSPu9kT/fvt5lCL9JLfq/UkCqP3lbiL97pXU/V2g+Pkeo/z8ZAlNA+nroPyE8oL9UFMA+miSjP1rbIEAZYV4/S7qOPvBO3T+emde/gU5yv7S06j8accK+PaJYP4Aczj8yLtG+IWSnvyM21L63n5m//ZxbPmbO3L5l/5M/+g+kvz6hfz+QthE/Mi3nP/nFjT5M7Is/PTMhP6+vID57JZ6/RUGBv5zedT8YQPM9adD+v6hCYr+GYoQ/+zYaPx7jw700Vk0/w1ujPz7PlL6M+TI/9wfxvgGw2r8inMc+avVNv/f5Wz/3RoQ9AYQhQFg/Vz9hQqI/rOZ+v3XTGTyuk4m+CU7pP3xt4z/tBEw/23DSP0G0ob+NRny/uV4AP6Oegb4eCGy+mIQ7QMuSpT8qz1y/zlmwvlr+lL7HhSg+ef0bP7r53D/+ypm/kH4CQOkslD69Q/o/UUOSvlJchj8hrl8+b4GyPgwYg776vIO/8yk6PxZwN79Ot0e/GMEmvwga5D88rE4/zowGvoTEpz+Siy4/45ZvviLwRT63Lou+etUuv47hdj9BTJG/Z1RUPzUUmz4M8IQ/Njwvv2k8kT9zQOg+Ee3PP7UK4j4EeZg/81HYP39p+T8jJqs/uk5zvyusVT5GRf8/nO7xvVANYzt8MZo/9aQ4P+uq8z2zKMy+nJ+uvktNLj6Wj/Q8HAagP+zHLr+t3dE/BOFSvwnArD+OWRu/umFXvVH4CD+rPHw/bQWSv/cdIj8W+7g/CxrAvphjCb+huMq+lcbFPwpZUL9v/ng9IDDqPWc8tz6QuIU+mwlYv2QjJL5gbZC/7tPJP/lF2j5sMy8/+Og6Polcwj9OLb0/HiPAP+kvhL/njg9AD6gUP62B3D+g+GQ/fG0Ov1+mwT92UYi+cKsuvv+syT/Na6G+AqdPvbH7kD9eCMk/l1Vdv19gkL629ra+5aJWPknWyb+oGY0/8flBvz+qEUB5+62+kArnP/KgH72EDOo+ICkXPxrqGj8wuqq/ajShvuU1aj/zoKo+Swa4v8RJurogTuQ/OSzfP7k07r0=","4T6uzPhwMHUA1n6w+nFDtvlnrMD/XhWQ/zGrnvucG0j+bp3E/pqWyvQymB0DMgwtAprweQALa9T+77OQ+j143QGZPmUAtLzNA4qMNQOLDVr+S/C+/ddNoP7+i8TpoUvk+EFuXP2ZavT4g0SU/AbI4v8FDAz9kgYw/eRVHPjghW78xYIG/DeB7P3+i0j9TLy8+UIVAv02Lgr84cvg/FuEQQHraYT9LITy+eV0LQP029T1sf3k//JUGQJhhQ0DlBJA/XcTHvnkcaD/9Qk1AWbu8P+NZ2z49JbK+VXb+PqePfT+bfEw/oLErvl3kMD/5xHO9P7oRQMBQxr7nyOM/EPbkPpC22j8A0v8/DawHQBCrHkDxdak/Xq0sv5dSA78rO9A+vo3yv8qB8D4r4Iw/NvgPPxvzi0ApI6S+jWfdPqg2rD4aw1E+lEZ9P62Wfr8YKJm7uAqkPx1RMj/DRYm/0d4rvvwVcD/kH/M/Anm/P3L6zL4VFJE9wgeuvyYN/T/1DaU/gSwzPohzlz6W6DC/SgRVP03CJL89kk0/F7+5Pi5I+D2jA+o+HM5mvVJxBEByE5C/2ABCP+VcWL5FBqg/+YB0PdY7wz+/LcM/1kBcQFIz6L34x4o/zi6VP/SMMj+YVhm/J14dv9a1WD+t/7K/7/PQPu9G2j9YHX4+WNIEPxGrxzz3Js0+Y0ubPhxCOT79PtA+/bcfvzDzIj9d55a9/yqzP17LH7/CFYQ/80EBwA8C5D9pUXc/AFmyPoKCuj8GTypAyXrjPiM9Cz/Pgak/SYWKPdbICr7aNmg/TbT0PpxRpz6f2Rg/0WhHvoJT3D4nP4s/JtczP8N1Oz+3zBM/6BTOvZawjT/3gAG/+bPjP4rGhD89D5U/AAHBP4t82D/kNB5AdnVqPxJMQ7+73UG/BoSmPvf+qb/xt4g+WMjDPygh+L36Yt4/Wo4Bv7jD4T4r3Qs/xc96PsO8q7+K9A6/7qx7Pg0N2T4KGbs/R3CCv57IlL+sI/0+BHzbP1q0XT+Vkke+HXPrP1MnwD/Ev8c/Y0yzP6ORAkBKbuo8fHxIv9SpYD8=","4Wl/nvxLAD0DbFTg+g4FFvg0PrL6W3I8/oggMQGQciL4nJKu+TsKZPWDLoL18G/M/t5iPPz04m793Wkc/GN+NPwfuoj+4alE/Yck+v8eSuj85DQNA5oG0v6IK9z9y6AC+j5wLP9/EoT1y24m+Glmhv/wd8b64ZtY+OfxcvjAzrL+A/ai+w3agP9+V2T6RceA+uG4TPlN98r+qyuw/TWubP1GCwz+G8Y+9yCPIPnmv9z+pbZY/joOsPljemL+9K6Y/nXy+Ps8TMLxWuYQ/Jw60P/GF97snzZm+QjN3vn7wpz9EB22/JmGVv8vaGr53HMg9/mHbP6CLD8CyyVM/C6PPvzzlq741Gmu+S3zyP0NDrz/zaTw/t4nCP+pFwj8e3+2/FNUfvlXJE70XPkO/I7dfP3+YvT+xoTW/Z7XGvrIpYb5pA8O9IIrhvRvRUb9Jaj4+YAAXP9LCHz8dyHQ+v/LNvqMVhD8CIfQ/QLcPP8s/Tb95Q1q/wpqJPy3Qz72HHB6+muncv56dGz/bhDS/+eirvNNDmT83aTg/5vFOvbfC4z0RvI2+WQRTPhMOAkAI5Km/DleQvo3MXj6q9iM/nsASwIpzKz8/XNC+myZuPxFDMD87FJk/IfW+vmX7bD/L3J0/4NyUP2B8Yj+3LtM/SWjlvZbiFb8Q46c9D82kP1XyHr1h0Z2+yHFZvgfxZL5h/Ry+Xcklv4/gLj8Ek4S8YGiXviREGj6tVhO/FvYaPx5g1T8/TmY/KXYbPpP9aDxnO4o//4JCPwgsg7/Qqy6/GHftP+vDKj4Z5gy/H83Uv0u2lD77BsU+5ozDvduEM767Z4k/MY+WPxYhBT8auCi+bdUOPqKg0T/VN+2/TQ5OP7wGmL96GBBAtXCwPtYuxj+D+qC+LsusvhDTrj+vSDA//F2HPuN9wz/2BTu9MDulvTvGvb7/Hbk/bC9yvzyo7r6lMP+9AZdQvuR4wb9EI8G+53TKPhxwFz5Hlwi/wby+PhdLqL9BRQI/kdfAP68/Hz8OKVW/m+12PzYFSj9di0g/0kC+PsoHpz4W4u4/t6GyPqsRv7w=","4x/P8P2CaBkCARcO7Chd5P3/Fpz5SVLQ/JxfEvjQaBkA/yRy/NDXrvX8d7D4AjjJAYYy4vwLdwz+piQw/IKQAQJhRLkBP/bg/iK49QMw7zz/dDGe/MznYP6RJvT9jm+Y+SznGP7w4mr9Cbre+YOaTv7C12T7u65c+uBzyvRbdRj+SIIo/JmEMP5B0qj8BnU+9oA6tPycL5D/rdeA+lQcVPx6O+r6Mpg5AvfoHP9CgtL7Oyp0/Z/Lrv96H4j/ZMg1AmDuxP6QZVz8nU0o/YwmWP7QLzD1MivS+Ul84Pu6CFj/sarI/oKLbP+eSLL/Pyz280hM2vlWXtz8gL4i/BUYJPgFs3z8ZpUk9QgisPxSr3z+o3KA+yBfBP87XN7+YI8g/qTOKvVoxoT7emV0/+/I1v6pPoD/M0HC/lCG0PoNT3z2kjS6+Y7vVP1Xlnj8Bg2A//k/qPyO8F7+TSNw/sHpuP5hOub0F7zu+nMW/P2UlIED1w5M/+n2JvxoeCECEBFK/5/f1P5Mamj/10rY/xrFCP6tRuD8XqUU/AV0sPUh2A798f8E91MKQP2BsiT8tsgu+5wPgvjXkrL1UR+u+UEuvPyQXaL/+TfU8fkv+P8j8Tr3B5DVAZIAEQN6lvz+XpJA/u2LrvsQKuj8qZfI+HQprPhwX6T9pZEC/iOdNvdwgfj3e/8Y+rRZzPDZQq70dhtw/9w9fP1sUnL5fOf8/EIujvykskz+Cs7Y/dcQFwNTdhr6doBs/tKpIPyA+gz8SEPU/J8yUP9Oniz+b8HA/ipyxPyzNbD/6L10/9odDQILx2D6/iBo/kHySP4/GVj7ftRU9Sah/P7DHjT+zLOa+JtuPvSJNJb87+6k/YuN9v37vPD/OwA0/jBO5P+fGrz9kM5M/3eMSQCM+nz8jd0G+nQmVPtnT+T7R64o+NtjGPjIs775ENQ6/8nDzvjbNdD43Rmw+RMSpvuQMeT/7t2I//k0pP2iOE0BJFwc/yTndPx/ppT8XVem+RFk1viAdLD+sjuo/yzWcP0UBxj/yfpI/oQC+v6FvIT81q7Y/I96fP527RT8=","4bgmMP8d66z+xchu+srirvzPlGz7tGnu/PdCJvrc6Bz5aLWG/oPJSPf5Tbz9CHVFAKojZP1XY8j73OZm+IJ7IPyRZBkCMfTy/WWOvPmghwz9gANg/kqrLvzrFEz90aZg91f6BPrZG2L2+Go+/F0Gsv/tqRz1F18O+7gtmveENXD8Fs9w/9hEGv+Bemj+Ddi6+FqfQP1hD1z9vYm+/9htSv4gCHD47qGS/4nKLvxPlML+Duo++rZ35P5pzR79eHJk+6BhzP+fBRr9D/Om+3RycPxj10L1Y5/i+4H7oPRn9hr/qunY/VqHlvEJMPr+xYRI+w9m+P+6+wD+CB5A/vR7YP0TDWT4aMC0/WxMIQA8G475ja+M+ppqfP63wrD9kgo+/zzsBPglccj1y4Rm/lvsFvzz5Tr/a42S/zlk7PEWDxr1KSM+7+6QHP3nU2D8cWZ+/nAOmPycW6L61q/g/oquiv1LRm79qEe+/vuurP09Noz3SUU2/9AHAvsFIKr/+XbQ/EwoCvmp9eT+y4bs9deRav1Uomz9SURo/2JSjO1rh8r5QzT4+8ESMv0w0Tb+oGMK/XN9Ivz2UTD7eI2w/OtuLP0NOhT9YkFY/FTqDP3vkiD5E6ao/3Ax3Pi5e+z+m16E/cbSQPzvvEz8zDJc/ZOeOPWAG6z7wvZC91mjyvsIUo7xr+Ls95snBvS1CcTy4DJs9oHCKP1ElNL7AmGU/yVDAPoBMoT+Ded8+nNEcwJXV4r+HZ6Y9ya2qvyTdpj0J9lW9irFcvzGxlz/n4oA+pjqJPzGHkL+yjPO/pmaPP35PpD7Jz9k9YEg8v3rXNT7Z9Em/DgY8PtoPcL/W1h2/H0HwPbfYcL6V9wBA6u61PzzOxz98cnQ/9ZcvP4Wh1D+J9be/r2vMP3Armz9Zypg/pGILvs9/kj9hz+s9+UQpvs/9Oz42OUG/rmtyv2dL6jzW2oq9xhYRPdTEqj8Qm2c/z02XvtfXtj9pBqM9eEHOP1A8rz93jDW/N1jGv2wXpDwKvUe/RgKvvurlWj1uwho+/DOmP2iUNL92DJk/waTUP/k2I78=","4+tYYwIAWJ8BrUEq9eg5sPy85Nr75x2G/bHI+PfYOMT7YC1k/AMABPnGjpj8ZiOs+jSwZQLgnDUA47AW/3sGAPdG5TT+nxa0/ZLrGv2+QVL+GNqo/HiuqvTdpvr9XxU++eLhgPzpSaD6NzVA/Y6q7v5L70r2aIV6+UA6kPke4CLzX1Mo/47QMv+u4mD8NXRQ/VFbMP/xE2r5vU7s/QQ/VvhhNLr/b9Ik+b9MKvsIMez6rvY+/a3fOv7p9DUBvkZo9NSl1O1/7cD80bRw/0K60vy358rxKyxs/ibOhPZ26k78qN0A/vSPmv+pEQj98yQU+5omoPuoLs79NGtw/KH5QP0+Km776GuW+PXWrP3hZ9D/MCVK/hWhFvyedgD/MBuO9OqrOv+QxHb4d7c8+8CFdPhUfyD9ucEG/J04kvoXHQD5icEw+gL/ZvxYY1T95qIs+nHXnPyP6oj5BPAVA0L2ivvBkNUDadvm/xo2FvhgSyz9f3X6/ibOfPiArqb6X4tq+k3d6v5IqED9mMcE/LrRwP6esVr/pNVe/bROZve6Pdz4fXxi+wlO9Ps6liD/D2iY+vqEsP8kQ9D2LpwS/GVyov/kCyz+1hoA/ejqxP222Eb+LUls/iZejP6N8mr8Hly2//StJPyOzq77xIMe/9LYSvgzdgL6WYFs+OTQJP2EJKr3rWLO9A483PXZDZT58F4A/e52cPzmu174rnTM/byEXPWRRpz+/DWy/8ADuPojY2L+ahz4/4RqNvpxtjj4FXqk/lri9v2BaRb9p6ys/QiukPjhOaD6JF7I/p1itP63Bjb4XnAi+UeskPg/7t73YIDC/9QY1PreyKj+8HA8/mc4/Pm5nwz97sLq/3hzjP2ybvj9VeIu9fv/Evpn6lj8srShA0JcCv4iaNL8I+oM/NTyAvmNrvb/EUAi+rXECPy3vHL63MtM/ORxMvyKm2rtAf3y+9K+1Piz1sL+rP6I/g7FPvrC6KT6KzWM/po7kP+CmeL+D9tY/zGHGv4xSIL99Pdw+h9TCvXJTjD+BLj2/iAuSv3v6ET/D/wI/AZn/PmlSSD8=","4yqEoPzj+H0D/Fr4+Rf0tvfUl2z5cHik/+ecvP1igFz/3i9w+YJIiPtAQrT+1G3E/UOkGQG2L7L5GGJE/N0SpP8Y24T0l04g/ClPLPoEs3r9gXsW/ShWkP1231z0jBhg/++ppP2TTPj/VyC1AOmXmv82zuD41OoA+jHNKPahRI0Acc7a/RkibOgptlD+ygLC9havOP6Yfrz87pwlABzP7P0XCG0C88J+/QnDuPsYjoj/6RS4/GW4AQJD6ED+2sAu+OQqovzBayb5Qztk/Rp+5PwLnsz50aVE+LH6sPv3VMT8gApY/NoyOP82f9j6v7lQ9jBx+P0UhL786QLA/zvSZPkM3xT+2mIg/n0nHv/bZGT88zwpAPN3WvwMekr+gbIs//ZOEPwEc2D6QRz0/BMFbvWdz9D5CcZm/kze6Pp3etj73O8k9NWjBPiGz47+W1Gi+EL6bP/OQFz+qfsc/YMPuP+0shz8ABOG/I175Pn/zC8BpIwZAuegpQKw/gD6LG7M/fw4KQASmxz7ZMr6/JOfLvvdSID7rilA/a5fIPg9IXT6bFp8+F85rvg9Jjz9o8dk/Sip4PubwMD6LAyxAvUykPk5Dtj9UxkA/6O0MP16uxr13/a2+/kPCPmIOrr75t7i/ngFzvzytQD+FqB+/o0G2PvT7hz8eRCQ/gPj1P0VYEbt2jMk+clKYPpTOOj6VmPQ//4ubv/0oHL9qi6M/Jit3P2+jnj8I+Ys/31UEQE07wb9+s+4+780LvqzHqD7UcGM/toMRv14rrz87YyE/WuJTv74B5b2QEEE/tysbQNzRoz42zC8+YSzZvmviVD0XpdE+Ao0HP/p2tz+35Vs+lbEuPkOnnD8bmoS/tRHNP4mOBj/blaw/UJmFP6osxb/8yLA/JOa1P8cRvL85LJu/RmiiPah1Jb8yRYE+AoV3Pzwjxbz4O/k+xlNiv0x5hj7Lhzs+TQQPPmLj0D9HqJa/xsGBv6SyTj/mCDk//brBPyQIuT4Fcok/7wK/v9i+gj+zKnW/p73ZPijeBz+gngw/zM6NP6x2Wj/3aSi/G3PPv1gnnb4=","46a/kP+oBF0BadYA+5UOKPisxEz/m67e8v9P2v8mojj6thJo/8NMDvm66AEAQ3oS/PpyOP1SALEDX7Zq+sijgv/5Ik7/8y1u/R3yqP2wesT8rOQa/tiPqPgQMs79Gd+I+a/a3v0afHT8Qrvk/oSTOv/HXvT4T45m+jdCuvgmaPz+VibW/ueKbvpW8q74OU48/ndLfP5PCRj5pm+2/Z/H1PmsdDD61Rc4/DS9nvzXSxb8zkSi/apsMwHaPuz8NqJW+UE6rP5xSJj8dIS8/5aemP0TJPj6UWwi/huHOPkuwJ7+9crg/p51+P/uFkD/4Zdi9+4roPsw8D0AczlI/A1iqP/4ePD/zo1U/oqcQwFcMXj+kXtO+9TCfP5jky74kPB9AOT40Pjw67j5WhuE9DqXXPx1FIUBieIy/60+aPoTvnz1JvOC+xXPcPVQq3r/ituw9j6CUvycy2j8Mruw/expqPz/6/z4GMsq/HHoqv7KcOUBLlZY/+n7Uv3g9nj7D5Ja//Z5cP3vo473yJfs/YK5DP6DcGb+7Izg/xyoKvYCJDr9tKfM+5GygPj3Bq75DCug/AO1TP28WDr4z4rO/rgkdQPThVT+CW8U/rj+pPqln6b159ZG/RzGZPybcH8DBm4Y/18gNv7kDTz8MiJe/bQziPmbX+79y36o+3Q8/P/QR5zrz1Mk+Q65bvWdw077b4WI/dbqSvyFbD78ZR52/xZANPiH8qT8Ct6O+AMC2v7w4tL+uShm/g0dPPVyYZD8DvSI/c9I6vXFjcD2m4ok/RxvUv8tLvb0vLC1AeIG8PiXmzj7VlLk6tozmPsaknD7a33u/4odAv89u3D4fKFs/tW1UvpAyxb451/s/cG9JP/HWjT/pilK+of2Yvncm5b9SVmVAGCrWvtVfnD//UzK/c7IQPtURi78d++U+qE9Ev//2Tj+c88Y/X+F1vxXrgz7Av1a+s8ucvhVWOT/LLYi/nbQBPpmbz75ySs4/5+jZPwaCnD8e18y9UR62v4/6GL+tDq4/X6vMvtjp8z72eJS+XS7tv59wbr+pJde/z6jOPwE/VT8=","4RszWPx9c/r8CyBs+nnyyPfjKLD+uVNa+ComDP72Svr50zDI/VGAfPUEjfz/3B70/umgRQFCqnb87IHg/XXv8PoLNsL7eYWw/YKTkPyjutz8F9Yy/3Q5JPw6e/j8bowM/TfmxP41ynr/YhJI/uK+wPwTm6z7oJCC9TuMJvuq+JEBlxa+/8KaRPoYJtj9oqqg/Nqz/PxVc3D8Ikbc/8D93PzXCFj6gthC/5TMfv81rmj9PQME+FNwGwLipvL5uZz+/i9BVP9+pJr/S1909Lq+Yv4653D1sMIQ8AWrWPg7v3Lw28gtA6RWfPyj/MD9fzQM9YpzZPhGf6z+yTNU/dGNkvoj64D9Rtxo/iDLQv3lkxj47460+j+KhPxZmWb/W7gJAh3MvQLt0vz6to5I/MSqIvfUaqb0Ggmc/FSnCPmMOfT6R6Ua+O2KOP2hRyb+ZvQE+cB+eu8FORT9OZw1ADarSP6O5gD4XgcS/XNIDP7KFpb+jibs/Z7DrP1GrgT6wbUS/pOdJQGolLL8Ynsy+n3oQvwjA+j7FEi6/+PIVPi7fp71oweM+9KZrvtQZMr/6b70/n4IRP07EhDwX4Mg+Qr6RP039pz/bFAm97GSBPqSBPj6VOky/WOi4P1kTqb1/1I8/M8Y7v9kvsb4u0rI/1xXhPlbggj+44Ui/+5DHPqyfOj1i3bQ+Dp+HPh/lq76yLr0/FlyHvxlUSj/ZnqA/rPFNPhtUsz8LMhw/csULQEXjpL/MQAW/Q200v5tPMz93q4o+bFS/Pi9m1D6THS8/etTOvwf1uj3MsUk+6XX/P81U+r5eqZG+a2isvlmKhD5Y0FC+aFPXPkqCEj9aRe0+YtWPPd/4Gj8c0tE/38rgP7aHGL9q3UQ/enQ5P0Shob+ycak/I5OBP9U1oT8oRG+/bescvu6smD/5MJo+FDW+PmQW374+R3K/icFNP3Cznj4T2I4+LzuIvrPlpz8+gG+/VqVyPrk1kj51/t0/gzrjP5xouD8xSlU/d2yWvw3OeT/NooW/DsZqv53nZz+aOns+ZQPTv82hFD9cbKu/M6HOPkVLEL8=","4S1qsPzByNUDDWDo+nPQKPxwtRj9+fv2+PquUPxxPtT8WgkC+LMjEPJND3T5bMDpA0+ibvwc/mj/XsDS9IpXnP4HJ1z8Jouo/BUVDP0neWb9itzK/X1AiP1k6DkD7rw0/cSL6Pwa6XL/zsaO/5s3nPwGXsT5uOom+i005PRWYD0DkPnS/yJ8dvw7hxD/nXK6+cAl8v/s0hj2q59o/izDAP/1VUz/h4Ys9iYs8P/I8D0Dbgb0+tSjqP14fMkBLbZ4/VqUuP//rDz+NeeY/yeC9P7LaIz4Fx4w+pA/3PsvYG78iLA5AXWc+P2wD8728l4C8P2+bPwTKlT8Bn3u//EZJPmQUnT+rAjg/jeGpP7g4ZT9NxdU+QmRiv4LTCL++5mu/da1Xv0wwCj9AEqo/QCSZv4jjhj8gYos/5o6RPqZt2D4hmQm+uYfHPzmVkb/Xfow+F6rsP25oEb/gmI+/HN+hvm+iej7RtLg/lLqDP2QWXr5U1XE+kmKyP4eLqT+LC7c/GAqVPmetjz/T2GE/7xgYPxe6kz8qFlQ/DfJgO68nvD0x1Ls+xRfZPoDFWD8S7IK/MBC2vRDNwbsJ0k8/KJCHPygNWL+VJ7E9zwIKQNsWoT7MuUM/trFKP7GRnj/BpD6/NPcTvzlPfz/nOZc/3A11PkVf7j/p4km/oyE7PlWiwD3Naqk+r2arPnWilbzitqI/rE9ev3vNsr7cIbg/qhtZvd95NL8f/qk/Cz7hvzbGrT8R6GU/ao2Lvp5fIT99aBtAiqkQP8FoRj8lpIw/BuuRP98z4D7r/2K906QaQPvTtj6Mz7g+5wE8PsIGAj/YaDe/Gpf3Pybx8T5GDoa9hRIAPcywWz+SdbM/KnCAv2SemT9f9Gg/7zB+P/t4mj+4C/2+ppKvP3KKUL+jSzi/l4IBvlcMjD85X7k+X7tOP3B6Tb8VeGG/btVmP/CTzj7SWwA+9Ut4vL5loj81S0O/goWZPbuSBUD2goW+68eFv4oue7/Ijb2+nTmmP+OxaT9eV9C9oG+8P92l/z6ZsSU/HqqgPzu4Wz/sOJM/bKp4PzsrGT8=","4sGVxv/VwlD+l4YG+LYkrPrgbGb+O9pG+xJcTQAJ5jT/+Lfm+b+b8PYBhOL/7x5i91dA4vZJZez5/BrY7frNyPlzxkL6+DhM/Cx6ev6Dlxj9c3xm/vSiMvnWeGUDc1/G+9+T3P0UvTL3LNPG/2SexP86K0b76R9a9OLlXPVx74D9TUDg/0guoPpMM1L6JXiO/gDy+PnFRwr9zpks/gERwv6t18L2u3Og+QoZnvhv4LECdbQi9nKAHwOHoiL+YDFw/97O9P/smlL5MjAG/ghxOP4Ujq74hf2O+AFTtvvDHjr4NzJ0/dDO4PpjwCb9ujic+qj7wvVGDbb9wFjs9TtANPzCm/LwJMGm/D8aEP0Q3sj/L57C/5/e0P0q0DL8Duaq/WnU1Pdmszr4+n4y9lf1dviSmhr2D+F8/KoCyvhwtgL4qj5U7VYXYP+f8WD8nkAA/br4YvqR3Ob9bPv8+VyBuvcuXlD+Fmb0/ck6hvlO4XD/BPca+jVAYQHohGD+/oOC/WELlv3yDDkBWEI8/yp5HvvfgaT9tUfI+1Z2QvtLprz3cqt2+zUysPp6CZz7Pywq/KSUEv7yKpD62+U8+vz6kv5NtuDzEUda8eOJevnhw5z62X4s/NwZoPy05oz407KI/Da0pv2NCAD8EpeA/On3xvtA5877FrzG9tyUkv677Q7zrEqG+5uesvvYBHL2fZdA/kxsKPwq8dD79Uea+iwqUvzovoj6ENKe/WPAGQOnWtz8m2Ac/b5T0PS4mpj2P0TI/GoYYPz4cxL6MRea+sYrXP/BdkT4+A0O/DD3AP1+Riz6/Je4+AzC2Pn5az74kbJk9tN4Lv6LbPT/oZLK+uAoVPr36nD8n7GK/0HExvs7rLj9NDIO+SjoJv0aijT9D/4i+B65DPtM1rT8PtOu+3Cn6vRlYuT/xJ+K+8cvpvZahlL4ZB7y/Qn9pPypnt768/R6+CHszPU+Lvj9cnhU/PJeXPluRqTumM4W/PxrqPrwwmr+3pKs/+BKrP7KyYD6lHlM+lMmcP6Cp/T7qvRa/0ka4v5Tivb6IgrQ/ngPVP6iam74=","4ggALPu+OOMC2ljw+PqudvlxlAD+bRiy8PpcZPVPJiD7gnta8Fooyvmu/yj+5mJY/wRiqPuP9sb5+D54/GUY1Pkst4z8ecRNAsRW1P62lyD+oZyo/aX1rPzMqxj5xMMI+kc07Pwiepb5hKz4/9SXtP8pF0j41qI095OgtvLbykb3lVJi//2S0vctbQr4PWoE+st3Zv2yl1b9dUMQ/sfqzP0eEjD8+vLS/eIewP3NSEj8aJMM/c5PFPzRa8D+QMqo/pFWhv2yCRT/DAyhA+s22v7OV2z20HhU+u5P0PlwPsz4vKa+7EndcPzYQGjzyzIi+ccWHP2grnz9VwLo+YybHv9uFdz/5QPs/z5ZIvC5KJ0BjFIc/Eu2pP3m+FT95chw/9hHyPllikj7peZ8//eGPPn9a6T/AmqI/OdjRPoIeqz6V46k88pe6PxJY6L+8Ddq+7PmXv88ERT/Vu/a/jqaJP0PgKkCPcxI/cTebPvITF8BXIzA/d67TvBSxrT9X4nI/3fpvPxx2oj8JBdK/j34fP1+Rvb7OV1e//dCEPPsKHLydlZQ+2QcbvwJzqT+wwkE/pEcNviSNT71mRIo//9qSP31exT6XwVs+RaPtP85xFr6MW/O+WZQnPwT1hT+Wlpo/ZEirPtK6KD9vtAy/H02oPof1/j+6pa2+seNQu9acBT6vNqc+6cCePoAnh72TfYk/VFCov2BTDT7rK6C/51CcP+h7u79gdZE+BbEXQBFzMz8g0HQ/fw2jvi9TqD8SbzI+MOzyPkEtUz/sZJ4/MMELP/Nznb7ue94/SOqMvyBquL7bS6k+Tn4VvwyUcT47voE+RW+Mv99DAUAkuxq+wzOhvQZKdT8AqWI/Z9pvPhsnm7/++QU/NlWuPxn+mb4CxRxAI4EcP+Yzoj/B440+UXTbPPZUSL+56tI+hqZ4P4WIgL5y1Lo/TO57P2In7z5ZuSU+1S/qPAnw4b5LqYm/GaiOvq2mPT6cGCg/OOHov3f6rb+3GwpAV7MJP6bjbT/DElq/1mmfP2s2wT6nt2E/w7WEPwG9qj/q9TU/b0LCv2uDPj8=","4rY4jQAzNAL97fp8+QYiHv87HHj9i/iM/vmjPPxQ53j7FpJm/xfBkvuxChT8nEwpA1N7TP6/DAECAtUk/virdP8k36j+Dipw/zZO+PtmS3b935Zs/P1Wcv1JGHUAizv8+vaLoP1h6Mb9Kfh5Ap4mOP+TgAT/tkoM/QJyOviIJzz8QjZy/jyxSPze0/jylrIq+uwD3v1vZCkDIvl07jVusPnNBUD/EbhS/yoUKPy1SA0BKaUo+zLkEwMAIKEBUAfI+yLJzvyfbFz8upgRAsL/evhmS3T5SY6m+eu0XP4TVHz9B9Zw/CDLhv3MVdL/dB52+7W6TPy6kAkA5oYw/yPRzP6Kjwz8PMS2/Y2HXP8BCUD9pIN4+Jpjev+C9Zj8YSNO+FosGQCIFzD6MDUc/hBetPmk5Jz+F/UI//yrgPi33mD4siW2+B4lxv+6X27/GEvK+gjMHQPuvOr+HRQTAlaqLP9PoD0ATkg+/Gj9mP9t0EL/lvl8+ldSpPyiuYj6byUC/zdyyP+01Rr6JGbK/McY1P4TChz/aDzG8C0HWPgZYkb2D7Pg+xYFev4/0ZT/mT+a/Jyxpv2vNZ74EJA0+AjiwP324iT+XGso/cdf4P0SpLz+FFfo/wkB6Pzptjb+mH8K/l2NAPysGRL+DsKs/8ounPl2Hoz2q0xC/84K+P6rEjT0hHsU+O+uxPkuP5b0I54Q/+Puyv8rJLT+gnsM/KHTRvzLaq7/D5e0/UUMWQCkFwL4ZZAo/GPgRuwyGBT+h7Wg/I1PCPmuxFb83gNI/7ZoCv6dWMr+bBlM/S6+vPxyNhzxpj1w+8SsBv64ytj5vfE4/n+GmPzgHgz5tlFi/znlsu/fuCD58f+8/Fv2WP56+sT/IMc0/B0QsP4C61D+Crbu/8gf/vpLHtb9H7V0+CTDHvBgsrD+j/ck+DuhyPdplLL078Jg/AAIjPzgU3z4ClPk+aeRHvuhu0L88d4e/GnO/PWWP1z+R04K+7jXpv4YMrD8tsrE/A7rmvnkCxj9O9lm+DleXvqiw/T9eiQk/TjC+v1Og5j8Q8QW/592wvxsfNj8=","4d8AFQKKz+D9x2N49M7S0PlkTOT214MI+mkhUv8gDrD92um2/90B/vaUMOD97nCRAoa78vw5nB8CWqro9Ep4IP8sIiT8aoYU/pdXzPwd0wr++Xew/Sd2ZPyQxX8CWxFU+n5ewvYdcPrsBixbAsDWFP4D2Ib64MJs+kmeUvmA/IT/Tg+Y/GmvvPlIUjj+BqNI+uPfXPx377T9V/QFABstHP9Fxzb50q8E/+ffIvjfrl76EeQk/0s13v9PF4L+5Kag/3b0dPmknF790sKK+obKQPy3kcL1n5+K+rlZNvfSTpL0naR8/WQ8ovQt1Qb/0YKE7jWkFv57Khz8dtLu/85Kwv7Q1ST8qv2g/RlDjP04L3D//fMw8KwO1v2rztD8td/c/rco8v3cmSD7o+ag+xHNbP8Ys4D6eEiQ/A4UIPXwVdL4yk4e+H3BuP30Vwz/GxXA/B4FjP7d8mT8f4OI/a4AmP/6N1L+WE2E/K7qxPz9L4D89Jlk/oHFNv6Epsz9B5OW9au6YPWaqwj+POK0+UUPMvv/fIz58FPQ+NimwPSoK2L1JZG88g/ANP0t7mj5GNXS/MAhGvwwD6r3lNcM+eE6pPvfGpL/5p7W/ZFwBPzID9b4ehg1AN6zYPvfcHD/9tIW/O4eOP3rhtD9ZSr6/kZbsPXRSMb8TvOK9V2OBv31kqDyjWAY92z0fvv9sKb7Mqrk/OkVzP8udMT/Ew4A/9lSRvrkIkz/ZciI/DvAMwPvOTz8gh2A+tKe4P+3Xsb4E6G0/l4iKPx4Vsz9PCEC/cSqmPwC/Ij8cHli/0wSPP6pOgz6F9J0+xgRdP6G+/LyEfwY/s5PsvN+ddj7sNyu/C/gfvlOb+T56tsU/Vl7Av5UxuL9m0n8/QDwmvRHDzz/O/rM/4TEKQL93jb8l4Zg/TyoePm7Wur/BAVc+JA0LP3rJ/DuQ7MK/K9MiP+aWnD1PtIM+C2yFvkWNqT8b8E8/F2N6PzdwvT/anJM+0BjVP1siuT+XYW+/Dw04Pw5sbL51RLs/OvdnP+N/vj/2Y409P1c8v4gq4b4FxJ0/4SFivpuPLb8=","47xVbQM803r5o1RW9t29MP2QthT3pRsk/DtgKQOjzrT8s+yY/cXtHvZ8YxD+QFFFAI66evqgMx7/Jlns/OoQYQLsXM0BbaOY/8IIGQBOFib4TDQy/CiQ6P5wTMkD5+dw9cPMBQHhHbD9ctqs/sTyYvpfjXz1TmX4/4dftvEEo8z+TTJM/HxG3P6xg3z/dUQA/QEVqvjQXB0AVTvQ/gq3sP4N61j9LYbg/oOmou22MO0ACDQM/LV/Dv00Ruz4riIw+GIKqvsdtFL9SaRNAOJSFvuV81728zw2+7/ZoPWVeuz/H+jlAM73sPweNET8KIJi9cbENQNpD6z+rGkq+WK9uv0mdO0B0mm0/5fqePyW/GUC4JhdAu26Yvvxhkr5wP6Y/34yYP0+F573ZiAFAnGDsP7YALECVyPa9yxTpPe9PAT7LRoG9TqEgQEqE7j+dhaQ/CFC7P2rgMT861aG+VbDPP5ozmz/epuY/DQLXP2suXD/9cwVABZboP2Cyhz/TOYW+MhnUP+/2iz93KVI+MhL5vr+usz+JfpS9Ihn3PKbPiz7fGaI7s1CSP3lMB0BlTwo+xIrXPp0Y3TqhNQdAnOkCP7Lghr4B2C8/Ig4/QOI9Cj/ezpA/pd0rQJ/Nmz9GIzO+zJaJvu0YC0BtF88/XwJXvXv5BD9RE/U+lfIXQAzLPL37tqY8dnguPkH0wz3eNTFAfxaoP73IjD8YZb0/bxQGvynkd74QrrE/uTqnv+AAuj/MOfo+/dCtP+/ylz9tFXJAOyI8P9RrrT/5WqI/bI2ovmN5ZD9HC+g+L7f0P9CGmbwI+l0+7/6IPz5pOz1iSqg/IGcsQK+Fyj94V7U+/o9+vW4z6D+q+wdAhyybvhOudr8oXE1Al5OcP0GTgD+/nuM/t1z6PzRjYb6Cskg9MF8DvsiyrD9FgdI8coOtPtP+Lj/VFJA/LPTkvY7O9zz0Lsg+RDvwvWt2xT9ns6E/b3aZPxEuyj/Auhc+kBKtvoRjqz8Sorw/DYCyP1L1tD9RNos/4LycPzttLUBGuqY/O1KLv8E1oT++R/0+Ek5kv/nEBr8=","4PTi1PuiVDsDddCy98+brv7BDmD3aCwPAXVOGP6e9uT91tEm+NVikPrMYw77DHjO/fMjwP29fmj9Bsmk9hXMKv7mqjL9OGco+8WMGwE8Atz/lpA4+gUDavpWUDEDcVhS+3Kd3P4Hmrj65zFM/UJXwPop6or7yGn+/6a9yvklRxj+fuLi/L/oKwLMWNL/M02e/8XPPP5oQUj+xn2w+BgIFv+1Q9D7Iqwq/zoACP7vDtj8kBM2/pIpHvYoZpz9d2NO+zvywvwa5Ez9YgaW+zhGpv9B+xDxef2K/BmBFvtfhKcBM7ak/WVkLPwNkPb40Nk0+id7Qvlqmwb8XJ6g/VyqwPsBkjj8Q7L2+2VONv3OKDD+aw9K8YkqOP6BviLxWB1U+OFyOP5tPer71jkw/RsIpv+JUFb+EE7w+z5yfvgSZl75wAZC+P19EP7n6zb+85ui/pfTbvscTZ79f6/k/JhjcP9bwjD9kLGc/16EuvzX2wz8/u6k/aQz1P6bk9j3D3DS/fraJPyH0Hj+rAw++cvkCPwCFoD23Z1a/Sc+ZPXhxl7+N+BI9WE7rv4hPqT7gheU/R5ldveTulD7d5o4+f2i3vY47lT+rjxi/1w2Xvqcdo73qBgi/05DhPi78gL+1SXk/BUC8vp8rZb8RoBA/dDktvqk3oD6Z7zE97ZmBvhWVSz3vysy+X9s9viobIr7dedo/Xv2Mv3w8i7+Rr0u/KgggvioFiz+gW7S9hAUYQKfVQT8t8U6+yGZxv0kqXD5Mn7E+bzBlvhpYaj/YJVg/S8qbvtBwAsBOdqI/7HSBP7x0qL4v8qI9K1apvwmH0z07TBDAab0cvvcsHD9AtCm+BOqUPVAXbT9JX82/XoG6P8oKcT86gga/GM1aPg5LOr+NCYU+XZOivvj7nj/KJWm/jdwkv9GXBD8PRH6+NP+nvjzfP7xdIa+/objDPjqzt75n9aa+fO+WvqDprD8M2IG/8JgYv+gghL8JXTe/LvzpP4Hpkz8lXVI/waQ0P7iudj+exbI/g9oyPwjcKD8vI1u+1zjGvaHBFj+WKwO/6+Qcv1RKBT8=","4asCvP9BNAMAztRi+CbffvecHFz5ejUc/SgR1v2NMDUAybBI/lf+HvQa5E0AXh0dAdqTtP9g9TD9DZzM/yjOLP+aUTUBTxZE+SHw3QGVxuz+K/4i/oMMZQDnHvz/QyNe8HElgPtwJGr/sIydA9hK8PzTVAL63GGg+tmZ0PoqHxD8yD4+/r53DPrQmKUAEpKw/tuCWv6On/z/s0Y0/QsZUP8wWB79GgZO/9Bm8PkD6pr8zLa4/vR/Zv12ifr+/b5M/RgOBv1v0Q79cut68db+NvwvlAT2rCZY+wdHVPfgshz+Ci54/UnBYQP9Twj4VzHo8/BdqP4jigT9OqKI/jTH/P89RxD/8Jd4+hpSoP5DGMEDjO3M/GpWuP4ZwTr8+t1NAqFV2P1qAsrz30Ly9bAJmP26qB0Ba2Ic/XwSyPM6Tfz6EP0o8mRqvP242q78lweS9cEHoP0SRnD95QqG/TWnfPwmgbL4X7Hu/V2DBPwFq+794oes/L1B4vin9lz8RqFO/qwPpPylETj/PZKm/nf5Hvz9kaD9Q1R+/98rFPNi1hD7Qxpk9P6swvkVQ2T7FpQI/5qiPPs/f0LtxuZM+dsJePxb7oj8Zte0/3EsEQNfhIL7A7C1AmxTIP8Qhqj/4npA/4MUSvwC6CkCxvBQ/39oBvMXVpL7rvL++42UNPyFOxb1Z/868jcnPPefQwz3hxN4/FjWDvwEV+L0UQbc//CxaPuc0ib/b81o/QDICvwOKUr9Ch4M+h34gvpoY8j/7hFk/ugeMP/p/UD89lkI/wrJKP/nKrjyYgMQ+9rVAQF8qUb53omG8bh26vnANZ707hRA/MutUvmc9KT84ONw+MhItvjT/DT98PCA/aKinP1hD3z/wDwRAATAxPze6hz83chtABN8aQHWMez/jY1O/5DKvPl9e4z6RLBo+RXdYvtbklL7tkTU/VOYcPxzM77xQ4/w9aHpSPmq+rj+T41i/4DXIvi+Axz9HehNAaqWbvySZjj9cePE9H1hEv5po/T5m61S/uDfMPk/CZz8DHVw/2BW0v0ADAD9aFGE/yd6Cv5vaO78=","4q56QPyOx7j95UUa+WeZOP5e8Jb6ETDS/tBmOvxfAB79Ji4E/FF67PW30yL+eAti/QeACwBKPnz+cUUW/XyHyvvQRTT8M33K/HR6uvcPjtr+rMMI/cMTJv/Ezl758UJa+IFUjv/BHuL4DUzs/h6AeP1Pitj3sbim9YUnkPmWPdb4A/bI/yiGcvoR6Rb9gcAS/oT7SPyfz1j9bRNe/HibSviFU8b6kWUI+Bd+nvzhDw74sELa/WHL6vwoymT/ivcm/9fHTv37GTT+ZF029TkqWP/MXLr7pjmg/NfyMvv/r075hNC294BtRvw/SVz9rJAk+4LIIvxRpqr7Bire/b1kPPCejLj8oAiq/ChXkPo/UHb881U0+WACjv+fHiT8+ACy/P/cewF7dnb5tnRa9/QJNvUQVuz6wBbc+rEEDPFql4bwm1Ko+RJoQQCWRsj/YKzU/MvI4PccGK79Ax/U/JdD+voxfWT6b0467q4P8Pkz4fD8yAoM+FhSuvqBpA753IZe/zl7VPhK8z78ws0Y/cnI/P7p9mb/ZRio/YGKEvBhrej+ppRS+EP4nPyf8Fr+rKo6/FoESP/XCbj525ZS/zoQ2vkBMsL+jqCs/lYw3Pxk46L779HO/fQshPkGPpL5OOYa/X/90P2V3mT5Az9S/oXTjvWZLVT8kjri+HFJoP3FEDr1qqBy9W+2Qvs0ZuD7UUdY+xI6BP+9wCj8qhoq+u2ezv7YApj/212o9DJ4ZwFzBmr5noCu/HgaPP4lRiT480aQ/Xd3Vv3BQ0L7jBqY+qD7Zv2Tt2z6zVa4/byIIP3Q4xT6/B1a+P4oMP5jknb2+o/8+W0ElP2Un/7/jNzU/PetEPsnD2b4STdq+3BHRv6CJij5f9Vq/PG6ZPqDLNj9XJNo+4Qe2PQj1hb+gaIQ/ijERv8+6p7+3L3u+cwQ6vgazD74IANE/s8/3PjFm471C9Bm+ccmqPhMxwj9Z7Fg/oT0oPxibLr9pkP490iPoP+NfuD+2tE6+RJc1vhEBTz6CEpI/gwoPv7AWTD+tujM+Iraqv8kCFT+Xt9u//5/Av+CYSD8=","4ImwRQCCanT+nDZ8+4lK5PugtGD92JbA/M+M0v/W3oD59MJ6/Par9PJslET+c5RFA+IZuP+23p7/jdDQ/+rkTQHhRjD+wmT6/BNUBQOuY1b81fdU/0+dBP8k4qcB9auw+JYtcvbhNWj+6eW6/I16dvxAH+T7QzUo/uIzrvnJtpj/EtZu/fjzTP92ShT3zRRG/KQjZv1DEFkAPre2+oY/2vrjutz+ROj8/WXj4Pm3VhL649CBAIWQMQKV+2z4Nnd4/uuvVPz5Jlb1bLQQ/nz8wPzvDmj4yaNG+H5iVPtd7zz/RLN0+1zVBv83/dL9B7C2+7+pBP+dttj+pSCE/dSv2v+F82T4GeYI/etV+P2l8CMCTzx1A3WbPvypYnz+4dyE/bYeJv1r25z4PWk4/uroaP+qFSMCgpD6/VcvePm2/iD3IE5q+PZRhvIIA578q5B8/ejG9P2knnT7QNwLAd6O5PZxqBMBaE/2/EicAQKYqM7+TE6Y+7Z4UP9VGoT/FreQ/SxOrP2mhyT+j022+e2lkvvI6MD+O9ew+1bWFPmev6j2URe4+Xb8fP9FDoz5k/cW/zkxxvwEhSD1lHwRA7R2ZP0JjFT+ecL2/t2nvPjSlhb4kpv4/HPypvx2iBUCXdKS/Gh6BP7pkoz8LL8a/EfayPvkAwD9t0Uw/VCGYP3qjY711luc+qmJYPuYB9L7cw+M+9damv2rxfD/D7KE/0K10PtfOrL+nTRJAlagUwHZlzr/mOGI/bX7dPo22Qb8lG4w+YCS5PsN0uj9Hj9C9AeqIPw+LQz+pM9S/VmmevvQxoj6Rexo/EsO6PsqO0j7llaI/EPEwP8hYpL5GKG+/KqZKvf1L4r39PeE/MuQWP8nvtr+5a4Y/THGqP1+YPz8iwg3A6p4zQBAgvL/xe40+b0nsPhsDx78LWVU+qlKaP10dVz8bvaK/yF0pv0+Hwz7U8JI+/02GvrB1uT+tZJK/m+1KP1l0F0AIzOO+Kt/PvzJRuT9N6ALAGfLWv3PkSz84l32/cfeWP7tkfb+Y6Qo/1qbAP3LNgj4ZuXs/Gk+KP7ZrM74=","4R5CMP23jF0AdbrI+mqjhP7kmUT/yXr8/15wSQCdU0j/f64i+/B5wvqUAKkCxMCw/Z4oHwCUngT899AI/01SVPgSDX75SQQJA0UJtP9u7xr8meHe/BTLAP1CEYED/7+M+/zi/PwTAMD8C2YM++n3MPxJy9z7+JIQ/Ht5lPuYvY0AOIpi/sUopP07MLj/btQU+fwXbv93djr/VxiRA8qAdQNGKvj/Ct68/i4luP5+8XEDMoDw/vsG9P8UEer77S28/Toxqv+CpCL/jj7Q/SsOhP7wO4j6H4Ak/4PUMP0sAbD8TA2BAICPLP140lb1EPou9A3nJP2//xz8Zx8C/Pe4DQM4bhj9Mhd0/bsbPv7rfkD8qxDc9znG6v7CeQr9BXMM+qOVOPxdn4D7X02y+KC1CP2lkGUBj0IU/h9LDPqt9+z5/Mkc+onDBPyKs1797Y+8/tAuEPpEs5z4egO2/aitIP24AmD8WMt0/LWwvv/1OgT9d3bY/roQKQKNFZz+LLII/xGfZvni5CEATWxI/WyQOv6i9HT85hiQ/AMmlPmdfST8Ntt4+3EfYPzrG0z1zwJm/eGjgvWNzUr4pSBVAlnJvPyajur8EgbY//fUdPtSoAT9RvM6+cl99P5sJIzqaCZ+/YKgwv9v1Kz8Ljos/oXuuPlfDar9Q/BM/eyNZPl4ynz19XRQ/2XaePi6gmz5XTqc/h7yZv4U4Z70egxi/37ImP/2Imr/T99w+k+iUP+/1zT9DddQ+UNz0P9LRlT/yja0/UpyjP0ISAD+bcD0+qiVlPSmPpj8acWG/XjUlQHuE3D6eMLI+E/2rP7MQDD8nyKc/47NFP8s9Rj/04IG+WxIwvvozBECVfvQ/WJ7Qv0poEkA7rzM/lR4YPqys0b/qARY/rssIPjQDmr8RbQq/eWiFPiyIej9+Edc+oPRFvQWx+z7yf7W/ALZdP2oJqj6LsrU+odM5PnCVwj99tI6/Dx1UPnWaIz8dqhs/lknPv4KTsr9iTOE/MgC3P/DdDD9tHLo/4tEKPwiiTT9UzH+9p9iPP7cKMb+K4xg+ZZCmv5eW1r4=","4eRp2PxHNL0CpHUK+1m2JP14xgL1ycOK+qCFuvwzcvb9IZIK+TZ8cPnhdGT/+qNg+Cyf1P7E8DMCXqYE/MxATv1pDQT8Us8Q/zePjP5vawz/jRTI/94c/vmKuvb/m1rO+brYwv49BOT6kVAFAOLyZvzKT1r4h8iK/Sm+RvvPhVb8YB4a/U3SkvmR5fb9J6qK/kLznP/LItz+M0g8/e1h2PyPm7T596Fk/EJXdPW0sNr6XPa8/BdQTvxXosb+KgIo/YsSfPg4oSb83ULg/zTW4PwoDa755VNo+P841vmE4H7+Fdee/VicrvkU+yr6+1M09OfITvz5JAUDVb6E/fR/kv3u+qzuvEWU7ZAS8v9INvr626NE/hPOsP0dDMD+jWQ48IVnGP06/1b6vLc8+VnDzPgUfaL+zvhi/Z8hrvj1akjzBnTy+OwZPvxtktr8gpE8/08VePrWqnb9EEf8/MXEeP83AYDyEVGa/JbgjvhqAxz9l3ak+59FPv3Qp0L2jCcO8+ZvzPzeJuD7mgqo/rCNAv52Vxj7S2yc/8wmCvptmmT7Ktkm91UwiP/nAYD+5Ano/pA9pvrb63D2mAfA+Br2cP+GajT+14iW+wF9SvyBMBL+S/648cMcKv88HxT9i2I4/4s0pPZdO1b3RCpK/x/24vqbxrj+OxxA+lemHP6wr/DmFG1S+5inSvSb6nb7CJgm/C0uGv8w7aj5skHw/swAFv10ytj8kQ2A/qhcIQDTVab8HzSQ/S+B3Pp74TT7REYS/UG7OPgnqXL62eu0+RwKYPxdyOT/54eA9hVyrvwrVzj772rc9ezYfP70D0b2Baj+/ZakvvMshZD+60y++k6sLPs49+r8GDsk/c43QP8ll5b+s1qU9Qs2MP4PDfr9uby2/7jvMPjwzrT8fXoO+6DJbPjaJk79s9cG+5l24vhEs1z6/S8w/lH4zv4ezeb4WV/e9E013viHnlb8D43W/9k84Pz3YAUC2UoC/rBvgP64+pj8jYCQ+T5xkvxly4z3B4Ks/6bsIv+c0AD88Ozs/jDTgvq7MSz8kyKA/qZoIPYOkVr8=","4VlwUv3Qu6j8KLrw+4rESPx+YOz9Q1qk/AThKQHV9eD+oBtc7b4AevY2eZEAYoZFAccgSwEnhTkBe6oo/J2pfQDm3hz/BTANAb9OcP1Fc2r+7p7M+LwIivifTFUBxkt0++2QkQGs4Ab+56wG/SnnMv3n39z6Vspg/Cwc7vRZKtj/XKaG/zrO0P3oyKUD442w/6VzYv3lorL/PICJA966uPsZ7rz/erz0/tKbsP3UJHkA2AChAWnT9P+cWQEBcbCZALDe/PwtiOT8dF7w/4SyLP9MEyD7LbD2+R331PnfAsD+HGQ9AirGIvzjuyr2xX6A7s55TQArNoj+0k9i/fSfiPw6sqz6pPqM/xjSYvq7khz2ugMs+8iLOvwCLlj51pHK/rwS4Pw81uD45sB0+4tLLPvDEBjz2n4m/HXumPjFcmj63gYy9Zuezv/CS07/wJzU/o90WQOtAFj/7NPO/9yjXvqjuyD+63rq//YRhvSjM8L6F/4q/otXqPyDUyD7oOq0/lQ3qvSgp7z+jhW6+oElXPzPw6D8FexY/JjD4Ptut/jync8c+8KM8PyMd3D7iuTO/Z52PvSfjoTznED5ADJqjP4xa0b/ceW0/aEEpPwfpZj84TtE/m2gQvZgR5T+JbrG/T9L1PkfCn78bmt4/Nt/KPqA/oD/luKu+5UwAPX3DBr1mO9U+xPGkPt66IL1rKfK+QLSSv8lI6T7p3rE/IJmAP24tob8dxJw+sEbWPzNxnr+HCp4/jbfbPqLOwz5pX2C+NaA4PwAp5jw3IT0/OPb+P8HLMD+GETq/lR9zP8Bsuj4RoVI/yZ3+Phaquz56rZE/mrXOP3pG+T9obda9HQqEvdWj4T9R2ps/Wv/vv51dHUC2R4s/gYm0P/uyB79pGby/gVD7Pn6btL+HQnE+lHX6Phf+zj9zp8A+c02MPxvbo761GuS/9KFqv5yGyz5ZHgo/Z7hivUSkzL9d8Z6/dvWSPk7BDECRE6U/mELkv0uDrr8U4p4/2heUv+Iuhj/qdFS/TEZEPzFdbbwHrII+oPqmP1WK1r7AHt4/XXWhPxutTD8=","4gnc2PoLnOMDdpi4+4E/yvXCuAj8BrrO+G29nP+k7dT+vezK/nWFIvsQy5L6F9KC8HYcYwOWo7D4IdTe8zQu5P8dHhT/XXcU+b80EP4cayz+Macs/KRwNP6xle0A0rfY+TGn6Pxf3BL/orEc/fWPcv9bx3T6By2i+RfPaPekQNT/+vAdAdwI3v3MqHT/HQ78+TNq5Py5kkb/wqog/Gs/6P2Nd5TtJO92+GO+8PtPT1z+K38G6dTaIPyH2ez/WspS8YSe6v07iNb/F4vE/+mHEv+kb5z0NlSy9nqL9PrNPPr+tHdE/Ow4LQP9mCb9TALa9qK/eP05K3D5E69+/nNzpPz/fhz/p8tg+W6RVv2zpRD8sf9Y+H1y7P+AUpD9zJHe+VWllvV4p4z4jrro/nLQcvyOFHUB4tpG/7WrYPrfrAT+/a7+7uKLJP/gy8z/pVMq++3axvnJ/xT5M+wBAdr0APoh5ob5buM8/275rvsR8Qz9uVzI/VZonP6dfI76SOBk/zAs8PmZ76L6RgqM+gS8rv4r+VD4dWGe/syfRPMsOw77NscM+oTSWvraCDj/R84M/VqLQvo2Wu70fMqU+h2iIPhNhzb8kw8A/oEGTP9LXiT77+Jq/pDuLP6B0qj9CwKI/4myEP8sT8j5+KdA/WobmPupuEUAYora+nGs3Po4Qpr32e8U+22TmPvYmDz49D9O8fd+8P0bqF7++v5m+EvajPu+qkj/2okw+aJrGvy9AyD9aP0c+JH5NvvgFcD9+R/8/l2hAPZO+hT2HPM0+OTLovuUy+b43ZjC/eQpVP7dj3r6fLIC+4fSevu5BXz7slV+/RTO/P79Yqj8BTAi/SRZ6vbB7vz5If6y9qU3sv1tS3T9jnE8/QyogP57xcb/d2lQ/IriUvumqpD+d6as/62KNvbiH2T8W7cw+M66VPwV1Er/ObWg+u+1kv2rqjj6OKXk9NnfQPSFmxj79uKA/Uu1/va7GIL8OSbY/6sjGP+g1u78Fk9m98wPBP3AvND/3cYw/kz78PujxGT8iqQY/1TdHP/MF8b5Ss5W+Ze+Lv0PkJL8=","4w7Zwv8NNGkAGe709N92LvlHhAT4FmyW/qFGlP0A/tr10hYe/+LyTvQntoT5QLwc8EM0NwIHHiL8PCdo/VSTKPc2dsjuLslk//KlyPwvw0r85atO/aLbbP6qwjkBfRa4+vg5qP+kmSb6Z5RBAyrG3P/7yiTuTTIU+j2jTvWCGaD+0FEc/KIzyPjK1sD0mmBe/WMS/P1rSnr+kgos/wlocQMxpCEAl6RE/hVB6P98BoT81e+o/fgECQHmr67+E2Xm/Db8JQH8FY7906Es/U5qjP2UBLz4Ea9O+PM/dPTiA2b4HnpQ+3L9dQNOnc79NmBK+riElPv5Jzr8xa8+/LhnYPt62ZT9rVvI+2mrMvt+IRD8JT8w/gPTBv6+EnL9fFl4+2WOAP5pw3D7Umwi/jb4wPnip0D/YvII/R35xPOxb8z0KP6w8rXE7QNP9ij+lbEQ+XL0Qv67zNL/k0t8/K5m5P+9uUT92LtY/M8mXPokw/b6qWOI/BZ7GP4m1hz7DmDc/zmzEPuBdlL9CoSG+DjBZv7bq/z31mj4/CbWxPREYvb347Sk+fiAcvA/X3j9XiOU/tjNQv4y1273MtYQ/EGeDv3SFvL9Yyok/EwBlP3yEDT/dNpi/3s43P8mcAz+vYLW/lciLv6X/CEBrycA/0QvNPo3cyb1yBb2++yLpP/6ItTzfsd49yk46PvSPsj1NkSk/WQpYP4HIhz86p/W+1mxSPoyZoT/TKbM9lc8ZQENKwD9bzKC+R0bgvnHZkj9PjEo/3stKP/h9bT8XKzO97KW2v4t6gz4CFhs+sPYNP/lvoz4VfSO+JaoLPoYSez7Mo6g91l0qP6kyrj/3Rza/uc6vPTiPZj8kzN6/BdLgv5D6Ub5LB5o/MHZLPfFQir6ey9Y+hKnFvlwPrb9jqfO+jxeHPis2wj+tooo+LZO0viokvL5Ip8c/4lNoPzJSebxHrwo/4uy2vd0ovD8UsCg/86DCPmculb+XBLi+pNzYPyu5ur+0umE/5Du6PxzngD+K22y/m2C/PsZkyT7G8Mk/FvHDP5ryhD/oSa6/lm/fP5EEYb8=","4XhGHP8vPjb+5cos++F8gvhCtCj/c2mg/MFSLP5RyrD/6RZI/kfRcPSHS8L3k+vg+NwJ2v6qrwz+Pdqc/25+sP8ZPGz9wLbI/etiNP61hOr9DiSe/AwgcQN0YvT9Tk+8+wMPKPx5xib9AYg9AWQUtP6z+ET942ns/thelPvTmgz6b2Xa/9SN1P9mV0T5gHyy/GGY6v46+2z/Gwpc/06bcP3cH0j/JKwu+OCwKQH+ROT82x6w/LQsLQDIk9z+Y+Lc+ldj1u66XWD/JFghAdC0nv+vQjj7jnVW+MesOP2dwbT9Dy/Q+dTxGv0YAbz/y88e8Dr1mvrnBw79P5jq/b9NyPmf3wz8PnCM/X6suPwpQrT/05GI/wSYfvwSL177NcxhAu4ImPw/Y5j4H8xs/GwZtv3IWGkCpERI/7RvoPjZjpT7VKYM+GHCoPvAkYr8tp4E+xWgyvQPMcTxsbm6/h01AQK1HKkCBf+w/Kbz4Pp3tDr/YSTxA15bIvRFk4z/p/5M/4AGmPyYDuL86jRu/i2hEP4zvNj4/vtq+IFmyPlqXiz4U/8c+lPBBPibEAUDVUrS/MkBiPwv3hj1+V1e+gZZ3vlEoJ7+o5UI/acYRQOp3XT6KOD8/CaeXP46p3r/lQgu/XQYIvxDFEj8rXym+h+HePsRKSjz8Fj2/de++PzGAjTrOAPg+HVMvPhRrmT6PVco/9j8av423Lj8E3KM+dT7sPW2eGL/10/Q/d6feP7yI8T9zWJ09VKLUPn8qVj8SXa4/YFsQQHwS1j8/k4g/5aaVv8Zvez74WgRAUhmLP4JnIL65BF69H7IfPtu6Cz8hmlw/aVDEPrYdzz4/e0Q/TffjvI4XWT+clem/E2ZXv8f73z6ZWZc/oG5TPrsUsT4QZio/UVGnvP0cL7+L4h6/n5U8P2VIXb7U2qQ+UWnjPo3bh79xnM4/aCT8PqqXzj5zhwo/b1+pPopEU79TPB2/2hC8PtdqCb9jd0e/xhNUv+ohpj8yuwxAe8nIP+i9Fj/I2dK+zrM2P82rLEA6WuI/MZDOP8yRC0B74JW/SGpbvpgFXj8=","4bG48Pxygvz9vbUS+4CEHP2/de75GXB0/+rGNv+f0Uj+qgQ6/azOzPaHeHz+tPn0/mNdIvkawzz/cvkm88bHJPXfLAkARt8a++FUsP2rP2D+gg70/qxTSvvzQPb6mHQi+LB/VvvVB0j6Mwcc/3zDJPw/E/r7FEw8/wKazvaDNrL8MfK6/QvY/P4JvbT7nO5A+hLFtvloFiDz8jZW/LciJvg4Jbr9DnOE/FiuVvWovj78GApM+Fe8LwD7cXr9/eI0/u7yIvvXQBb5BYRc+9ZmGP6Owrb5mFaO+ZAGrvgvjhz63iwe9l4DfPpWCHL9kUfY9MjHhP+YDD0Boqzw9eVDLP7wduL5zvyO+GT2wP189vj/fKoM+KxG1P1Xzhz9PV30/B5LZPrfvsr2kZoS/AhR7PwCjSz985nc/ceLwvke9V74W2U+9PjyGv71V3r/iD5U/wE4nvp6/vz4vMa6+4S2mPpcb6b4vEam/rO2kPiSasT+Vtxc+JArhvwgQiz5ve7+/oo0Gv5hegj/oS+M9X3UPvrgo7z1IGQA/vVlrvj0m/T3amGu+xkNdP1Vcez6pWHU/zq0Sv5t6Yz52qXe/HtX6P50V4D3begVAApqhP0s+gr5KnQVANFcYP+qgjz/MHqc/hwEWP5BbZT8HBEu+DgI4vnlHPb8Bs68+RMqOPk5qqT3764u+Vnaovr1fobzVUzK/MouSv0e51j7cE6O/FA7TPdM4Wb4g6kO/s6mKv4Zuqb+Y/mc+V+zTP/V2lD9BKXa+V609uyNzED29MAg/qXaXPxb9Nz8F1ns/0TL1v/zZFz4wKy8+U510P296H77II1o/s1oEvzkwrT/WyNW+01GKPvOZuL7GDwNA9E3MvivHyT+WEYA/NpuXPRaUvj/65XI/PIUCPq7Qtj8daFG+IuPqu15ku77Ljky+wrCgvhQAOD/54eo/hfNlP1EVd757w3k9ouUMvjkKq78wEpq/rSpuPz5btj41u1s/EvJfvkmvnz8akRi/WFKWv6YZ4TtS/7A/kGLyPjXbRz9iCxs/R87UvwDbv74FaIU/QfgmvwmqQb4=","4O8YxQNAaJ8Cm7IE9wc8rP/Y49j4NJ4Q+G/+gP6MUQj9NL3K/tBkhvjsWGD8Q5UY/9xgPP3XL5r5G/n4/UITVv+mCX7+quRZAGo7SPyZH0b8Qdqm+MTbbPy1GMT/E9Oq81Jt0v2yBZ796HKA+Vf6+P0Jskj4iGYo+zSI2vmGrFz++x2g/nnUIPw9/e7+I94S/asWoPxYbqz9m9yxAcEemP4Gpsby18Y4/GCY/P7/KAkA8ZbA/ki30v4lC0b+XVCNAUXMQQPCIhj8CRwY/BnGjvzv5LT3HFbC+IBgTPdZYPz4wwWg/T6RFPwcVc79HsOW9d9RSvw+7CUDaPdg+V5/vv92coT6tEBY9A4cHwArK0D9dPL4+HEPFv5RUZL69oNE/z94GQFqpoTwwAbO/yPwzPZmicD/Rtk4/dsEePn0tNL6FyIq+0ekausPhhj/QwYA/WrqlPm5zIr+rR80/S2YNQLi4BUBR7do/2Gqgv2rg17y77rM/i7W9PvCNwD4s1Ye/PCuMP7APCkB2HJU+Ve+OPyfxpD+CbWq/Ej4HPtWyAr24Eq8+NtVzP0PTaT9SMBQ/GAFlv5VNgr4FzVY+jB/jP9Ti+T4jE0y/YuSCviQDBj6ohWA/EnR7P/1uJb3S8rS/9V2uPH4RSb9X8fO+D8RRvvC+9b+92R2/kmB5PLHc6TwG1qs+027PvXd9r7412BQ/NW99P+8TYb4t5IY/Fpzgv+SLVD8bhnE/KYIfQOlvzT9hn1Q/DlCCPryaND98/lo+TBHWP8nftT53h1s+p+b1P2TsdT/pCS1AtQySPhMDqb5hJSg/8wcnP7XWjT4n2wU/ELciP/UrTT/4LGK/vYoWvt5xpb6n68k/o3FNPk3lrb83xg49llrDPpTH3r/Mr4Y//bJmvxIZpL/8OZi8UVqsPr6p1r5NMY+9GzrYv+SScr2mqJG+HRl1P9YUUT7gNLQ8oe6Svrrrhb+YDDg//te1vuyCAEBYctS/UsCwPwoftT97yNk/D/SzP9TqJj9E8Fi/QOYpP6YH7D/50Lu9M5ewv1PoF7+WPNo/vFnWPzFxiT8=","4CRvCv3D+BsBM9r4+KeKsPRKOLz/XSgQ+RHrNP6L19T8m4RA/P5ULvrwcrj9wGPA/IKXqv9OSmT7faLw/f4oLQEOfL74gW/I/HTkTQJIVu78Ynhc/MdZhQDsNBkDkids+Q5ldQM6hZb0ws5k/PS/GP57Y0j4VHnU+AmLBOypeHUBTwoO/nPd2PVL4DUC9IqQ/5KjqP/g+mr3ufzNA+LoWP0jtgD9v4WK/X5Q5P1/Jsz+/kDFAbuMJwEHKHz7/UIg/JByOvz3KTL/evuA+ONWSv4mTmz5GptY+W0QFP34y1D47FwBAKGoyQKgT0j6Feqa9ifVCPx6Z3r+SOrG/OCrEP4VUoT+0a6o+2VvFv4uEiT/ADzM/QqGkv9LWwD4XPB5Az8aBP3VY/T4GdKU/QzoOP4DdYD8l7HM/0gKcPrqvsT5wTNo9RJlNP05iqb/oHFg+Uuf2P9gwMD+NvQVAnwSsP6xihD9Fx6G/ZLzRPudumL8yiqE/ou4KQAQ/gD+egYC/t7eqPw4mgD8mCli/Wx1Lv+CclD+jrTi/RwiaPv5E2z6uFsA+eVYrvjGbBD8xNNg/5kerPkosEL3UrwJAMavsvycsmL8ZgAA/2rsMvz9HCD84kXc/5SWoP+/Vxj/4eIe/YSYHPy3egD9s+30/pzWiPs1ixD8e3Pa9Q85FP8X15z00NK4+EpHAPkaUFD6fMsE/PSqAv1R3Bz9I9SJA8nbfPfM9sz88+K4+Cv0aQOUDfL99lEA/+oudPa6oBz8GToc/lfucP1XKzzuoSnO7XMHnPjrrgD0lRzi/ALmIQG4Zj756nyM/t9DZvUx6tz74+8w+PApXP9ogREBqx5M+wo3CvJJA2D9adtm/bae6v3Mc0j9IZ3Q+aA5kP40Pq78bTew/fZJ/P1G/ib+bQYE+75kQP+aZRT8f8YY+FjqLPw6tsr7+ga6/Lg5KP3/Xqj6tpPU+DE8WPk62qD83vly/elshPePEUT/nBRRA0K3rP/85pb+qFtM/A0R3v4nPbz8Yb+e+wb49PwLeKj5thV48+qPXv7tnJr8C+Pw+SEKTv+/ZKr8=","4WxS/PjU16D6jJYS+UB7kPonXsb41yjI/O12uPyZjDD/knhG/80vDPDQdCL+a1R8/btxev1L3Dr8nBRU/Zmv1PaJIo78X1ag/+dyZvRMpLj/YPcq+b2vFP263qj9UaG6+F2mIP8VoILwq74w/EWakP9mKbb4mM7Q+Fqw6vt0Kaz9R1Bc/lwQHP9tmGj/+CSy/qiKBP6bWqz9uEK4/il28P0Xhij/nTbs/yUMOP8Vb8j/vuFM9/9yPvEwIgr8IPaS+uCv3PqB8lD/QM7m+bOV/PT5ljb7DXvm+fKGMvhp5cz575ok849K+P4wqFL+q1cO9iwBKv8CpoL+b7jW/0WPLv0RgAz/3NAO//hfsPrdgZj5vcZk+MxYhP5MGs761+ks/aHn6P8a9hr5ZmIi/5pLNviGE276HimA/GXN2vibaJ76sEku+AjiQP4OrRD/ld2I/Vh1CP426QL8xt5A/+Sf1P5WTXT86DWs/FtsvvuIKoz/oz9g/+EnqP2RLwj7ppR49XUNaPyRhRL9jhto+0CRpP4GTGD836C8+3O5tvpNbh76YQq6+C09AP/WXgz+WgqQ/z6/bvmL9e7xlkB0+rTYDvy+mP79+uZW/Hp6OvUpjLT526pM+ROEmP2B9yr9qwB8/c4rDvrMNij+FIZw/g/tmvqSZob/HnhY+8fejP9JPSL0oPAy+BK8cvvLmLb6k2pQ/gzQMP5DFzz071YY/2uubvic/VD+sKCQ/jKDcP6ugbz+Icc++zlSGP7ctuL6M5bo+nzqGP5fnQj+0Z16+F64Wv2MC8T7a1dA/M0gqP/HbDz0m542+WcA1P4B0kr5OrCo/6sUzP/tgOD/S7fa+RkoFvhRsFz8XtYe/OXtwv/s/oL/6GZ0/orVCv8uSmj7s8Ly+j0LVvd2sLD+sRX2+tx/cPc0ZgT8rbTO+6Uy4vm5IT76wDcY8BJktP4k0H76JlAq8xUlevonHiT98Ahw/tGz3Po2OQj4KPry/Gf2IPwkBUj89H7U+NV5GP5TL+T7Kg3g/3no9P1ufsT9t5BI/xerAPfi16D5ClPy+3jZCPEqrWD8=","4+Oe+P3WqKMAu5Ai//gE7vrKlsb6bvEw+Q1QBP/M61L5SWII/JjYdPl/C/j3fUcc/I/e6P56UBL7vlaQ+Z5MAPjx9qT/ThUk/C1aPP2Jp0T/WdpA+9+SjvhpSMEBfl32+O0EaPswlIby5nhpAKmLXP9W2vb0LibK+qOlvPlC6oj+kCLA/4tbqvn9fX7/mAsS+5BnXP/UIjD+qVRe9B72lP0OMJj4my52/QLCvv4DFqz88ejE/kFzXvxc31b+hGy8/0mdNvVi/Zb9MtQc+kl7Av2kj476WDwE+7KKdvk4Hhj5pTWY//NghP/e4UT9NvT4+XXmPP+GjA0CHM5U/LeC7Px6QzT5Avh6/lmo4P8QxYzr2n34/Itq8P4lVTz4zGR+/Hk7dPqQTe776ivq+tC4cPxraMz+j2Y0/Uf6CvVR1yL3K+6Y++h5ePzbY3D9sniG/g88YP54Meb+HofE/8WjlPniaOr+F0M8+mN4TP3Sb379vXmM/Z4SvPw2j0L516V+/4rJOP1Qauj6B6ia/gTp7v5WNjT85AVu/oPbAvplQJL61xVu+zLMSv5mZ/j6ymea+LqpePxfOEz6dZ4G9W4SGPxtRZD+ZVBJAotFDP1JLQj6X7C4/tZ7rPo7amD+5QZA/17vaPloHij+3atk/ch+jvqxKlT7MCDO9M0kyQGCRFD7Yk+q9LxdfPUWhYT6O9J8+zQqqP24Lf7/gG5g+8HKEv0v1nT9LmyA/KU6ev5F01j4jWOi8wxmXvzb0UD+CZaE/TM4dPxpt9b4t8Vc/zmxXP+4l+L4WrC+/3GLDPWWdob6rl449NyE4vx+GkL5U26u+P23TPxaeVr0URF0/eaNBPsMw3L6dhwBAqnyWP88GzT+zhtM/Ij0ZP0jlQD+SSKy/8YMnPuHYqT9P58o+K+o6PWl0zT+xdkW+oydOv2R93z50lrM/zJ5+PzQsDDwViL2+vNSPPmOymT+PQ44/AY2Xv12pbj/385i90LvVP0bpuj+dxFS/AFyfPrpIcT/PoLe/NlyAvjpsDD+oVQw/VcCpv3f56bxWhIQ/GAgJveRkUr8=","4UWiWvtBuJsB201Q9IM1Dvi2ruD6OLIY+9XqOv2/dV79dz5k9xCyfPjcoiT99t0w/7rbgP+Qir7+oWU++0YJxvcYa6b1u9mu9JFmBP/ec0D/Hag+/HjWOPs2uTMDFlkk+Rc4mvy5kJL8yh1fAMYTQPziC8D3nEpc+3guTPsatVj5RmoI/fNyuPrLvVD87BVo+IzEWv3jnVL9jSkU+vatMv3XWor1qxAs+MmyRv8LZpr9kr+W9FsgCQNW0lr8CteU+pU0ovkrUgb41AzA97Milv5O8yrtNz3S+STATPh2XAD/jDr8+d+bXPbvopD3QkzU+5zsKvqrVgD9MEqQ/XFi/v/OUFb+6ycg/0aXWv/U+Qb93KQm/7jWsPx6O775TraC+hTeuv3vigz714QS+hvKzvkABUr9zaYE/WiMvPbKHn7zjSLY+8c+eP2TywT+rXWE+ZSK1vteMGT+CoRm/My0CwBIosr/5Tdu/TVvBPof2dj7s3rm/gzyfv42YKL8hDKQ/6WKcv/t6hz/jHJ2+H6DIvmXomb0n0Ca/qRIYPqSwIj6bkpA+vsYLPMX10r8oTiW+6ykkPlipMD2ATsM/wz39PrXPfT+b3uG/eB8Iv/MqV75Md2G/j+0Lvc+SH0BYHZs///dEvvWh7D3KKl2/0NPqvCAzYz+/0Da+BMXhv9q9x7zq6Iw+LjGDPdzgrT5bZge/i5GFP9I+5T6XOfk+z/6bP18U1r7Z+iu/ehEawD3awL+o/r4+eqDKPnsVB7+psS6+TpWTvwfJHD+bLI2/DIRuP4ukj7svXq2/KtVOP/5Frr4OR5E+jcthPhbeZD6yvhQ/XMUZvwf6DL/ls709Iu0UPaRNpL5y85k/wBHBP3n11b+GGpu/CvL1PrlSvL+wpC0/kMyrP2Teqj9q6lK+qv3HPLQVO7/idqI8qlhKP3avOr6Odaa/KZtYP/CEV7vxt7k9/QGQPhkKwj9JfGg/Zy6fPvpUiD+dzPc+4k4Kvwfsbr8423u/lM/Dv4rhXr8oQLA979Vfu6rqsL+OHYa/2qG6P7BvF8DqVHs/ZxT4vnumj74=","4BG+oP7yFD0DCncg+hSAKPyXIJT9nUAo8rph4vxYkKECmAb++3rL9vQ3UaT8rTDc/z/uyv15PUkB+LhE+0SpDvgl6Zz/KlF0/iK9yP1C2Vb/I7c4/CB4sQMuma76PmeM+se7fvgQYf7+Z+ghAr9yevyy+xT4/M1Y/P1DQPcNDDD9N0lu/qjQbP+qDIkCgNUQ/J8bhPxsnHUBFWQNAn+nrP9Cyjj6bdXM/FfiFPxVxgb87cCi/C0jpv5DmUz/7eLK+pcW6P2ehhT/qHgk/FGWhP2zcoT4HRbc7y6QWP0Rb5T3kMwo/HnPVP69a377os2O9DBosv/+Pub+E3Ia/+VO/P9PE1j+CjIM+KLwLPwVQJ0BOv+k91r9fv9HcoT/FGV5Al+RsPcG5Bj+QBii/PuwlPUpGR0D6rHK/XN0TP0Gq1z6KY00+xmunPyuSo7/GXGA/hHTcP2h0oz+NvAJAaZACQLEKoD/fDIg/WFIdP45XTL0+bRBAOuA+vw12aD+YWzC/jRifP/Fvmr8fKOM+bzhrPyfQ7rvynDc/UyOdPqkJ5z4QHQQ/tA4dP6Yuqj++FN0/SsqWvn7K670ckSa/a033vnX4jr+48IY/Mt2qPz7eZ763p90/DuiKP9IrCMBriC2/JYBjP9Lf3T9iI7m/QCzMPlNlBsA51Ei/C/QiPyVFL726ivo+bu2oPhFylz7JG9E/56CDv3vVBz8e6rE/62aYveMutj+51Z4/NSzZvu8RXz+SJ2++4pHjPrb3Uj9IJcw/15UcP2kSPT95awo/P1KBv65DLT/D50ZAGTZsQPMshz5reu69fN0nP3ONXj79QjI/Yei/PgH7mT4ap5O+qYYPvi/wAj8hSPe/4CiUv9T+tj9BQVg/EsQKvw5REj+H/FxA+L4nP6WgWL8h6n8+i5GNPh8usL//Luk+J0f0vrCder+Er6k/Nx8Vv299oD6SUhU/xTzzPRtcej/7THa/h9/rPn+14D6xqZ4/GbPmP95qZT9nLFg/pP9lP2iGuD16A+2++4JjP/3hBkC+XAE/inCwv542Dj/pfYu/gxJsP633bT8=","4gW/Kv1hqn78WlKq+Hmdwv23rWL4mMfq9bdUwP6kODUB1o+S+GuE/PnAmhj4/w7Y/GvUUwBDjP0AnCUO++YooP57iXz+PGVs/vPYIvkX/aj8NPgBAiPkEQIkhEECMeok9ONCEPh7Xkr/zxd++W/DQv/as9L5Wf2I+o75FvuXP474W6uU/0uOAPjmQ8j8E3JK+Xle1Py3oDr/D2+Q/+VDKPnIm0b7SQ9y+keAFQGX1Dr+x+O68HaNGPVNTT73DhWc/2TvhvsPMdT90IJK/RquAv3NbGr6OChS/rCWTvlWFVz4qmua8dbwlQOVk6L5Qapk+fNaJv+iPzr9ku9O/kNCqPxpnhb2m2zG/BRKkP67aaz9CbTC/jVc+P6E1zz+Sil8/5Kg0P12rSj14Bf+/Ce16v/0vAz37tWe/FI7uvlC6rb7w8Ru+MiWVPvFepz/ESAS/4LviP97Kjr9o1Ok/bGqVPYfuxr6QhVg/u3W7Ps6SS7+88Qm+mpiUviLa6T4eQA+80qBEvaacxL0qDpm/iTBgPxbTxD/JlBe/KedNvljsyL5+uJO9yBsUv8DExz5Fc+Y/fM21vs/2HD4yn/U8r4WxvnNWsb84FxO+aOarvkLbWT26DxNAjMUPvdAsfz9IckM/C5+eP8m0wT3ljbo/xLa5vUhIXL8uhkq/kNe+v+VI473Z85q+o0Wmvl6zj77vAhq/+oUsP5Eerj7Fts4/5QWGvbgKgj/6QQU+qm2KPg2TMT9EZfo8Vqj5vYTNDT+41ia/naR5P8tAiD3QQxk+yK/LP3Lvr774uRQ/OaT2PwPFfL7otxI8cynPvmKgC761ass+3WSxPh7e8D5JgL++YIjIPYDn3r7bPfa/u6ndv8FExz8SMG4+M6t/vps3nT9wkfq+nu4YPYhJcT8tcKw/kcyoPkG+rj+PZTy+Pw2ev9JkX7+a9s2/7iNuvzKT074Gdcg95PSYvtbElr67HS0/KI+SPXZKTD9Cisk8m03IP77hrb9tCTo9+4tCP+2kjz6bE3G+WDGgPxR6ir7lIw0+Z+0fPghjg74epbs/BTU1v3PoeD8=","4x2/+vuDpNsBqrI0+/31ZPoowDz/BUqI/9ybLP7Whzz17lI2/4PWgvcrVdD9BaC5Aj4HRP0UpEsDytes/jxvQPyPXRj6wMho/YVklP2ckyD9KLvq/j/wdQNBViz8ML8w+Wi4NPlL7hL5Z/ENAZYVmP0MAzj4SaWk/rI8gPTU8577bn/I9fFKiP7i9TUCKuI8/+/oDwB608D9W9xFA32PvP8SvAUAm+wY/5Bb6P9dEyD41ueM/v4QBQLmY/r/ianW/SxJDP3nSdb/HJNQ7/Km7v2bW7D4ELB6+UMjxPq3ioT/v/2e+plyFP7qAgL/899O9PgChP/NFxb8DXIs/rauJv5GJhj5zvks/+ja+P0WAxz7roSlAcebEP9cY0r9WKkNAQGFaQBMctj6vUku/eTXSPuemBz7trSg/LJ+4Po12fD44zYu7QsPlv8A/Wj70DS8/BV/eP8qIgD8Ul/y/D6BGQOlrST8xs+u//H6jP2JHLL6xigNA9+qRP16N0737O9o/LYIgQHj7DsA8ObC9qDNzv5mkkD/cjUy/a8pCPstpej7zucU++GvMPnjKGUDFmNY/eriEv6+T7b1bOJQ/9SM2vzw9jj/o9y69W4nVPwEaOj9s4Mo/A2f3PpMBTb92yJM/OaaZvzgYiz48qM0/mxS7Pmxghr9UHTO+uDgoQEXIez2hGQM/EviPPkcJsLy37k2+1eJNPjQ/Xj82vO8/+aO0PxJv0L+v3O4/FIgOQH4V5L8KMpq+ck8BP0AcMj8Lrdq9VR8wP+rwzz+NGJC+tpHJv3bIRz/bgP09D7Iav5Bnzb4x+oy+sU4pPxjC2T7FCJU/8e69Pwpjjj+xGFy/s6BIvkFLoz8I8Oq/bk7EP2V1s79+42RAKfPDvaRSkz9T2n29vfQAv/JbtT8ewtC+OT8yP3yjqD+1170+Y1cKvAt2ur5n+oU/pL8GP5eHqD6pItk+H1Csvf7Cu7+295U+InQwPw4oQb6SuwE/efH4vyRqcT9GPow/zOTSvxPFUD+85J6+VFD0vZQnVj9Iz7c/1RG/P8Tx4T/u6LS/EY7APvkDcL8=","4aLclP4f8AUBl85E+mJI6vyXwAD+97Qy+HoKFP+NrtD8N8ZI9So7JvcZP2z4+XoM/J9eyP3afOz8rLXU+9yGIP24V3b2I1aK+/oq+vtT47L/2KLQ/lFALQPtOGED6+c0+LpgSPrqPJb8t8J4/Lmn+v46tzj5sM+y9nnUrvo9QdD962AZAtchTvxycE0BgXNw/MELdvwZxmD8CCXU/Bw5GP3AziT1Y2s6/yzDCP9PTCj9YtZ2+rut8vk6Glj9qEgQ7GOTHv3ppAr6gY0e/CXmjP/Vvyj62BCS+6zjaPtWNbj2bSBhA4a3tPyHsrj0bwjE9hd1aP+tE0L7dcoo/Pj/YP8Wpjj9k2Hm8rJaFv+Mdyj7xBww/4Drav2yPiD9gVChA8RmMP/iiAT8yYs8+lJz2vY3rND85gqa/VvOEPvnznj5kX4G9n3WOv0h14z+ljXG/Un6rP7q3jz/w+wTAW5vuP4OWPj4yELi/4ojlPrdhFcDazbc/oP0eP2tNFD/1SAk/fUoOQPTU474PXci/PUqGvqkolz/1OCU/nTnZPh7CHb5iYQo/4AGDvwOTRD4yR4g/ms+lPRj7E747mJw9cv46PqqmdT/FjrQ+pwhTPzlNgD4u1Lc+5FqGPyURr740EcS/Q7hsP9ZZLr8ufLw/Z1iVPt1krz4H3tK+/yC3PiRzsb0dmwg/zGq8PqdZAz0xmLo+XL5qP3BSW78o0L8/v9A6P2ETm783ZY8/cluxvwpLn78h0mK+fFFav1RzkT+37Sk/2pp0PgCRBj/eaYg+uAYAv5f/Rb+zIRI+3P73P9xmqj7hgji9DVZ/v9/DmD4w6KS+JyXRP7C0x7sXt2c9b2sMvSttcz9l6bG/WRyOP3jc6z/BOVs/AEHsPhZtlb8tbbM/XXsqP/yquL8FlqA/sBepPq4ztz/ceAY/QQDtPbJ7IL8w1ri/JLN7vyK8wT7vAf09+ZUTvmH9Lb7dzWA/Xhqcvz4LerwWUgZAgordvxzSAz9Q2+Q+lNGXv8taJj/O7Wi/KEfHvSu+jD6/dnQ+KThqvseXAT8kqPK+fJi7v/1der4=","4URTZvvgt/b1Bxki+v4GYvgzeQz6GNy+/ShqQv3dasz4zVXO/YHzpPH5AJr9fXTu/oJ4QwIi2nr9pea4+3P8BPpVprT8JF+O+pyJaPyT8yz9WIIw/qm1DP6/yh7+V3jw+3pzuPfrOLr/0Cqw/lUqzP8I2Qr6ZZj+/DU6ivgQ00r8816g/zXxrvtGZwT0Fso0+2TiwPzKOMT7t42e/VFdhvhg7r74o2Xy+XgjjPsfxm7+6aNY+4P0CwJz0Ir8o5QK/gwikPwzTjL44aI49+rwHv48vSr73f6w+4eJHPtZOxL7PxIO/jL4tP0T3Or9bV6M9RzASv2Fvy79HW8y/6S63v8ufgT9z/YO9RVzZP8wf8j+e7lQ/kaKpPzJhZT9dc/8/FONcv5Dpij1syVk/Vzv4PagOOj+jfmc/U10xvtYvCb6Hrae+tXtcP8n3yz8g8bS+tvaIvw18AD/s0PE/LuG6Pyc4cT5x4+q9C2KPP01cYT1M3Ws/fBOFvxKzxT/4asW/39u0P8Leur83upM+h628vrc3gL/o93a+3VFFvgizkT4YZzM+EBZvvkW9tj/CHLA/DFMyv9QB9D1BSra/azxvv95grL8t6Nq+T0aPP6Kj1L7q7hs/QTX4Psc0qz7e4I4/QI82PyeCgT8xgKC/QuSjO5ChtT/Ci+2+j4M4P8J2yT3yHw2+rcZgvrjRdr4J3EA/0TxmP8vIsT4Y5am/zTguvQiVhT8VzrU8Nxoav9cuxL4QESW/ZLAJv+w09j77S0k/X3I6PT+z0jyQcJQ+1spdvxpF+73tN5k/IMq0vzOX3L2uhai9fisyvh01fT4VXhO/c9Zxv4JuVz+EqTq/P7a9PbH9cb5Dcuq/6sDjvyf40b99HpA+1X3OPuyT4z8WnhJAR6OIP5jsmj8FcGU/PJA8Pt9pnL9uK4090kmdPsqL8b6MwMU/q69LPyK9L76Vdxg929sVvl64Ir9+GXU/cn0kP4CE5L808Iw/2yzVPwMMJD9yY948XaVEOpvkMj4icwe+K2tXP5XaiD8Pzr0/rUavv8UJBkCO2ou/e4DdP0ynVr4=","4hPwwvltYIUDLJ6a+xnmBPhCFTT4S1oO/3ZIOP7prLD9NuXE/3rUjPhFWh78cyUI/yBoBQLF0f77cTty+uLa7vX5Pdr/uD+4+s3nIv78O0D9INLC/2J2NPsnikz9uG269j86LPkL6W78XmOi+G07Jv/m+BT4ikFq/byqbPgPIk74vfLK/4ShYvzc9xz4sChy+yJ3Nv6xIjj6mX4i8W6qOP4SrUz8EzmC+8OWqPoZCkD84VhO/AqP6P3693r8lN/e9HsfWPsLihz/oe2W/PwauPzEGjb77JsI+Nif9Pccngr+6+xc/cz1tPwInWj/O/5U+nXY7Pva2qb8DO6U/8MGxvzw4hL6ltQ0/K3AIQLhhqj87E8c+DkrKP+UUhL89b3k+0iVZvWP0gb1Thuu/V9B5v/nwQT97rHq/lRH8PcN1ib4OwqI+6g6NP5PU4b8hQTG+zjF9v1aHPb9OkPa/AU2nP0X7RT/VPZs/RseTPo5+Vr44JJo/iMiQPz6WzT7tAQg/IqhTvtpCTL+0fxs/Bp99P3ssrT6480A/1CSRvn/0zr1zMDs+uw6YvYSBEkDENNo/RwJBPzgC9j14ztm/0DxWPZbOmD/h0hm/QJIQQLus1T5ovkU/caCxP4eAC8DlQas/+9xrv8sOvT9FONA/4IgCvthc7b8iATa/9urBP6Sf5TrnDfE9LWqWvrG07T5oq5Y/zrGQv7fJzb2/y1G/R1dhP3N8lb/J/tm9BNPev+Z1ej+Knyq/pY3avvfiFT/iOLI/ABurPQJJ/j/Y5Tm+gR3lvfht2rwcTA9AWyeRvykQ1T6RwEq+BYAIviNfDz4KGVi/Bbl/PwTt8D7KPV8/KCDtPVJ2jz9U3+S/93bBPxLio79Khso/LZKFvy5F7T91vRo/IOeMPdvnrz9TAY6/I38EviM0tz+g9ca8W25VvwldGr8mQHw/JzhQvzoW7T1vpVC+FJyiPl2nTT/Pk4m/4X4KPaoPzb8KKqG/CbjSv4fZTz8jVSA9TfBXP/XKCz5VHh++D3V9P/9TrD/7cVA/TI+/P9zgUz/0sQC/x51jP4EDOD8=","4aMOQP2L8QcDkYL8+R5vsPkD7Qj8jM4C/DG0kP2LWpDz4FqO+p7acPTGisT7xXKU/j0UaQBFGpb7gFHk/omO2PyJUEEDV1SM/6OuDP0oO2b9S5Sk/PTS0vt1ekT6PfNw+iiMIPzle776uBmU+2QbZvzgf/j5h97u+kCtuPcVBBEAckIm/Lzh+v985aD/Pq4W+v+/Tv9j/Tj7uWyQ/DxWLP05r/z+vagy+x/c8PRD1vT9OnCc/XEjcP+JKpT9OwOy+k9RgPziLVT8BxgNA5li8v3vHjT4va7c+GJTvPgVlpL9OE9w/fmstPk6YUL4ZyBk+DMVlPy/afT4K6Ns/ytrev3YduD8SBcs/IKbkP3V6uz8hc74/woDIvxfvDT/0uGi/pWUUv2PnsD7Ulfs+Bq4XO8CTsT89vou/GR3RPpR2xz6+PVG9c9M5QKt3zb9DqrA8nASqvacr/z7n8fa/uEnqPsEBGkDsLz69FmHqP4EN2b3OZx8/e4LhP9HPfT/hl4o/p5YjP7bgjzxv97A/fsAhP/DoBr92u1i/wuazPhaK4TsEFt0+LHMJPl/l3D8iQtS/5tT2vZ9nkj5jSok/PLGyO/Av0D8vZLc++oJSQKu8Fz0BoNG9P5FQP7t76z5h/7+/ilwiP+bPyT/sgz+/8K2pPtNjvT9aXCW+30v0P6YqdLyacfE+pyq/Ptmxvb1QhBNApZ6QvyJIAL9Q+/+9RalePyH0pr+inno/eaADvxS7QD5GG7g+81ucvlt+UD/grU9APStIvy9RcT/HUXA/+BmZv/rhuT5kEpU/vV2FP4k06r5XOSU+lmmkPSkmrD584XW/2+IbP+zoL74lrkq+h+3xPZ8j4j8fbTs/QzTwPwHSw78iSpg/wmGJP+JExD8MFaU/Q/2iP0YStL95Z5o+JO6CvnXqb7/K5tI+RsotP606D78nFZ0/DVNRv6Ucrz57BXA+XDphPX62sj/KjoC/STeDvkRsOD6W34A+Pnzgv/Dhgb5Fm7k/FCIFuJL5pT8b+gG+IUVFPx5ElD8LbXs/KnyrP0WZCUDpmWW/bba9P/xxMT8=","4QLJOv9yXlT8GGNS9lhHEvofWjz2LG4+9k9XuPs6rdz79MPG+dEEJvpJpsj27LO0+MYIEwNIg8L8F9p8/iv0+P0zwqb0CMLc/Bh9kP/pY0r88QZ+/QuR0P53tDED/fUy9R5LcPw9T1b4JTlo/xUGhPzNHd75gCpQ+S2U0vr63FL5EjBE/1rz2PSd2Lj46ONu+ThrJP5uMob9+qzY/Ml/lP1TJE0BAyCa+TWmPPw2aGz4IkvI/Sub7P9GWI8BDv6E/K6H4PsON5L4/Hbk/XKE3P1PSGbt/ITy/mG1IvYjvSz7pW5S/oLE9QIkIDb+sjVG+Fvf5PUcAz7++adm/ZU7mv3LNJD70DDg/qqowv2B/Mz93bIQ/3jPGv80gbr+usd2+uJqIP8nCsD2Gb8S+lxSivhwGPT/8ZFc/tHMwvhDC+r4FFym+YQofQBGoUD/I4Cg9cFhKv/x6gb9zyu0/QMy+Pms/iT7p7Ng/3sAHvqBvHb88n2U/6qQxPzKJqD5k/wQ/Uz0svw1pyj7oEhC/QObnvV3zmz8E/ME+4DfyPIL/BL8SMSs+7sfWvXIEfT+Dv+A/FoLAvszdq77v5qI/EaRyv2T/rL+1Tie/AdNhPj/FJT99UvG9J+/cPtB85D+Y86S/Vxpdv+F+JkAzK8s/Ph+XvbnudD+nzJC+boinPzGfJrj2f988kMCWvscSmL6u/Qs/WakPP2BP7j7Kqw6+SbU8P/Nkmz8pmnG9Tqz/P+qxvT+eCws/Sq4MPmi7qD5S9pS8x3WGP1upVj/j8PK+fxOLPz1OT77lN9w+lXtzvvX0XD76O+Y+MfdkvblVOD3SNuk++V9Bvhz6EUAO3ua+MgCEvoS8kz49Zuu/JinbvzkXur9xfkM/xAQ4P77DH782fnc+LN4pP9Buu78p6rO+Xc3lPROFsT+ybLa9szsMP327br7HPec/f5FbP9O/Yr0fmpg4uc78vatBuT82TfU+ND5LPvlnhL70P1W/LU/gPyuln7/6tIc+zWa6P7qQlT6uPAe/m13ZP5rwlL4ix3U/q73LP3VujL0A1zY/aB+xPnwyn74=","4plLnP86JLb+Vzao+fqqIPpqyQj8YQm8/Qxl8P7m0dD+WnIc/HHG/vO6oiEDvn5FANxIov5sfaD8586w/LA2jP2OjdEChDCVAzbyKP/t9B7+l764/TFgEP+V0vj7gcuI+RsoNvkSwgz+3ogRA0jHkP2gLBz8m1IE//JnyPckapD8eqO4/HXCGP6r48T+jG40+ASj8vv3A4z/KaAJA2uqHP6dbkj/s0X2+m5Y7vqwL8j8BWLQ/h1ecvcevZb85GqA/r0nHvo+hCr9iuzk/giX1viHyej7VQ4A+ibHePvIlkj/bgkFAFBotv1aEZj90FWC+8l1aQCSSzj8M6fS+w94LQLcfbj9HnNg/CAEEQKq0V0Al2ghAbBvZvrfNjD/AfLE/gjCOPtQx3z75+yy/dzW3P10zRUD9XY8/L4LUPl4SzD7EdGM+KaYQv8ARBUC42u8+PKcmQEd+2T6zJC6/YIvLPzL0HUAMg9i/9gaqP05MaL/GVoI/aH8ZP/Q5nj6yBFQ/Or6BPr5qHEArWAm/Zd/uvon2Jz6supm+bNSFPsesFj+vvsE+y/bJPsfdE0A/wKe/olZbP+B0k73aCSdAYd1UPwwf1b6jnUBAAtVtQG8lPr4xoC1AlnLqP8l6tj+t1cO+oChzP3ZT7T0YvbC/9IuIPnKUdr4qD0U/u+HhP9KD2D317Mk+9dLHPmuq9z29Pco/4qmtP4GcMj8sb9C9vj26PjlNtL4wZk8/D8xDvBvvsL+e1pw/m7MXPyq5EUBLzB9AWBNrvzLIuT8wtn0/wjqMP9bctz7VPJM+S4DIP+lS7L04rvI+5Q+YPp5O7j2q0I4/Ej9UP9lNoj7c2Ug/ZmfdvRlAQUBQAglAwlUUv5l9H0DZQ+I/KfWuP0CG5D/jjBJATjwXP7yC7r42SYg/AzfmPQq/rr+Nk3Q+9iyEPZBTpT+AnZo/rghmPx+3yj5McvU+wt9nPmN2db+M5Kg/Qr2gPlyA6D9A3qg/naEov3/lvD98MxdANKeYv4XeXT+PftG+rRvWvreEO0BcUy4/nAE5Pg7giD8nFJI/G60yv+xE974=","4pRKqPxcdbr+Nbj+9n7eBPmhGRj44/6I/ZLOYv8lM5z4w5vC9X3EfvYHvmz9q+4c/P8T8vrVpFb/+xp8/I5CEvTLGyT9jbpg/dOUHQJcqSD//1Tw/aogTPiAMyb432HE81z+RPW6n4r5fSARApc2tv1iuaz1Oj94+OlLbvdbdmz8ZpV8/HsJUP/W4F7/DDH2/l5L0v00tmb53SP++OOPmPqLkQT+WlEY/ib34vpTH3L6vqQtAl8BTPmWW+L9Fi7w/rIgDPurUGL97o60/VdQav20wwL0IluO+eszdu/cNjT9z74U+WnOIPya6fr7vEO08esI2P+clDkCY9iu+DYuLPjC4AD+mElY/O+AGvsNeiT8rnVo/EMtiP0r9/D7gl7K7K6MlP23PRbz1TQG/ji/nvH4ib72XyjO/QV8CPQz0qb1E+GO+prqKP7OYXD/ceCI/+tk1v46Ohr+XVQvAeCAZP1zvZb4jIZ2/v4o5P4Il9z7A8kM/2G6uPX65ST7mkJW+z0PgPgXZoD9rnde+RT0dv9pH6j314se+7Mr/vdhClr5Pook+Jr/yPs62ZT6BgMs/IKz2vQ7v1byYluc+lmEMQIfi0b1Xk78/XiBJP56Uu77bFqI/6QqsvDS8sz8XTks/EWcZP8zrnD9+i46/PyioPIlAiz4RDAS/JCStP7DOqb3Ddvc85KgdvWZAZr4wOmM/a7s1PybXMD3L4Ja/5ckQPhWotb9JPHM9BpflP98Lk7/pN9s+PoskP9LESj/mdFy/J8A2PoL+kD+JBF8/vTF3P8BKCT8Q+Kc+iSC8vRZaZL4lEqc+NecTPzjgIT7yBU8/3DmzvxCV8j8xjj27QDIlPdAZ0b0Q7QRAP3TwvkIeFj/p4Kc+aR59Pyi81b0E7tS83EKFPwR8Rj+R2qo+KRg1PokLi79RVW89XuPDvjEfED62fLk/vAdev/vu6LuJNMc9zlGjvrBWlD/MADU/SCXrPeujdj+gzHi+Jln9v1O7PD+X4So+nmeOv7J2Nj88Myw/olUiP7Xsob5SL40+vMmUPrHadr7QF3M/5LYFv9X3Fr8=","4p5swQCxtPECfHRC9t7nZvkyuk76we32/khsPv/jerj4m1yk/A7CxPUxDyz8rTZ4+LdoYQNy8wj76+vi+rF7Kv+ztDr/lDxhA7Zw4P1uB279gNxs/4g7BvoJ4Cj5pPim+TyMIPzIc0D1dp9A/P3/Vv5A6T745thW/C9bBPlnCAUBzscI/9Q/KvkqoST5IzFY+PWGyv5Iq5z+uElc/yFsjQOuGi73bcsW/Qbwov+5QIz8LIJu/4eB7P3Msej5O/tu+AydEPrqNWL8esso/RQ7BPxTIqr0JNwI/2Qk/vupADr9thNE/hSgjv1btBT9B8zM+fBc4Pylpyz8NV9g/oCX+P22fQT8sIbo/+BLDvxLPYD8Eq72+bkHUv39mlz69lSw/cVpSv9XMXr5ujIk/Nui2vhclS0AJUIW/GYznvYMPC70FUZY+pPyFP7ai+j8pYWW/PWJvPkCQjj5pjdW/9LJSP9JoHT99p5Q/f3+hv5ZWur8YSQRAgYcUPz5qor5RVnY/bluSv4kDuD7E1w6+Pbp8vzHbjr82dUw/ZQrLvRQdrj4OnUm+ngFcv/zr0b6gwbm/rnvUPnWKJT5GvFE/6S1rP730wj8KIQhA3XxfP82vG790ljm//y2pP+r2lb88uq+/n18LPwumNz/338+/coCXvQbyxr/UtxM+eZaWP+OWfb1QFC++bYG/PRDULD7l7dU/lG67PzRIjz5APIq+0m4uPq1rdL+k2Wq7uuSsv6VHgD8Gq2C+NGjAv1N7lD9BHNw//u1MveN3Yj+XZj0/jwBrv/RRJL/G5KQ+KL0LQBVe5T6TCZm+4bBNvyaM+71/wVq/WjIhP6oJLb/dIpc+XnY2Psa3CT+qKNg/b/zqP42Ewz/jqyE+qNc+v0xmur9m9u8/oSFvv42Nsb/3hjw/bZStvjUC1L+7DsO9ObFMOq1d9j7JDNk/MntYv14+Sr7kBPY90UF5PielrD9cDaw/2g0IvgttQj/Cofk+oZXCv5N1rD+G+jA/n9x+P6XvSL+uYrG/KIBVv9Vu+D/keKS+oMpBP31EVb/+JC2/4c4hP6KiWr8=","4BXeGPUm7C0BkNtG9C3u6vi9uND7iE+u+9WSivjvRR74Gm2C8aroNvHuJjL/uI58/wgmsP/Aw9r6Id4O/mRldv9DTcr+kYyC/PfgcPwhQrz8sSr2/A4ShPx+9rMAL4Oe8qChAvzWMKL8XAyXA3ADAP+gGkb4g7Fg9FepYvvqWnj87rV4/ZPLRvZbper85pY2/u93WPyaphL6YR3O/NfHhv4t8TL+ZE4q9+kgIwIwrET8nSbm9fOHxv7OXlr67iEg/qsb1Ps77kT9DxJy/cE2aP8RXHr6rg52+Qo4LvvTeFr70Nt0/kF4UvyP+hr7Lzpe91zftv673zz/wGHs/4Jz+v/VIt7/+noC/P5TTP2m6rb42mL+/wuKkPxP+jb8uML09Mz4YwEXslj2KyJy+AL4Iv5eCKMAIM4E/3a7xvre/6r7N6Nw8GejxvVggiT/huAg+bYghP5Y0m7+ecOc/9X6rvhFsDz/PQQHAkRgSP42Nk71szCK/a/ACP9nZwj6mcIG/EhSlvzx4pj/RIXi+9BCZPw+GcL5sQgg/nq9kvk2H4jsmybM9x2sjvtJK1z57cf8+UHuBvea8+7sIRae/PpkqP0oBXz+JLsq/+7j9vakVHr9D6oQ/LFSpPudYOb7y/os/lGWNvynNcj9O/9a/fhOhvZCiMr8UNq++0t/pPv2emT2RJl++MwnPvqB1NL3ZaUA/iE9OP8Fkhz6YqYY/RDbnv+YSgz/fCvC9Uk0fwC3k179w+pY9TUGvPfdBjr9mfow/Zrkyv1XvqD4wq4C/40FAP5RUmb4MgM49cpKEPx9/qz5Vg18+je4ePPn/Pj6xSMY9xp4HP4fnQT5bVCK9b/uRPeddjj7rqApAqZqEP3YP0L9Ggky/wD6Rv8ic2j+URQQ+4c1hP8rqlz9V+Mq+FmJvPpJC1L+gNw07CCUovskFAz4IDdW/KfBfPxbwQL52Dq+8SiTePQ/Lzz8xHCg/qFHLPdJnvD96l96/HF3HPxcAVL+dass9hf3Ov2LGC7+Xgqa+edJjPlwO/b6+17O/weyrvweDqL/Y2jg/nkDKPn2nlz8=","4tHN0P7oDBz/Q/9W+AtELv+qeVr+ph+G+YovLv117Qr9Mhnw/M0+HPfCnJ7+vbLe/U2zhPz8VJkBx2tO/cNA/v5xASb9vbbq/aR8SwAd8zD8Bni0/NZKEwMB0QL8xAQC/v+7Bvuq9dD8L5WG+ygK7P3Bc/77oixM+tmXMPaTI+L2AZEQ/JjL5PGlywL92kQy/dPu1P2rtRT51hy7AbsXzvpipAr6yKXS+ye/cv6+2vb9zPDvAi4BOPz/Ooz5TBZa/l+sovqHWiT8QccA+OzFyPqMKB7/0REe+KrXqvuqJK74Bd2G/hWvUvxazaz/5xHg+CZkpP3O37z/APJU/u8SbP/m+FL93xTm/LYVXP+VoU7/SIbG/JWCuP7+gGT9/9kPAzmI3Pg4C9L6SAJa/MiGdPsuKjT05J2Q/LSzivjPAB78qXAA+NtK2vhQshD/yvpi8DtuRv6OfW74yuuM/gboMwBa73L+CDWE9hfbFvqJHFj7ZFp6/rDCEv4kKqr9wPqQ+WFkFwIyU5L40nqS+JrRnP6X9F7/NGpA9C+pxvvMvpb2HxBe/RUDLvvELub9sK8++AwtNP8bgiT76HfC/JG//P1Hjkz/2B3Q/0xnevuWb7b0l6zm/DXsVv7Je6r/66og/8xeYPh25Ez+HFjU/Yai5vnS0mb+yfUA/cTO1vjQ9NT57ncW+GEutvsEwnz2V+YK+BylPP/54lz5Jpce/fSznPj7Tiz/WW4i/2o3Cv65/Tr7sf6i+HhN8PYqca7/WjOK+g39tv7srpr5h4Qg/skYNv6G04L6Oqtw+uWe5vxdOHz6DbZ2+fiDGvXZO4b76rcU9ARJBv9A4Qr+hpj0/SQRWPmJf479MwP8/GOLNP1ZckD8LENY+s05kv/PifT//9pq/6SgpPvcYoD/qlE8+X8JIv7ddUD9V5fu+U0K2Pq7rhD/KJIw/HJdsP5+F675NAaW+Tt08vag/jz8zKe4+pR2UPlRws74HvJm/dd67PwjFlj8cuATA+aKzvTpvhb/hOMi8IOOKvvxDAL/d8+C+gcAcP/AKrb/eagS/S8W8vst6iD8=","4RX2Gv2W4KkAJNl69kmVDvCrbjj51RoS+a6HaPhbE1z7F7WW/WAfIPSAkWb1TAto/ST4XwNsvG78eMC6/JydZP+SLAT9C7wg/p3WSv5/C179+iYI/uULAPtyzDj+crYc+08jeP6mTKb+/Eo4/pUjpPx0V8j7Els++iZCOPaOUrL2wn9Y/4lbVvhLHjj9M1Kc/EUDSv9p6pb82uuQ+4yCPP6C9f796cae/soawPlu63j51UZu/bV1bvxgadD+QQgw+5ygwP8noH79m8NY/pFe/P2/ux72TFSA/pj4+PjtuWTwj2ds/QP+kPz1GZL/U0ak9E7FCPy62jT8M092/5UUMP6oj775woSW+MvrCP4PYAUAviE2/Dg/Sv4GuWT8Y66I+PDi/vNgRZD5oHxJAZVXoPoUxwD8Afps/fzvQPrRlxD4ZRzM+79kJwFDM9j+VjSa/YfvCPi3TKT+u2gTApAI1PsIDeD9f4v+/Q78XPfrjn7+Rkr2+wwKNvlJKyD7tkfE8JYcyviLktz7d5eU+xX4Sv9EU9z7CPFE/JigtPfZo1T7g1lc9hG/jvn2K8D95md0/TPEkv7ksvz1HHw3A14BdPiP3yr9yeJk/kwkPQD8s7D39APQ+hRwIQOqyGL8ZALS/lWRSPxrF9j6DMqo/zkV2Ppx2vD53ZsC+nM5PP5ogCj1/iZU90NLcPtwTJj2W5Rg/uRClPzeUD79kPA8/wWMCP0F6r78kcuq+L/Tzv3it3r9FGPk+kXfJvxHFqT8Gq70//MRpvySEuT6jCZk+SO1dPpZuKr7H0QQ+EfiPPnxNtD4iXCw9aAkVv07PWzwN+SW/kqXFPww8PUDnLQm/ti8jPUS/OD/PnFc/l4/pv4p4UT6jJrA/wq9Vv/4AoD9fz0VATDGvPldCr79EDIk/IF2ovr59nT8Wjas+52uSP6eEMb6DbbM/E2ZzPzswgD6yNrs9JhXGPByEmb8Zv5Y/XgVev1AGf70g4Rw/c+fsv5znw79IAWM/jNrJv9/6QL8hnLK/61vyPh1vQzxVyIY97NQIv0ZTij84UOA+yquUPzc6J78=","4t2bAPRB+gz9mHRy+tpBHPkr84Dz5M4o/v8FKPwON7D95FyS/mi9NvWKXIr/WYZY+t7esvxv/Wrx1QcI/0N1pP4mK4j+q+70/+nyLP2vgaL++LJ0/T1qjPzBITkDTd6E9YOs0Pyd/Kr+ezUJAeO+Jv9d/Hz69pQI/7ugHvhMDcz+AEbU/swyTPzPX1r5Q4lq/g/Ojv/xZBr+PzVs/N1KvP06Atz9+0D0/vpSPP1zJlz+Qog1AmxKGvqqud7+0xqo/BAyXPzs4L7+BzDs/zTJHP0nqaz6sqAG/A2AsPrFSnD9/blQ/NyA8QJU/CL9wlnG9j/KTPdlQob+daZC/00qBP31w8T8uY8e9H4TZPhhPBECEs+Q/vxaAv3CXgz9ra+Q+/fDkPk5nNz6u6De+D/OAv9J04j+/D3m/TkZyPh2pgz3NZtG91tcMQIgVyT9I2yA/b+5Ov/qALr+lhoO/+Fr0P6sIgT/hyNg/SoyGP5NfBL9c7QBAiZaUP0dL/j8uYU+/rl24P5Yhfz9OCte+Ao00v8p5RT/YWhI/A51yvW9n4DwDQJc9HAfuPi2RIkBjxs0/Pdfovgvn1b0uVRE/XXREv75rfr/io9M/ZXTFP/H0y71mosM/Sh1TP00Qjz8MKF2/w8ttPxZTF0BE1Oc+dnjSvbVeLT9xofS+gbEHQGhipr0m1Lg+dPfivDaENb3pdwhAfpGMPz3GVD86VU6/fnsBPoNKbb+V/U8/c4cAQDUHxD8P3jU/XzIGP7C3sj/zsEQ/k9OhPwSrBz8prIc/q1yyP1JiKz//WPs+WqlFP5eg8z029do+WMYfPyx+Qz37WnE/nHNfPour4T9rygy/n+O3vVz0+z4pyLi/8bFkv8Maqj/1M3s/HGypPxQDDT+6oWk/wRzQPyb5RL9PRYQ/na8qPkd+Qz686zE90qQ0v+58EL+AztE/qL4Dv7A/BD7fX9o+dDiLvmBtvD826WE/j3EFP0SC6r5XKzu+qzOBv84LJL8nhzo//2utP7RclT8vwym/RsLuPwuulT+v9c4/zT3AvekcDUAX75c/HulLP74NQb8=","4sUIOQNvGLEA2FZq+UJPDvhG/1r68xaI/aObqPoYjsj9yk3C/uEIevl6eaj8A60dAVu7zP9KhcD8mrx+/GWO5PxCcuD/ZJqg/wjE1Psnc0D+8NKi/xU5cv3rcQkBY93++24Y3PzOftT/u8htAwaW0P3whiL15oOA+SIC3vuemNz5iaJ0/J2eTP7y7iT/u06O+tr/iP7j9A0DO6Gs+xcxJQJSMfz/AQWe/xEZMP0QvQT8Eg6K/qvkNQEgCfb//oIe/Voh2v0/bOr+7SI0/6hS4P3vFFL4FKY6+no5/vtzruT92FHY/0lnCP6EJQb9xYgS+W9EIQNTHBECCtJo/wt4KQN6LRT8tuL4+9a7zPyvQGL78ot8/h8y6PyJ7f7/xuuy+AE7WP+U4WL6P746/sDGIP8Jb7z988k8/DuUwPZSutr6VAEi+6qe5PqbkzT+IMEM97sUGQLbgib8XrApALkGLP92+fL/NW9I/PiJEPuEp8L+CnLc/+t4fPhKgbb9c3+c/hwrGPi6xdL8u4Nq/9J0Lv8LTIj892kI/PCNlvqB4pD3UgYe+fuiHOz0aAUBGyJA/JYtAv7qzMr7cbuI+ct8mQGlijT+FYwZAbHfNP1PNBj+kNyM/+K2KP0lk475btaM/6+xiv0vUkj+Kw9k/mS69vbEPhb9KKYQ/QkbmP4EJS72ilpK9jsYvvrZwX76QUQC/OMSVP826yT6hdrI/FQMvPovmqj8hT4g/304QwKhfnj+5DQu/BHsdPmXloD8N/vY/Ddm5PaZIrT/wciQ/RtuBv2UyaT4FZ4Q+UK2nPvQO1z52Kta+YcaEvbpKkL5ddJc/UpFZQMZYpj4V3Di/ebpKvmzW1r4leAhAKWi9P3sP3z+/mmFAq14fvpmT2j+hZVy/kk2jvq9qvD+9Gra+6Miyvonq2z/hezy+FlWVvboCiT/xBdE/K91YP95yzrx29xC+fheuvs4osT3fR4s/GqctvY9Vyj/LOQm/0xXoP9XnrD96H4G/H1CoPxcLNj8x3ZW/iwnRPQf5sT9JicM/uPK1P+XUwz42d2m/SwWTv3OrBb8=","4xTANQBKWsb4/xCc9cuVKPJJ+87xISS4+L+bKPoIJZD+BqWk86640vplteEAzwZg/pQgdQHSf5j5BQ8w/5GKkP43/B0A7kcM/U9ZcQICdhb7nRia+WEFGPxlICEBCIVM9wxKvP+zziz/g10FAfrVovuEoAj3WocA+Z9TBvFAyGEDm8p++cR6MPwe+4z5JaMk/hG6CvkD4/z4Tpts+jWnLP/4Q8z/dcAY/1wYIPuw5cz821DlAGVu7vyMSXj4k/cI/9c3TPwC0L7+s4vo//vITvg1ok70LPJc9vgehPM+fAj3dje8/RQu/P26o4z2w/dW843MyQCt9yz93Bvs/QdvyP7pVBEBGX9M/0F/jv9zojT8OCQxAHeA4vp8NOr51Atg/4br0PyF7mzwmkXs/XbEdQEMoN0CK4L+99vV4PUOELD6OoJY7B869P3/9gb7k7gw+37ZAPv801T+HHpi+5nu7P3qSpz6VeVW/yrAEPzVRDD9vHQ5Af7yrPxwFmT/Q1gO/07fnP06V4T9OPF8/R4sBv+tDXz+YEu+96F8rvreHiT5/Ry+9qykMP5d4fz5A9Lu/bNkNPbsrYr1/bBxAufQjP6Pg4T9C/CNAZcSPP8FraD5imc8+o16JP+VStj+8oyW+q801vsAizD9BMQY/B0/RPTstMD+CcC8/43IbQPE6j7ldJQq9vIpOPazgPjxYtcg/2Q4Svsxzhz+hY+C+RdE4P+e0Kb65lHM/f46WP65/7b4Ot0Q/3K65PiL4xT/MaqI/GQywP0Avmzw+RdI/9iHWPvE9sT5Knf29GlyqP2QGxb1kMoA+hDlCP2edAD33QAY/Mzp6veMUQz/z+C0+BxWwvbhocD/7KgdAwC7oPxMpAED+26Y/U5z9PxHVwr/arZw/iAXcPyVAXb5T7XO+VPaDPkIG+j4R6PI9qyeHPTD9kD/nxNk/uYnnvTuHAD3oHdw+KuLXvADAwz8waWG+d+CTP5lHnT9/dyhAYe2ivn68mD+4odI+3degvokxRD/sFGu+W+KJPm6uqj+I05w/DoBrvyO0PT6OGoo/CYXsP3x7SL8=","4NC18vlc7vT+FAdy95YEqPY8Kfr0qwA8+RbQ6v5gc7r57E2O+pbZSPfhCkL+byxQ/60D1PnipFb8lSvU+MWThPy5dhD+Ui8u+Stb0PgBfIz+fZCu/RwPVvg0N3j560+M93aCVPEoMxbzFhhO+XySIP4VAjb3UrpY+rxSCvT/18L8cUxc/2sWSvg31jj+9zSG/dtWxP31UqT+rgym+pHavPrsL0j7IPEA/qO5+P3CE5L+rXA8/SVQZP/DptT6j+1U++Vi2vnz3Wj/ZP9a+P/5vP0dlXr6OYO2+5mTKvUJDZT1D8SPAgJ9Wuhg7ir4KL0o9CfCJvueLvr8C+RE/t9rQv8agrj4IrCu/gkDzPz5vFL11i3A/TgfdPnvl/75UOcK+qgaCP5Qx1LkefQO/4rIdv6Ub+b5kSDs/fr6IvjxeBb42Nt+9Mh0HPQvWID98m68+XS6DPy7Afb9Ua9E/4Q2EvSuypb8gQQs/MUOQP9ZtcT82MOu99AKMv8Z8uz5mgik/to+vPy6Xrr8Wg/W7rIgvP9Winj9Sz+A+x3yqvkZq+72aQl47kWWhPjYOGz+gwWK+aq+DvjHGujycI4i+uSPlvkqf0T64IKu/Vu4fP8X2uz5Y43s/cqmMvi4o9j5fC6k+HDsKv4KCPz44r8s/OvigvvmnhT+wIBG+q44Uveezqj24/Re9f1pavs052r26J22/ofkrP1RoRr9hE7I/yY6svbCHeT8AIy4/8JYEv3rumT64vhi++z8NP2bR+76SwS+/hq92P1SF3D7UPkg+Kx6APhqu1z2W9g4/9zlsvzzKRz7GkJG9icnFPk3ayz39FU8+pOhZPjlPzr7TDDK+0d9RPVGIwL9hH9K/Co+RPn/1yb/0EaQ//KVAPyQjyj81R6q/vB8zP53xPz9VjgS/GxiFPu/8uj9V0By+NzCPvnTk1b5B4iw/S1NDPzNTiL7snGO+lHkKvrofkr9G2Qw/CIMdvy8txz5Cu0q/WVetP714tD8gvau/wM1fPnooBj+a0gQ/F3EKP3pwmbpQZ8Y/lwspPylznz+vdHk+nOQOvwYAUD8=","48jjCP40UKsAtCkQ+kvW0vsFtLj/OEkC+gckTv9KZjT/9XSS/Ev+VPn3pCz/SO/s+KaUZwJ77KD+ILYU/2Gr0PoXqVT+L6Yk+8uMNQKpB2r8BtRk/jf2aP21Air/zWNM++n00P4f8Qz9ZenFAPSnXv1x29z4RLSw+0GCiPiAB+j/P8LY/oziKvjUV4r9YSbm/GvDVPzAdCEB62xO/AVh4PnB7hz91LYi/3MXxvvYHJD/JzQZABS0MwCQwXz8xBtU/i/I4v/tNGb3qQNQ/aoyvv/YD7jwuRTu+743hPposbj5nUZ4/kGuhP+JZFb9idWU+HSBTP3n5DkAaltK/ZZ1HPzW1pD+i+iG/1VL2v5dxwL+fYBxAUJDdvx040T4vhoM/C3ikvYTx0D4ig60/+QN2PgO0Nr9M8XS/Ua4DP9GDkj6lZYE9bp2hPjvJ5D+/aAi+TWPKP5svab/atgBAFLLVP2/lwz6lpf+/xnKBPihWDsBgV+k/lO11Pxdphz/jWGC/xkwOQAXhtj++v62/884NvqhspD7aZUu/gMVvPrwb3r0DovU+Ju8cv/3vqj/T43s/sY4Qv0g3Tj4Bs3s/Ap/nP5XRwr+GO7A/XNwBvvZTEb9b6Sk/rqAlvo+Jtz+A+K2/3C/JPhFxrj8HftS/rB33Pgsd+z9FAy0/a/N9QLBPUT25/ME+NharPl0jhz6r1o0/SOKmP8TJtT0SIq0/q9bfv9kjnz8qZcc/L/ycv28e3L/I0Vg/g2cSv3mZ4z75VaE/UeaCPurdqr5IJZI/XlNSPyW/wL5vJOo+QlB7P2UAs74ljrg+vbQJv3EXnD7sbjA9mtLpP6cy1z/noci+dVkzPfObZr83ROY/DqXmvwpCtz/P8YM+bJrKPxpTtb8210e/n37mP7y4ur+dnDw/U73CPknMyL+ZHrU+BSTOPtI2Kz8gQqE/675tv0ys7z67Y78+ORFOPYaysT80d5c/7oi3vqOSMkBFLI4+wyLNPxf7mz/tLl++U9+9vxAeiz90k5e/dn2gPt7Taj4HSZc/KFO2v530BD/L9WI/4GJEv+icLL4=","4700ZPxMqO8CaBKI+SSiGv++rRD9uhYY/DOiQP0Ra5T+HBYC/mmPDvai4AUBHsRO/uXDiPz47AUBM94Q+6HD/vkbB/b+Y1T0+y+t1P72Zcz8Bqaw/zsQpQKI4dT9Tys0+PTGzP+8lkr+RMb8+ubLov2w+1j5JpYA/xZzUPbkoLUDkSKs/4R2NP4YL+D4O8uI/1D+yP1v127+xa06+zEGzPrhkqz1gzZu/eaiRP/RaRD+M+eq8wMkQwGu+MEAbo2S+EK6Jv40OOz+Pzjo/TTS+v+ZZaj42LvW+TO0BP14uoj/6WDdAXpwVQPAzUb+HYqG9yA2cvliy8T+l0qk/hndpP0gEqz+oR1Y/jRALwFTCbz8JSBjAfH5wP2UAez/gsSdAApHpP9Qv9j6Pubo/g0B0P2TVTT/8IaS/m+u8PttXrj4aPR8+rVdPPvCOsT+KtSK/vL2+vwScpz9Lrt4/1BQaPzxbqT8FRq2/XtD1vjOJPcC/h1M/YckiP8d/lT9196O/XHmpP+mDvj5cMjzAJotOP9aY1rw2B2q/GgVRPn7unL1gAt4+PZ0lv6adl78n1No/pzJEv0XOib6HSBC/pYbZP7U+fz+zY5m9FC59vxP5IT/ToYe/90iPP/DyOMCQcT8/lRZ0P79Kdz4e128/sDjwPhRaH79DZky/QVF/v2U42zxMDsE+emKrPjeLHz35Or8/KdeEP9lhET9hzxW/9d/oPq7ngD/EOEw+9ksRQOuQmb/SYiG/Azcdvvij2z7UnPO+9dNhP6heTb6xmJM/1Ym8vxq5Jr830T8/WBj/PyKTmb7NklW8CKZsv74C7T6SpYA/KxaPv5tBBUBlbSS/zO8CvsnaHD4hMP0/vk/IPw93bz+LiYS/ezYAv/OOvb/L5QJADiEDP7IRTT9vLIc/hh4uPxKHYD+lbNE+9WnfPeqVZ72acdC/VFV1vxDNwj7f0tQ+VCdYPtapsj9G3mA/Hb/pPdTVO78dnvE/CWfGP1eSpr9o38k/TvaFvzhpgr5EE7W/HiWEPxrV6Lt47E6/jdTXvx2hTb4nH9S/QAHTv3JhHD8=","4WL42v7IsxD8k8uc97dKLv2ClKz/Bm6s/lak3P+wLxz231n+/4Q9HvjLuZr/LCOC98geDP6uwOT9c058/r1qzP1xPFj98Cne+Pu43P8kM0r+KEPm/OVr8P1KQSUCs0+I+8vsHP1HlOb9AFRlAL//nv/lmQT7uM2k/gZeQvhOXQz858GY/jsuVP2h4977LUL6/Ux7kv+lfuL6ySqu+EeHDPrQVFUBL+om/BIB/PrbtGT8hjMo/LHzjP3Zz1r1G/fm91xgXvwFODz5aWRA/XWKLP+nC4D0mvEe/Xx7hPo8Wqz/kcHs/2LYZQCvYcb8T/Rm+mI89P5v5yr8oNUI/DV2yPkEujT8ojqA+ET0jvkM4hb5K5RJAxpKwv9OZjL+n8hs/5bVyPnTz7D6vMZy9Ufi9vz2h/z79D4+/YEOxPul5cbwA9J2+N8reP6hEnT+5Byy/z5dfvxkEkL9XywbA1tmiP3TkYj85V7G/rZuDP9InH8CA6bQ/R63RP1cJaT8VCRY/83DzP80rmb/K2zjAPll5PVjiCT91jxI/69AEPphpL79Po+Q+859hv8cXuD/It7A/d4Biv+qhLL4UggU+2+K6vhDaPT+/eZ4/LM4XQLVrKD+A/QK/HRRpP1LY1j71l6a/4UWSv0Xj3z/gsMg/XeDlPjK6uD8WJSe/PNc3QNHkk70dhas+jYIIPjxpx76NhHE/dI1lP3frGz9RWCG/TxY6vdCLsL+//X4/uUgWvueTpL8GGA+9f2o+vk6WUT/KrU8/kxdbvA5grT+001Q/sR+Yv/tMFL+Vvk8/9hf+PQgMtj78B7k8D5odv5hq1T6mg4M/MjrhPuAndD9srUe/PYXcvTfgFz+A586/k4gjP4Yb6j76Bmk/5ICXP/RBnL0xuoe+uAE+P3zclr8fbA6/frURP7xdvj9Vb9Y+aH7bvZJ6QL+ORtU/Lu5fv6q0Zj7OLMs+T1mMvnrRpj+Q1k8/qEoEPk220b+A69m+zprZvzLFbb7fHnA+GrKTv0lCej+0g6q/ISXpPrptuL7cRLk/t+W5PxX5tz8LFYK/Uy+Lv3J1Qz4=","4cNMLvw/3j763GAS+/Nlcvsyl276aZYo9fz+JPy5Vtj/ZRU+/bR31PELaqz+7lrg/GpNQPcv5wT9C/QE/ph+DP3WaWTxrSvA/jstnvpauWD/QEM4+LkgiP+LVZEApqHC+4rjoP0katr4yEtc/5fCvv/+Osr5wu3c+oAewvQ0zhL5uGlY+SofJPkAeyD900yM//nL/ut0GVL9mDaA/FcfeP0A59D5SdJY+7Q6ePzHPET9WLXY+l7C3Pn0FOr4aIWk+XYQGPzuEZL4X/yI/xn2fvjl/QL7GVOK+hciNvlPRMD7TJc8+DcaQP+0/Hr9+j/08MpCTP77vub8N2x4+aKffP80OKD9RMfo+MbQHP61ZEUCBX66+EkJZP1ercD4lxVU/NtKcP3cmnb5nfwo+Qw8IPzm1IUBkTom/BN2Kvu010L4mO7q9V19BPsgdqzxhU4c+NVaCvhNR3zyVh10+kJqYPw5GlT+gEtw/Ea3avgC7kr0P4pc/nNM4PTLsHD/GKl6+te3Yvmc5tr6bCDy+Mdtrvq3RVD6oqQm+LNhevnGfA74i8Ka+7O87vJCvlj+7v70/F4A2v7Fvrj1AmQw9LR4dv/NA9T0zMqc/dwyFPwKc6z7CjRc/JW+gP6LYZL95Vzs/yRnqu5r8nj7+ALc/0a9qvkOSVr8GhrC+1T7IPttu2LxBhNW+Y78lvkqlZb5O5Sg/gcQoPpkE6D7HB1K/luS0P1QqqT2LI+W+nH7lP+H1yz/1T9q9Pr7vPt9SrD+CUAI+IzSTPzQYfT/Rg2Q+ovazvV/kNz67ioQ/YNp6PgwAYr058RE9GvOHPt61U74gth0/Z8XtvTP2DUBoKBC/swhJux8g/j9Lls+/ZvnmPVyRrD81JoY/P033vhuPBT/WtLA/g6C3vlVGQT9AaDu+uzExPhZ2sj/JRpe+IDINPyt7jb46Unw/RgxHv8wYEb42E7y9CSXJveVSW782ccI9fQ/dPivKqb8ZBwo/309GPo1s5r4ykKU/JpCvP9sUhD7sMLS+xJEHP79Okz8kQjs/KfwFPw1AoT4tHxa/6auIPlycTr4=","4YMYKP/Y/C78m9zo90sjPPw5hIbyehaI/nT3KPxWOTr2GsVo/P5bKvZttqj/OYyRAU6PuvqQI279qQ48/9NcJQLRnkD/v2OI/K+IpQLOsyj/BgYq+UrKFPxpOpz+fxHY92386QE3jXb/XkgQ/JXqivvBMCb3a6HE/IB4HvdHWxj+RteS+ddzpP9eJjz9ZMzY/WPrkPxOfkL/JnWU/VgL5P15I1D9l8rY/H7cBP5vaBkAX2CpAlX7wPma3jT46ueE/wmwjQClW9L6pT1JA5kKjvsBJaj68J+k+hbCDPfZO5T9hJRdANPPoP4klZj8vBYK8MlsTQAOxhT/Qzaa+IPd3v189pj86RK8/tcfwvmaEZz+mkbo/bVLNPyb6h76JxFO+brqQPpzAtD1YOQJAHQYPPxEzGEDTnXC+aUcEPHyWHD747ts7kO2zP8Z96L6aQ9U/p2yUvsiJAz/OnQBA0l5EPwytaz9zS8++6XBQPyvsI782BnA/s7PTP5ocyj971cM+DTH6PrIo0D/5xxc/iyYSv9TkrT+0kYS+W+NhPVAHcz85j2I93mXjP48czT9lEDa/htZLP7W3S76Qz48/jOaOveTjp74IgDM/jz0FQDTdJz9dDpM+wZ24P8xc+z8D0Ks/Bc6nvrjNJEA90O4/p1IGPjutAkDP2iu/PpU6QJ0SODwjLdm8UcWkPQGHKrzZw/M/sAFYvgFHlD/6OKg+4RkLPzwSuj/QjUc/mjuRv4dMsL1yvXw/C3x2P05/jz+i6SJAn0WbP3Glhj719EI/nxegP+l0BkD9OU2/jEXVPtTFw7zOBzo/77i3P0nLyb0kdbk/ghylP4VECUA4yWA/BzYEvA/Vmz/1MJw/VE/PvgHvQL/b6dw/MXmxP7Pwx75wCZk/sY0GQHMirj/IUlq+HrAUP3oxvz9M9Co+7FFtP8JIzL7F0dE/b3RQvlRrp7se5Yw+UxK6vAjIxD99psO+ukNcP9wNPT8LMVw/hTzYP/Ldlb+Ydk4/WBh1vgpQZz6qzYO/bWnAP0t9Yj4Ay6Q/5XmyPlOlAT8vENQ/pujKPwAEF78=","4TdiMv29dvb4kBrg7R3tOPxHxqz2db7Y+NBMOPzFNej1zUvU9ImI7PiS01j7SS2G/84VUP2Suvr/zwyg/Hsbgv2h42b/ZK2o/KzxsPaK3zD84/Iq+EhDQP+t21L5552u9lYQ6v4x/Oz/3cps/UQrRP/K+dL2om30+ImELvrJrgr8sX7u/Y2r2PsxfYb/PKUs+2jexPyHS47+HpeU/+7G1P7/2Ez9RCPQ/LzslP/34oD/4w5w/CVK0vztkBsAkq3U/nNUwPxlSoL0t7kc+eLIIv0I8wD2PWV29B0AyvqyUnz44kws+UJBWP4R12jxsxkc+IbZVvkUU0r9VmhA/vDfjvzovIb+QWuQ9bMkGwGPCiD8pwhE/kcm1PwtPVb7mGa4/aNM+v13MGL76hAq/MWS+P5qT1D/I94I/s/SKvpa1mL7aTaW9/TpqveNw7b+x0bI/hWtGv8aDST+MoNg/4GPpPwjLBEDvQ74/gGitv9SW7j+wW58/wGgFP5LjbD5pNKW/DB1Tv+Anbz/um2A/+hsmvkSL5r4JN4G+kvMlPtcq4j0ytMM846eRP7819z/h/b0/kmM5vhqKGz6OGsQ+rp2uvx6zET/B60u/BNXkvtL1bL6KBS6/xzIoP1l9Nz2uR5k/Yo0Vv7q5mj6Qw5O/PQcmvlQvmb/UtBA/3bHWP0TXl7yCYiu+iY2ivnFtqL3Iaqu95Iiyv5lyCz/e1I2/GE8EvnLIWj8anGu/6sFgPg5mqT8sRdc+PXWoP+nUbT+oR4Q/SrfpPhjmJL9Abo2/UP0dP+FMaT9xiKY/dvesvxYmJL6bWIQ+PEiTP2V4Fz7xnik/IiEiP0uHuD/Qw3G9e5+GPSPSrT8I8u6/xAQPPzjhrL8/nDe+ge6Pvljv0b/ehTZANh6bv1KGoD/hNl+/uOfXPsd8lb8pE5a9Ji88vyqcdj7MlJY/LahxP+uWQb5xWoW9HiqWvRPka78zFZy/r/hSP5MJI7+XcAW+WEzBPwOumb+uHMs/qiGeP2mxnr0sS5o/0IMsPyOe8z7OIgw+H9xJv0VVtL58wUE+GnUpPqtRfr4=","4lOYGvrTK2j/LxJs+mTXgPqVkMD8dxGm+NIuXP1uIyT9pk68+o28pvM2LgkCg5eRA81oTQBfQYz9Hd8c+Vod5QIBSekBefGc/GN65P0maRL8j4EG/89oZQLTA+z8pWsU+dQ1WP1/ufT+Azfm+iCFfv+YhDj8PjCo/tZb7PP7gAT9MDn2/akptPy3EiUDFp4A/1wFlv6nncL+SSb4/AITTPs2TDD/UmCE/oY4wP+lv5T4yhZI/ln3EPy7UbD7TIs4/hvTHP9QvML9Z1j4+e2iCP/p7vj5h6aE+en/pPmN5H7xZiFBAD/YGQLuJ9j6WwDa+fNh5QLITqT/1lNI/duAeQMgHFT8e3NI/XK33P6YQ3D80eZ0/hb5Iv9nh2L61zeo/vWc3vYoDiz4NbK0+Y3a4Pzq3xz/srv2+cqLePpc18D4C2ge9ekSCvwgdgL/+4gk/ItVcQAqvFT/ijYe//ya5PgwYqD2vZNS/SU3XP6mRtD6ok5m+ct26vtRwNT/jPNY/qpk7P9C5EUAHzjM/0ZYuv/CJ8T+WIig/sIKNPlc1Cz8MZug+6V3aPsr51T/Md1M/rkxuPkl8sL2t/Nc/LbKBP78pvT+ZvLc/LCJEQKWGZj8CFxZAVM4OQMcNEkDsuRK/7+kXv8wSwb3RHABAEU2bPqla6T4fe0I/2sCyvsr+CL77mdk+D9KkPkmfKj34r709odUpv73zbT8Wfb4/tYKIP2SqEb/lU3o/0iYOwK1Tp79OmZE/G0aUPjw6yT9f77U/OyvKvSLVyT/EuOw+GMjiPzTfQD/1p6a/8TnfP+35iD7RlBo/rmgiP7inxT4cJxM/fhvUP/A01z+0zHU+323ovSGlFUAUs8k/jqflPwiXHkA+UNI/Cz2wP8fVuz+cCdE/r2auP34VPL/xgzG/dnvsPnPo2D+d2r0+56/aPlxBID+6HLO//Vf8vvTIgj4QXAs/1DDjOxLvmL9rG0m/pCZnP+LFEED4Bck/+V9tv7Ell7+fQPs+8syrv+YNtT5miQe/NsjKPhPddD1BieY+WWqHP/gUKj50wN4/U6vGP9jCNb8=","476m4P4yCVD8CYmO+2ZJVvhdWIb+u+RrAjuOqv6+FDUCy8YC/aw/oPHCeIj8GxRg/CJz/P33dEECjNH2/MAbdPiVyNT/UIJU+YYGnv4fpvT/AMYA/bpwov3ghB8Al4ky+nT+xPrHE9b7/riK/J8eZv5ZN8b6HMla/hIIzvkrAdD9PEZ4/ThQHwKJ6Kj/eDvu+CcLqv5V9uz8gOv4+wF1IP8ewnb5K0E4/bvKPP5a0ir+wuhDAkxbXP/HIa0AQCzE/Of10P73oWj+XXjk/YmopPzGsWb7YGqa+1CcPv/7MNMC/fWq9Qf4Pvt6nb799S3A9xxENvoRs4z/qzLc/uWaNP3nvIz/UnwM+dtWIP0Mw1r6CwgK/DN60P0ebMz8BpYK+eWfDvuMuE75xZYc/Jvu9vlCKc79wRDi/x+XKvmT+Br5c4Si+52fmvlDo2z+Fgfi+oHqRP+upiT7pOAPA6ng2v7nkCMBIbSc/d3HOPgAnJEDisyA+igNev4M2lT5RTdY/BXaHPWU0FD+PlOw/SWknPz/QtzvFJtU+JuJzvnA1Db/FksO+BAgZv6ai576+JFi91LRCvw9/iD5SJ0g9JEb2P0Cfnj+dpD2+ydY9v2ReDL9UL5A/symZv18ONr+PqJ0/rHYbP2k7Bj/U/rK/baS6vlsMvj29kJy+ArCbvzwyET01kwG/WYKRvktWYb46LKU+Cy+KPyZaiL+mroo/nwjnPi0hm7+EKy4/LdsUwPZ6oT7aZbE+EBM8v2zcIb/MKIS+T15Avpi2Jj8C05M/LmKQPym+Yr/Qcs2+kbKYP3YYaj6kqoA+dpKnvpg1tL6ba/S/0szSPqeB4zwjL2m/G2EePQZihb/EJOE/d/jQP0KFuz9ACto+hSJ6vhsEVj8TUbi/WXnHP60goj8VpnI/mMiXvok/n79WCoy+vq6CP/iD1b6Y+4u/iOg5v4Hvm76VkNu+YV9gviVNpz/65H8/RI8Mv6S24T+qf5m+pjPdvxhSgT+bM/u/ZHDPPiwG9b1/+oY/Ol/ePyNImT4W6oC+6y6bPxiog75OFJw/yB3XP9veIT8=","47AjBP+AeP0C+qW2+JngNPo6Q0b6UT1E/wedNvo6PTj9b0aa/ySjevbhoEEAmgrQ/gQ8DQAiXwb7RYuA+D86RvuRqIkC+4ABAhljWPjtQmb94MwXA0QNsv1M+uT6spTi+qtp0Po9NE77NDz8/FK7YPybUO70nkxm9uz+VPlY+xD4f85E/mPDSvhqWGT+TBSk/Jo//P1dmrr5TNmM/+JnzPw22pT6HqLe+bQKtPrftiD6dASC7HrnaPxD0rL5wFvE92OUKwADegL+FHL0//qa5P0YWBb6sXP8+8NGPvu5TvT485fk+c8JKvjRqnL8TOJG+6pqQPyBQpT9O/L8/6io5P7EdNj/TKANAVHwHQCqHVUBLKRg/SdJYv1IOwL9L25G+QCfPvko57L2ZwhA/XwWFP5AJSkAVXJo/r7DFvLe4eT64SMM+U1h6P9t41j/W8Xa+vyNov7IpKT+TEgdAJjEyP59RET/7yaE/nSH/Pr2+ZT9OkDk/gN+6PVVzUD/JBE4/fGhpv4THZj99fx8/pSRHv/4aUr/w02o/r+uOvkbmhT6mAce+B+9WvgNYmT+ywbG/xxZ3v0rbgr5gRTQ/ChoXP9aZtz8QB/4/2YcQQO9u676ibx0/IZkmP+ZHVD/p0Di/V+eXv8uEhT9l7N+/kNzEvdqp+b5oDTm+LrNkvjnEIj2s9/A77yaJPfWUsj4K+JE/cHSaP0KkCr+37+a/4vbdPxL9yj8hQ3G+48Z/P6neoz8Qb9E++ehyPrn30z/bjIc/KKSrvil3VD/R00U/mWL6Pqvfj7615Gc92v3+vd034D4XNCg9gBb+vZzpLr5Vgw++zwwjvz/ALD/m2Hm/n/NEvkE83j+P3Oc/W0/aP7jCPD8q+2c/cw6yPv5U3D8tuRRAUmuEPkrmeL9F5rO+GfuCvjrg0r+4ufe9TkqPPrhdnT7m4M8/UGNsPys8Gz1iIqk94j8DPkMAcj6DlX8/aa0MvhVzgb5dQjY/OMwAQOnjVr0GJ1Q/rjOpPwCmzD7gRds/GEUVP81y2j/fe90+GViEPz2umj/nwNw+vojHvyItdr8=","4oKi8P7XzKUAy6TY9UfjyvV1L3T0suWM+JgYbQEGJiD+zspo/l3U7PiXOHD8gHAdAxGkOQF/FEr+1W5k+8M71PguOij48PgpA3g8ev7kivr9P0by/An/lvqA/8z4pMFY8+6VZP3UpSL5otCW/lN/PvyapvL6RKHQ9XfJYPkZoLL5ER6q/mxNAPhhaTz/rh3Y/UDQRQPkimz97x0VA810BQB5zOD8YhWG/WDIfQDsSHkA1DBg/q0NuPhEc3j5fR7A/q+aZv93ieT9FW248w0a4P21cIL4l+qw+74kOPuQvWj/O8L8+/wKHv5TDhz/W5Uw+IhZyP0gNoz8ZLsc/bhbXvx+qkD3971E+e2OJP/DxOz56AQY/G8u6v+TokL9HOLI+hsspQEYdIj0LcSG/GDKBP0g2e78EpH+/oYgjvtIJer7ItJ8+3oW4v5Aj279Js38+5nNVP4tdlT9Pnv0/Ap2iPysAZD4h3PA/sm6TPp5q07/AklY/H3CoP1Ut8T4bimA/agyIPlDhDz/msJe/ksVoPxGGgT9vdUA/RKsrO+4PxT5vejY+YXe2vSc4Sz+XOtG/saJpP1mllz7Ii4g/wsF+P965uz/nCuG/Xqf9vsk7sz0of7o/1hZKv1ffiT7guqa/V8huv56iBb90dpo/3s7gPbewY7+T8Ky9WRM+vgff372Zno6+pbVsvWj1tD4dLV2/iz6lv72QpD6rung/ciU3PV5NwT/8Gy8/VLMYP9HGzj8DzcY+ppxYPg1oc74T12a+/87oP4/XVL66tDm+lsOVP2T9qT2AwyM+mGfJv/n5vj7RYZo9px/Kvf8xUj2QkGQ/QyoHQAiN8D2XQ3I/Ce/TPalIQz/JKLg/RJfKP7mNmL//Rf0/DgX6vVkicD/9gfO/MDraPSIWtL9n7IO/n3f1PvqSgD83IPo9BeWqPRP76ztRxMq/VIxxv64hOL4uaRu8G/6RPqFsyb/aj4O/ZgA0vv18oT+r6cC909ziP0Pkqz8AL+S9q1/KP9uYmT/amzi/gG+WP92m1z8LQGg/UJMZPkP7tT4i88U/3OfdvyDtZj8=","4fSEBv6MsQMALtS0+DedDv/ZX6D4yOk6/khb0P+iN1j/vvU8+w5UTvsQlhD/lbCBAFvgRQMcoOr0EAr0/464RQAqoLUBs6i9Aav75P4Cquz/ufqE/LXxJP9I4FD/0/aM+RBPfP7RK7r2Egxc+C5HOv5114D5Fo4W+89EUPb5jWD9vkd0/79LBv+ALHT/2Irs+FDTWv/2xoL/7qjZARzHTP32iOz8R1LG+CIcPQACwGUCw0jpAkjPRP0FJlT7ANZw/hUIAwJsNhr+/DZg/hvfFv1TAZj4L8QS+PUPEPtAcwL8ktYc/Qzefvnkx6z0VFFi+9yrQP2lNJb2FCuE/iwemP292Lz/9g4Y/5P/gP6FAcD9pxIw/vF6yP7MtWT/gfv295IAhvqmvjz74XR0/KkwPPr4R5T5hvYO/7PPUPghMAj91KNw8xP0Cv2DJ4j/e+1C/87hmP9iRVD9GROe/XLqmPmVoLD6NGcE/uM+yP/vWmj9Rdt89kliyPxKQqD/5Ilw/MXE4vY+bLz+Qp6M+aVx/v3kusL58rU6//psCPtu0qb6luYA+6nlyvy2ouz8E7Om/Lt2GPZiujL49BFJAY3YMv6JlwT8431k/LlsOP/cxjb5sIto/JrulvxLSJEAnv4k/3MU8P5IIg76aFp+/H/SSPuUL+D+ZAKq9Gi07PpZZ/72nYvI+Zi7hPuqx6ryvfI++9gCoP4N+Nb+SzZC+KFOOP3PftL+s9FM/s7uTP9uSwD/mmAc/Q2SGvusd7D7aPh0/IPipP0jseL6X6di9hDB/P8+Rfb/N9yLA7v0jvsjLzr4hYsU+Jmv4viR5pz6XqY+/rsVjPzB7vz+oMwM+J/nQvVKe+j+fOgG+4yrmP655rT/MmYE/uBh3Pwlntj9mA7+/vqRPP5mUmT9wNKA/IcTaPoM5k7/DyZk+6heTP9rVor5YNdu/zUFvvzztwj6wSoU+9rgPvVyeqL8E5Zg/MzUnvn9Kdz6uyMA/GP/cv38Gw78PuyM/F+ugPxGTwj/7YghAIOi/PwKU8z6f3oU/UrGBPwQNrD/Kuoc/A3/Gv/LrV78=","4wecpQLLgBcAAxwE/xxqWPpcPND/442w/eH7hP/byUj+2mK++08p6PQWJxz7erRE/i9bkvxApIcCO3O8/2sSlP6ws8j4Gedc/22mYP5KWn7+j9AJAaIAuPit7IUCZ6+E+BlcEQJN33r7uRRW/xJMtP904Bz8fSco8OuS6PIxi4j8Mpkq/c6LOvXzGmT9vmMY/Pn0wP+inzD+kP+I/S0zpPye04z8Ret68evbfP46ZFEAxtmY/nuFRPwNj7b6QIpy9/aekv3d4b7/AKYk/gI+Fvwz37D5Kglo8u4f8PmLJtD7WtM8/OxdkPwxVM74NiBw9LkXMPkt1Rr5Y5a2/4nqtv6aJJ0B4GtU/o5t5v2LCtD85bZ0/eJyTv45GzD+H084/PZ8ZQP9OBz/eu78/1IsDPmhSqz831fw+cL3IPh8B2z7KfG09udYcQMmRq7+aRwW9Cnvevvqupz+m0T0/qwTnP7bzJD/IWgFA1ahMP+uzEz+y/QdABlvYP3TShT/nqPc+h8HOPw2F1D1FXLw+ke1nv0zlQT9zmS6/ISrGPn6VdL6mYfI+lQoFPf5OGj/eJbO/AmuCvmAjjD13URxA0kT7vdwvnL8H1ZW/G5kYP6QGoT58ujc9swSDP/PlpD/Rbpe/NouPP267Qb4B/ZQ/+UKfPml0mz9/94O+Nygev49u7T3n6e0+BxuoPnuw/7xCgu8/W82Bvyxo4r58VaA+R2BcP9p6zD4d3mo/yBQGQM844D8EXfw9Vw+DPm7bkD+XTLw/iKO0P12Umj8hdgw+EQk5v9H5zj3qfo++Zc3LPxwsVL6Eu2Q+YRKlvIibyj753y2+afuevQkfZz7Pj2W+vRmVPGIfPT9xrAW/UY+2v9SawL9651o/5QahPwqrcL9fGIk/wUZMP8n5jb8KlQM/QrMeviIhmj93MNY+joKBP91dmL6VIs+/zc7tPgmTzD6W7RA+Ei51vanalD81wlq/Sw7MvXUlLr8J8cM/RD1EPwS0vj+FeM8/yCXrP1DquT+pQpE/UEMUPw0sJEB3AHY/6G0QP61jTT/puAa/yqmOv/52Ur8=","4ie4Lv5MJ7z/Y/oa+H+wkv+kFIT4xPNC/dXiHvxWIlL1fnky/0CkfPWSOgD8+GDK+KcYIQFsQ4j+S9na/+ucePowVpL5EfNY+N36zv3SV1j/jtT4+/XTUvycQiT6m2u6+syMTP4mUGb4qkbW+48jlPwEY+75BHyW/87xxvqCywr/3GJQ/nKdCv+u7+j6C5Z0/FCzvP+L74L99pUO+QOafP3KsTr7ujIa+ZS2tP3SCt7/nxQrA6pmvP+DLZ0Cp/sC+HN1sPo6NFz9MALk/5iWYPz8EoL76GBG/QFxSPSOAx7/urBy/7AATPkagSb8myg0+gDPRPyCMrD/2hMw/Js1JP0SAdb5cdSI/7WOgv0Ztrr6Tf52/PfeyP38lgD4RbdW/eYZvPmrbxb6QDM4/TQr9PiPLfT+3boU/tOPZvmMLPb54pHq+5kHMvx1U1T9WXjK/TTI1v9CAcD/IVv4/Z3sXwBRJ079Aw709VgWAvzDlZD8yeYq/6oHGv1FzI79y+Jo/5hYzvx3iKb+aLMe7Q48EP3C2Hz1EPRk/9YC2vYT5N7+xLCQ+ctIOvzT1bL4VqYA/jC4xv6b8Kj06adq+MCjXPyKzrz8NrGs+AJCKv5qqtzzbQNW/rd4Bv3Clmr/MfpE/eU3qPteyNL+yJJI/m992vozB3T5Cv0K+wm6Xv4dFg7y19AG/+XqRvlvaj76pq+K/cxGOPxsjfD6pr7K+w9e7P/XXrz9jGBK/Roqevwz33D3GKc87Q4odv6k6kj51hDS/CwINv3MSib/00oI/y2pRPR41OL9rKDO+Dyaqvw40lT70sIi+OfgEv3GeNT4jPoS/SVU3PT6T6j65CAC/20IMPla3Ur/JslM/F3XYP/aiYT92fAS9YBSjvn1enL83JD0+JZ6ZvosDpT8CcQs/S3y3vlYWmD/ofrO+pEaVP2bOrD1ZESU/FhFVP5rQ374Iz4e+cnJyvgY7k7/KB4Y/TXLQPhKjrb4ac6o/EbzhP2iIvr/Ghsq/pBMyPh2ZUb8/Ock93iYaP/fthr/OQlK+CpV1P6qiFb/3AZk+OtwjP4JvCj8=",