export default {"layers":[{"type":"input","sx":1,"sy":1,"sz":200},{"type":"dense","filters":100,"bias":0.1,"_biases":"4EmSWP8MpGD+BDpA+FOx6P9I6Ej/oYD8+MGm5Px/4mz50sT0/TBv5PrjhaT9HgYc8rSIhP7ZaAD8cplQ/5H4rP5kh7z6oKZ4/pbgsPqcTCz56Z6U/ygRjO66vsT5Dw+6+Y07nPsM63D6zTlY/6IBeP2i+f77ctTM/Q8OqPserPz/9Thc/B27KPutvQb7IQZU+E8kmP75v8D5vOr894YcMP4gCMT76UTc+a9TsP3lRej7PhUM/TWfvPnumCD+yJVw/GIRjO4jkOD7dkOg+R7IyPtdQaj/f48E9hkpPPo7HZz9HoEE9lHbXPfBPFz9O/yA+S24JvxUsrD9m91Y/zJzHvl+sgj+RXB0/kSQyP9lDeT9o9Z8/dL9sPpI7lzrjTu89hPM5PufY1TxbyE4+eB6FPTyX1T3s9CI/kBApPXrWNL5UrSw/x8HCPWLbYT8SGqs+CTaQP1+x9j425g4/TbU0P8Nx0D17sn09TsJBPwv+YT++1zw/R5k1P6DelD4ONtO8P8zQPtrMYj5vjec9Vq8iPw==","_filters":["4QC3LP7Iew7++3Fk/Io0WPy8cVT8p2VA/GooAQPuCRj7Z/g7A+K+xP/6W7T4CTl0/UCBNPzF8HsDvFTY/tGSoP6ya/j7Qskw/BlcAP0mXvz+uExA/GZGaPOcjwz6cTVw/O6K4v5rsqb8kigpAkmCqv4lEkz/1VcE+UDbYvpctUD+/GIE/1kv9P6X8Ar+DQ5C+sGoNP/wwzj+J1whAhQaavsBOiT9nWI0/uW/ePt9mlj9HS0Y+Wwjjv1sx0j92kiU/o3YnP0t2ez/NYgi/Vqq7vu2HEz/eBU+/jRgLP3TywT5p8K4/3jlbPmvzFj+Y2Hs/r0ACQFX3/z8jMFc/xVAUP4Z3vr73lUY/gqn9v/k09j4mby4/1q2PP4W6YD1udp8/66iEvwo5ID/H/D09qVeCv1MpPT/sOca/KHp2P0KhHMC7X+i+xzWZvg82iT+NLeo+A95zP5WW976H4JU/1rlyP6fFkz+Ipj4/HzTMP1g/Uj6aQjo+z4B/PtTKD0Aa5/E+AbSmPuntED8PjC0+MAuUv0RC4L6cGry/0BjfPi+Zuz7ZAQo/WR9BPyl4xD7zzi6+SHMtvzopOj9rnE8/TwCHP6HaPz/91g5AnTeGP8UTTEALVLQ/Sa9dPCypEECk0bA/9ZFJv+8DQ7+NBgbAzIARP9pgDb8WEJW/j8yOP/kNg79o0mw/tixIPiPhR757MFM/ldKpP3csPz8TJjQ/EFlavyRVlj9+SjO/119ZP1s4H7/OWvQ/MMMIwLvwzD64tD4/+WUvPWnPmD8BHAY/hOVWP98Pyz6u6a0+1iAWP2oszr95C60+braWPnCEKj8XnFM+g+HtPc2jjr6YgUu/PMtdP80LGb4DSdw/vGRJP/aEPL3BF7w+06XMP0IBqb4hOke9yzJXvniPiz9gXom+Ej7uP4x3iD6sACw/r2ppvvE0u79x0TQ/RBYlvyyocj+XQqE92zljvvSRAL6JOcs/maJNPz6P4T65jPO/ZokrvgrMtj/ijqE/G5AvvUHXIL0TEFe+6erMPz2Dwz+of4Y/ueBjP5b97z7SIzo/SQxFP+L+Tr8=","4roIIPU9sur6jh80/S4kmvy91E7sqGwK/BIVRPmN+QT9UzVO/zOCJvyZCLD8soCk+hfufv/O5jD9k5hA/tl6Dv//hhT/N5RQ/DRNWP/XYvT9e8yG/tcP0PlaThD4hGjk/VgdPP4aokD4KLbE94rqpP6DVhz+X+w+7RI6+v2bziD6Mspu/DTx0P3Jxxz83WEI+yyWjPxgzkb9lHui+e9UUwHxtmj5zXMI+vva7PlFYGL+su4m+3LwiQJj0cj9cx7E/+dyRP2IDDcAAJqI/VJDWPjJn1r7o1tY/DaZ8Po/RD77MuW89CwZ1Pm0FHT93A3K/kp2ovl3JHr/lDJW/4d5fP+PvOUC1e2A/wgWYPzhYBr+WHBBA4+ieP3AjR75xe4c/RZvLP4p8xD7fdilAkC7VPRdKyL5cwtE/l+UsP9dOob8L76i/cm+KvxOaoL+TWhk+GGuXP+rkoD8Uyo8/hCyDPyGZrL4j9bY+K42jvRy0sD4Iqew+TmdPv1moZz+FApG+0SGHP2LhaT9C4io/rFN6vszZBEBaQAO9coGSvk56Lj7ikaQ9MPHTPiDewz4MmyM/wa/NO3xySL/P+ac/+BPZvltvnr9IddU/1AMZP1mj/z4/Bz0/vg/DPtfXyz9fdqA/Ke9bPxkzgT68CIU/0dLVPiLN3T9TxwI+FxQ0veAocz9iYD0/HfCRPnoySb95Hsg+eBfSv4ydbT53rac/fiC8Pj86gT8P3yc+xOfIvvucYb+hb8S+bgeLP4eB+j4mKI4+WeGRP0d2CEBFB2s/cKS5P/hMUrwq5li/M1BCPo9hj755F72+EN8CPzq/5T0LDOS+ItZuv8KAFT96Zdo8YztQv1uk9r08sGW/Z8aRv9iR6T904Vg/NFYaP8BSij+1n4u/7ISbPw6fnj+it4s+uH/BPy/iFj+Nzwg/HJqXPocuMD73rsK+NIUIP7aGTT9jO7e+PdtFv7mRu73kfvS/kqvpvtLh6D9mzwNA1JDgPlLWgD1hJATATXa7vzgOm72ycWE8wZvZvlVk+L8Xygo/UU2wP/XVkT/OkM89uK8LPzwVtz8=","4/TZYv23Phz99kYs+OCEYvl/7474hYsq+YrJ/Pxd7LL2FRtk/e5OvP/ldXT4HtWU/qXGmP01CKL8a+YM/klcfQFi/rz609Bs/YlW3PpPz0L9VXt2+s4DEvui3XD99lyS/b52XPwPO7D/s7co/wB4zP7e3cr9jHeG+0ZWXP/WzXr94wXq/yJLsvm0SqL5npKA/NiseP3mXib9VK2u/mEkwwAQMsz8U9te+IcNyvNCLwj4SnWy/OsYHQPVleD633yi++vtZPhExSz0acEJAQ8KfPyaVqjuSoEU/NbGnvm8RjL5kpLW+qBS4vwz/aj9CEH4/J3MVPg2z5T8Vi5g/0LslP65tjj953w+/DgrrPz4/jb9CAG+/HkO1v/JPj7wytA4/4gV0Pxed+L7P1Wi+P6mwP2FVvL4iTmY+b+5Uv3l0/b7gA4c/Forwvz1Qbb/NGgO/Vv2Uvzq+kD4Ve+Y+OEsZv4XtjT7w9vs+tBHsPn33uT2zPgi/lW7hPoH9G7/vqv4/XgHrPfKYab7ahJs+JmObPwLa/70u6pE/etAkvm90Jz5kcYW+Wr+xPsRMuT+INia9glLNP7OKOj/H81A/BhBBQNeckz8c49y/jNcevoxa1L6xchM/7faPPoVev7+al8W/6KzXPrKEHz78MsY/ak/zvumcwb0gU7k/7/94v/5EEj+M2Te/lJVDvnjjKz/mefY+tylpv0pOUT3kbuU9twUgQIYdGj91nEI/gtLCPzgA4r+ZJqw+2Dj0PqIuCr+ECYk+o1WkvrT3C8DvN40/uPerv+jl/r0rlPs/R5GHPhUAkj8mg0e9elgFQF7e0L6bChu/EX4yPl4ODEB1uaM/TPUuPyvPLD/LVm4+QUGPP2g9J7zjsZM+SBCkPrzngj8ONRe/uevpv0w9qb/x8Qa9BxTvvgjM5T6MqAe/phRwvaWvjT+hJle+p6CuPucaPb8wiz++NSwlP+ZgIb+tQ4+/PC41v+b6lT+PWE0/h1uIP1bj2b/jOqM/hA/ev63nXL+7Uqi//RS/vhz2xT8uKAC/n/YEPvOesL7rWbM9NvMwP9gfJL8=","4TruPvwKqbr8eRAxAMA3Gv6ACb7+Wu+a/jvyQPleltj+Pb5k+3JSvPzG0rD+fCo8/MwGDP5rcJj7pmZE/UklgP1mA9b6ic9s/RWEfP+MAbL8PXsg+pIqIvYgbfryP2JU5FpsHQIqv0D9Qzla/ZyiSPx8s9L4o4ym/7DxYP7f2v76aiHk/wZPFv6R4mD/zGGo/ow/jv5RlMr8CnIq9YS4DwExfhD5hp4i/e00mPr2YtL4z7yK/7Gx3QCtj7j5L8qk9H3AAP5jFuL/3l0hAfJScv9IDzb7KjwdAqIE9vy3kdL9NWAM/DJkNP+QLGb9hjWg/gtSNvgvF4b+A3mk/+mkJv5vafD88azK+gCagP8A1uL4yElk+gYX2voUFYr0GKLe//oCEP8EOiD2bGHE/fu+wPxvFjr/+IqQ/Duy+vmJ3uT/FI0k/eJi4v3o7jj//zAa/Kw+mv0GWqz/uVaC/YZZCv88hLL7fmgO/TP0mv/fAv70t74e+qF9iP5hOi78Em4o/UUmJvLEpv7+c7J+9uzamPyvWjT+4lCC/smvmvhNjw77TJhu/2ff1vhobND/ttkK+coAjvziYWT/9FQu/1Ryxv0Hscj+8G+C/xvJwv2TULL+iQeQ+DndUv8Q/jL4a+zu/Czlovy7Q7D7ilNw/rY6vPEKmTD9ha6k/gGGtv/9+Pz8RK+K+XyV1vt0elD5hTuq8zdinP4NF7b49qIg/OUSWP0SslL9OthY/+rQOvFeZnb+H4Im/I70gQFU9Rj4L0qE+qy8vvnXm4z/zjhQ/6NUBwBucnL5NtrK+GwbNvmjcLr8Svmi+U1hJPxOcNL8kv2W/Fg2UP51Ubj7W6DK/8qY+P055Yb5QVfO/AbZaPyzCET+71YG/oZYqv7raJz1WfiHATw0Qv6mIML/otI2+JsxqP25fRb/xszS+P/E9PmrS3z/nOie+mBcPP0Jvvb5zCKu+TjVSPo0fq76Frb4/pQNWv0/5rj+8dQFAd+yBv224sL8YNsm/OUytv6HMIr/X/yK/B/HVv0IqGb9Dtje/ojVwP5CmQL43ztW/6sohPqUG8j4=","4Hm3TPjXwx78ouau+viFNPoODZL9Hqaw+I1HCvl3SBz+Djqo/VYBmP3tPBsBv6KG/hby+PyzFD0DFPBK9qbkxwFkXKb7OAT2/ae/Gv6iOn78hZAy/g5MHv8Ppor/cYtY8nuyJPtCW5L+2a4W+1W+pv+YWjD8bC5a+Cr2aP7fQ4L0AToa/nw4eP2DChj/AMQDAhhH1vjiJCz8SaOQ9afMxPxEyRz8tKZC+Lao7PUhKN79f+AQ/EgEWv0U6xT7yF6C8bW52Poq8jz/Lk5G/Q88Uv9gIBz0k8sQ/gj9Lv4qdcz5gtre/H7PKP/dlbT+rJ2U/iPGVvnZdU0BARcI/w+RPP29vtT6G0CK+HSgKQHrZJz9J0x2/b053v26BLT0ZxUw/tVZ5vwS4C7zLPT09M42jv38qPb8SPMe/THF+P6/w+D42F4E/Iz1NP4rEi78gX4C+7BM4PlIDXr/1X02+odiBPiRhpDyLpos/YOGQvsoGcD1gAA0/sQ0fvqsRg7/YoOA9cxOVPnrJsz+ZnSS9ZLy9P1Z0ub+an56/QV4RPs2TNr+RzB2/8sq6vrPmeb9owa0+GcSKPo+xOj8iZDO/N63ZvfbZuT/Ys0lA/57UvkG6U0CT/MW+tfC5PdqmDkBKn4a/goxaP89Cs79KJOO/jbBEvevg8T2JOaK/i/1AP0gsbr9oU1w/8fP7vlELSj+jjXO90Mewv7YQK73dfwtA05VUwBxCAL+GYMw/syWlvoonmD/bM4M+djwmPwbvyj7xv5q9lvErPn6qIEDqxQ+/9kmfv0AAxr7tfDo/qKvbv2HnvL/LKBM+lhfQvw/KDb9zL+g+osNQv+9/Q77xu5Q+Mi4bP0SNdL/Xqi8/5TupPxOiGD9Jddc+sxTPPk6Czz1eLjVAEWojPrnqjr9Poak+mOrVP7YJbL8SdVM9Iu9Cv82yzb7eKUq+zLAsv4zGaD98ap++Shs9P6cPHT/KMNG/94rGvr+jIEDrCLO/KsrpviZNaD8tPQO9Jqm9PrzTTj7fjKg/11B3P+Y5Yb9gXN2+up4fP1jmErwbYX2/QhV8vx238D8=","4dAK4Py8ahz2pa1I/sdO6vr7sRD/BZtw+OgkNQIfG0T8bD/o9IRjBvz1lxT4+pUw/XFzQv4z0nD4KWmo//Z4SvkqxBL4wMXQ/SqPGPujJzT8ZLAO/59dMP4S2/z5A9h4+Lz5XPsSPr79N1xQ/1FXaP3vLRr/GC5I9i3JNP5ejPj+DKIe/gCO5P1lbID9jMQG/1QbbPwDVCz/ahGw/7CYxPwxddj/P088/QWMxP7ppbz8ZYrG87ZrkvvZdfz4Cv5k+e2YBP0SKE0BmJ0y9eiNsP1b31T3R3eG+eNwRP0roLj9dAlI/JNfjP9yXQj8SKHW/SbM4Pwd6Nb/yMsi/pW/uvsV3NTxIZ8A+w4aRP1YvAUAapqG8vjyuP5cr473zVKe+n1qQPkiwxzsiYaQ+PHCSv0E7ND+z6ug/Idg4v1ywgr6myzI/ta87QOHcnr+4Z7k/s1URPuPvhD+X27M/8PF/Ppb0qT8Iw8i+PYBcP5UaID8FbB4/yJnvP8UIXD5PYZk/BiZwPzmfz76Fhgo/VoKeP1E2lb7taN8+YkYfPgtIUDyUaR4/+MgGv25cBz8iSGM/gK0oP7c7Wb+eyH+/2IRCv4BEz79aWd+/927AO5XDh7+JTrA/KfYqPj1DUb7jDr8/y/I/P9bXVj+OLYc/+iUwPjEusr3omHa/muG9PwQOmT/e2QS/MNg+vtIMED9doiA/7F6+v7anlD224Hu/svSHvvGXlD/W7JI+qAXDPxti7j2mORg/oBWrPnjF8D9uIfg9T+UjPq7FH0CITEq9+gMEwP5zfD5RWb4/NfmZPV1MjD4XEs284DhHwGprKz+g9gy9uWIwPzrwir4JM0g/UX8wv5umhj8RMKe+z5CsvyIIeLyoyws/nWRAvwv/j77mfRI/isVOvfm7uj/KujU+jT5vv12tNb6z3RM+yY6BP9+udj6eYIo/b6xXP2xwGL/JuQe/opjkPmdnWj9gnum/Cb8hP1ApR7/8laU+plNmP5+fOb9WHwNAFCM6PxS+YT6ikhlAyMEpPxCzlz/HoTs/BEV3Pwe0Qr9FedK+dpwgv2ohoj4=","4izzuv62MEz+UYOE+7IKEvmKloD7V7zG+dCHCvuLecr8wsIk/2VeOP50T6r7BSHC/GQbdP4gkmr8OCzO/IbK2Pz9x+TyrP+q+mIQZvwWjwT+LtgO/iXTUPuC2Ij8PVS6+kteRv9g23j8/TPu/Fl+nP3bdij6ENP6+9kukP4g+nL8dMGG/i9osP3rMmz+GSQW/VhfQv1NRhL7lvr2/fyUjQDD9fL9Q6IM+Yeh0v95fET9vZbm/oCjAvZSrRr8aNra/cmsjPmbQnT/XXvA+ckvtvswh9L2/jqm+rdmvPtZ+nT2+npW+rePZv7iCCr+Qchs/61R4vuxWMz+DIso/ZULPvg9Y8b5JkrW9kLTuP84DJb+SUcu/2Zy1Pwdd/73+fAS9P+0KQJO7oDtLxYC/shWnP9eoEj+5kr8/dhouPixELb+TT4Y//vwVPWfier/Tikk/2Zl5v3M9Dr/Wv66/aUJyvljcSz1xiyk/0sQov4Y47TzI8Ym+xM+zP4Xl079MfYE/Nz8tvy/nkr7hOhA90KKyP6gCk78NlRY+ecENvq8KSb6VekM+5eA2vge+FD7C59S+WEmKvYIeBT9uc0Y//3rYPz9kvD91Pbq/Uz4YvxdwDMB/Knc++BKSP0qxvL8iC8E/RuVQPxofgb7ZysM/lZiqvZcp6r/Php8/X+PzPv99bz8EvTY+MGmivrvxYD+WC5m+mFufvzlQIj7EB6u/1NC+PxXCs78xqrq/G+4GPwj9HD5eJeo92AbCvSaUkb/xore+Y9RAvxP3p7+Yp9y+MdQwvoN6QD5rnKU/TLQkv6rEjj5WkkW9JX0RwBuohj7r+B2+fyrFPlXO6r2LdWW9DCorP6FE1D8Fsjg/yi6sP7kySb8uwY8+jbJNPkIEIL6eEue+bsTxv3gTpT80Cy0+s4H2vyNlJT8/+IO+vulzvzug7z/PfT+9d0UsP3dJDT6QrLe+JRBEP3a6dD0VO7+/eXHZPo0Lrb5B5xm/VOsbvzCvbz4I0OM/shXTP4a7cz55fjY/KFOhvh6VBD8zoNO9wQV/vqCVu7/fiBQ9STOcvjeou78=","44zpZPynwrr9da3o+14zRPj+FhD4KOmI/1udpPoeE1DxkORc+UTiFP50cdj6glrU/atCPP1AJw773hoA+5mO3v/fuYT9qD5a+DgWQP9CR0z/A474+fGgDPy98Pb94Heo+pNAWP7sZk7/uJUk/3EYqP4Pvob/YNT4/z4eSv+N5+j4P2GE/J90PQM5fHr4UvYI/gJS6v+/hqr5CiW0/5YUtwMWTPL9UGeU/RI4MP8JSUz5WDKq+TK7evtJIAT8c2Qo+1t0XQFacir8XZxm9cNupv23a/752YChA0ke0Pgw3hD/2i0c/B/erP1QTz77Mwik/UrNtPhCWA75HAGc/BJQuP3zAGj9XWp8/PNrnPzMnkz9IFYA/q7aXP9XGrzotlH2/8qHCvy5Rdj4LNb8/CtqFv3g9az03GjE/Di+Bvyj6Z77Cc4u/iwn6P27ykj+XbUU/jJS6P79tpT9ERY2/q42TPk+tJz9A99Y+TpVCPzkV0z/sPUs/RPBYvq61Wj9Jsb29q3CiP1cekz3G9+U/8TOvv1FcJL5SR4W/m/qSvqh5hj944ls+2W+JP/cBCz8qsSQ/2CRov7ApHD9udZ6+gDKzPvYuiD+bJ/Q+yIMrP8sQIb624Xg/i6JeP1Icgj/eJ60/YXKDv+AdaD9KcrS/UudjPkPBrj/Kb12/03u2P7dT/j7wt4C/gTKHP9ltWL/JDE0/Oj7VP+oqsT8W10k+O2MZvxoruL8Hiii/D46ZPvb5Yb8/57A+LIoXQFSziz+g+Fo/y6apP7rPBEB+gCw/rcNKv0jJgj85MoW/d4b5PpNUsL+YmZ6+CeLgPuinEz7lilU+KfVEv1EspT+MfmS/fcEXP9ci6LyiS8m+fsWCP7+2nb6If4o/4rxCv3rYmz+nbcI+EKiTPvFioT9kkI2+55cCvqxlh7+KY5M+eelnP+yY4D2dGWw/6x7tPprCbL+Ix4s9p59Xv3Gkij8jSOU/ILtePhYDcj8wABg/wO2nv9gfLD8yKJ6+5w7Rv5S/RT4+wMg/7NR2PlEwN78Q7Sg/mopWPz6gEz4Pfq493PKDP51wWz8=","4eDKSP2zwhz9aes0/zKgxPxLvGD74poY/hvuVP/2/B77bdPc/KemDvxGQtb4FuOi+moChPwJpmD0FOhk+y1G8PnAklL4ADT2/ZXzcPZNWRj+htsU+DrQCQIulMj/YPRK/XyeZvw9OQj9QkNO9nXeMv6ug7z383C4/ZP6jP9h2fr0smlk//OcSQALgMDyJtUO+GDImP+Lp/T72KHK+BpckQPz2Tz6REdU/2bLIPvaHwD+ecRY/p7EPwCNnNT8z4h0/RW0lQLwJWEC1mL6+it6yP6jjDj5u8DxAyWKWPoZQlj9bqL4+g6Fnv53Vkj9D5ki/vx9KPi1V4L6m5Yg/bbEgPdcr+r534CC+GhP6v7Bz8r2/l4A/PA8xP5jXC758YSs/Q0hAQCh4d75wKa2/o6EVP19Ywz+CopS/uxwtPnsxEL8U+XU/y0sYP37kjT/EsYE/WsjxvbsDRb+UhS8/9iKAP+XsGb60KLa+Vg9HPikG4z80AuG9ycXrP1qpgT9YKEu/d6rwPnxe174VW/s/mgumP1Bfy71m3Yg/1z05PlOLrj/gfqU9dCi6P6oHRb5hcLg+wrLVP8RGHb8wMQo9gBnxv7bskD9fuKs+aLoZP76Wvz5S8IQ+uyRcP8l3gT81WjU/+WKUv3D0ar9DVLE/aeauvvHyzr4tJBc/J6rCP7NZWr+mxU48VoReP0h5Sj8uY9O8+PnMP0eAoz+om7W/gcuCP6I1Gj+bHTY/5Pv1PiuBVz81wwc/eaLjP7+mar/UIsQ+OnEqv0I4FsCt6Qq/5rqRP5D2mz9LYjw+f/b9Ppslnj/jnIU9Rg3wPmYJHT5Pfp4+fYunP+jddb9buNY/MPQPv9vNCz/AegE/M8GHP8Ar074SN4I8InZ0P/+dUL/2Cim/bcI3P1fPOD9xkg2/jDq6v6HyEUC2T9u+o/jpvpiXAL6nDOQ+H+Dvvrz8Ij6/xJk99WgyP5UdHr/dzew/RXvVPjtV8r/Qp4C/VNyAP8pyoz+E0Iw/Rdy6P02tjz827Kk/P260PycPfj8aqog/fXO/vsIbMj9Pb70/Jh2jP3j9Or8=","4FzoRP4cPv79/RBa/JnCbPv/Cgz8F6uA+KTSQvJ4+dj18uBBAdHSyvxm6BkDGco8+2VXuP8ZzVz8xtAw/fe3svv4BIj+ccgFAsjSJP4dru7/YW7++cC6SPrPYrT/IvK0+ZjPZP7MTDj9POZe+LZe3P+CRoT1G0DY/9Va+PnL1jj9hWki/ItG6Pxx6lT8qay8/Xc8kvzFjS7+KcTI/klQnvzQQ8j4CPHI/keamP9L+uz6HnDY9+WgyQB/Ybz5OSZs+f+iZPzzCMT8yDyg+D+X1vuuUXb6SP5c/IaRYP7Loaz9BzqI+RkxRPwSJZD/sJWS/sqUFP2vWSj8lINI/JNm9PtZ/7D4HO+095UIewLqoCD8PKQc/4fydvza0pj1UGlq9XmwvvkMAPz4BcG0/2o+/Png6pj89vtI/NaMdPr8xJr/hu+Y+gwQoQDoAgL+GS5I/wdi5P96gGD8Nx6y9MgeOvk4BAz9wSDi+AQfYPuX/Xj+IQsk8gMvHPx6jVD9WwEw/L/WEP4Eks78AZlU/ixU4vn0MQ74Xr6W/wsykvt7qJD+N+yg/UIZbPxgGgzy1ZVs/isseP0GYO79f03w/cJl9P3LU3T9lkhm/RMB6P5Yk5b8XhxI/Ml2qPga3Yz7C76W/0OCSP/e/oj+0JHo/vfurPlt/ED5XQrs+m6BRP4ZAgD99+9c82HBSP4w/3z6fSIY/Vq3Ov3q0eT/E+QjASxc7P9fy2b60mge/eM3sPpdu1b75ASg/q0z1PvJVVj/FObw8gAJ8PlSNyz/7aiW7BlT2v+9GZT+FIFs/oYBLP/Afwb/4cJG+AQZnvglsMj9aTAg/8eHiPUe8Pz+i2cQ+m2hCv5RbVEBNCIU/ULm/PzSS7D+cEpU/qr64v80Ggr0PXrc/hJFiv2Tjlr9OotE+Jy7Pv+WyN7/ZS5g+yLZXP17byz/A3/M+cls3P34e/D2AXaQ+d8nDPr8Zuj+Oce6/iOksPwLTJsCSBJw/Dha0vtZ6tb/ess4/fpfZvsu3Hj/V50A/aeAKPaC6NT/Vt2k/cfgfQNvJAj4ONjO+1w5aP9MZyj8=","4blbOv1f4Ij7JvZg9awsFwCHXZb8MgTHAeOh0vyL5xz+ZoYq/l8FKP30QCcDZa8O+KQOqP9JFE0DoG4s/VRPuv6T48jzd9eM+5gqJvpxTgL/cjz+/G1XVvawBNzyj2B6/dQLtPzjOnj62cp8/BvedP/V0PD7hf3i/btwtP1Beg7+Th+q+T/qSwKMvxb4g0ZK+fX2FPxvtDUA2BKy/PlUUwGbMjD46EEPA9dX5PT+inr5vIbI9735KPhiIBD9xhJo+bzQJwOwqBr/9RfA+93pJP3ILrj11sYO+ZrVRv24d579Zo4a/HkgbPzYlsb21exQ/vFApwPI/9j/n/aE/hAwfP9H5xj/W6iW+5IgAQCKdGT6ZAkI+dUJZv8krj78L4KG/V/4yQLzoVr6uMEA/1Pg8PvxQ8r+P/sY/4HKRPlhuDkD74vw+vgoav9GCIb4H1pW/0XCvv7MSkr9cH48/wL0BvkBPaL9dJDs+icFFv8Qq5r8j9Mk+5YBGPA4nZr+LTGu/KE5HveJxvr/d19W/+ph8P/aj0r2jpcM++P2EPd0Hzb8/ZEO/BeDMv3UJsb0JZ2g/ONGHPd6oAz9pmGe/2gDuP8uxoz86ykBAWRfPvgtgNj9fy2K8k9SPvxDDqz/IMIG/tJb0v/+yhbya9Mo/6avWvrmIkT9antk+mjJrv+ubXz+ycbg9/UqGv98phj4Fojk/YbxYPgTDAsDM4RI/F9TNPslDqT9tM1NAKnFaPqsJ1b68mka/rT6NP6VZbr+elhU+/76/vRIPAcDSFnc/6fvWv4JTsL8X2ra+QXLfvsHK2j5yIms9g0Qnvwx2VL/tKYu/MPKbvsZ0Dz8Fu269slMdP/1t8b8MofQ9H82GP4A3yz3g05O+GawEPxjz4z9Eol+/hSRdP1CHM7+fG4y/oOSbPLmCpb11dQC/tIS3vs8kGj48OSc+e28KP1J+Jj7WscG+pApUPiTB0j+WWcg+lUCVv7a1gz+Xs+c+zTk9Py9q2D+qiwXAnAXIv9JCDL+4t4K/PkFuPYlqhb9qw8S+m9cwv1jfMz8LSpS8Dd7Kv+mUC0A=","4hripP+0tsD/i7DY/wzerv5iw975VNXm/ANv+P1jaUD8A6o6/uOFOP+Vfcz866ARAg4PSP5b8t7/SMY0/tX4NQDH7Lj/kCIk/9xU9P9hgqz/OANo+1vvGPmXSyD+Mpwy/28tnvmVgNr+AmCO/GTmAPwurGL/XJkc9TudOv82Anz+Zslo/pVSpPp3BEEA4v4Q/6mGovRUP3r2g0os/LwgOQIdYGT9+BrE+foGCP1YBQD8g3bq+H2TtvvVGmj5vbzk/xR+eP6Bfhj9h3yQ/u78RPrvVkL6Q8rw/4ozDvnxfEb66wjI/FH9DP3mP9r8euzw/FYlXQBL2oT871MA/er0FvscvHj9bKic/1PxJvonMYz/dZAg/q3KKP6t2hL5OFSFAALudP+g1nL4PFQU/XIrLvlWmbj/q+qc/KkHTvt8QmL4QUy+/9vi/vdU9Vj9kQ7o9trywPjioKT+vZGe/ZLQIP6SdCEAAtXI/Em+EP9+5Cj+dlmA/JKq4PmK/Fj9qqPw/kTWfPk2GwD8Sb9o+RUdOv/nCA0Bw52E/G/wAvmJ4Oj6cgKG+I49JvUqWtj9J/5A/dwKUvzsz9D7nuPY/2cS4vkcZxz9ZXeW/DyAAP/rPOj+QDVE/uoPxP6T/sb+0za4/lU6QvxOWmT5sIb4/PgzXvkHmDT9NYCK/YwYSP9h3Yz9xqN2+JgvBPl+1Er/loU0+tBCUP5f/6j64910+ihLkvvZIML/d3IQ+iOUqvmyG6D5/uWw/GCwWQMoqQT811sM/UvP9vbsUeD9w+pU+9wMIQJ2pcz6+/Z2+ErJXP2h+iz9DBaq+zWALP/Hxu77pGEm/bMlEQGv4/D8xYVi/jUgBP3b0Rz8cOHw/5vOhP+svQT/Vy/o+9tKRP9oxCj8TmNU/X2UJvoVSkj/MU+K+HjZnPrYNA0DB9My+arL0P5NuUD69Eue+0yEBPwfPyr4Z7Ju+1IrFvlXIMr7uW6w/fcXEviq/4j6GKiE/LD56vi050r/x1dc+1fKuP3XNMT+UuQw/QLsMP6bbfT/JkAA+In7ZPnLoib2VaTI/uTQ/P/JsHj8=","4COT5PxnO0z8cKtW98vMxP+DPlT9FODs/GQMHvwMcRj2BGhLAQbO9P1q2EcBP+Jw/kx5BPT56hr+rZHA+Ji9vvll6eL+568e/ti4cvq3S3L/+3xE/Hx87PyNpVr7/EUM/yOssv+FH2L9go7q/uLfFvzznGz9gLXk+fKKuPyoHr77+bJA/ppX5va/CMT/yAFo/BPLRvtvIRTxF/B0/OwEOQBzly74QEd2+BUgjv7Uxv74AFM8/PxSKvwb0S79lI4y/LDAfPmdnZj+fpX8+Y/GlvjSq9b551iU/Z/aDPwxQx736GCW/+ct0P2DrRsBgL3c/mPknPgfNZb91jti8FMVYPMNWAb9c7yo/+8v8P4FwFT4tBU0+joOvv11vd717wjXApKJxP4Aa1T5sg+e+0ymUv+e8pj89yOC/7nVCP7X7er6Gu58/wjfnP6PLjj8VJqS/WTNgPJHKuj+ora6/LG9Cv0TW9T7kJ16/iI9sv5dRQb1gLk8/i2CCP9MpMr/jn4I+DljjvpnPmL/NaMQ819adv8nv4T4WXco/7ribvj/Wwj7K+1o/MVE+P/jSkj+Br+c/D2D+v8EWPD+uaJe9CBoEwOHQubtsz9O/GcqPv3NTOT+Etk6+h2vgPsfVvj5O7se/91MrvykBDj+bccA/v+gXP9jU9D0O2Zi/gFQjvwIymr+6UEY/aHaZPiZ/eT/DPj6/pTWpP/7QoD7fda8/ddvnP5xcUL/f406/o+COPt3yej+qr44+kyEfvzoriL3FIui+KbFwO4d6BMAAc0a+piAgwM3yGj7Fjem/XpFXvw353z9/dKC+C9BNQCn3ZT+mT88+S3EQQEdYXT/84MW/EQtdP0ppLD9NZyW/aG6sPCMPFT1EWa6+sbLuvvGqqr9t1GY/uUp7vnqTq79CfDC+sn7KP1DlJb/N1iM/4vBIP5aAwT4JjG4/d0guv1v7Rz+5IVg/cBVFP01Htz6zrtQ/HbOWvpWE9j/v2BpAGSY3v2Ri0r9D15Q+IRCtP5xlsL5ua9q/dyMnvs8RTz/P3du8G2akv5Zklr/xcOC/nFd3P61qUr8=","4GEMGQGPdv79kH2U/QdeIvYYnMj8mNBC84vCdPzfa1T+w6wJAGDKrP3a3nr+lOPI+mgCTv+wgGUDP3A9AT5vQv26tMr6mz84/ESmpP+4q0T8tAEk+0zkHQLbsnT8JwRI/hKn2P3hH4L+tuGk/CdqYv7SvQ79UBgM/qN2Kv+Rng74ZpUA/RTtxP373E0CwxR4/EjzFPhOAb71amiw/gMzkvwvGEED2jTK+w7OgP2Y/7j7m8QtAC5qsP9Rv3j5/taM/4TWrPsn3Sj9Q1jY/AGUAPr9CZT756T4+yt0ZP/WYZr5gupm+ZzbSP2W6FEB9a4g/KAsiv4bbIj5LdYe/xto7P68+G0Crr5o/nqZkPyfrBUDJRQi/ij+dP6D+ur4J8ri+sOS1P1VtsD4lPX8/F+KrvxGxiT80e7O/7T4pv5Dkzb/HmoC/ppelP33ngj/y/7C+BnESQLvnwD/IHoI/4Kt1PyaWhz1msBg/hA+EP+48rr2CYs4/Ps7cP98BTryOEMA/M8qOP6O3eD+I4pa9nOOYPyj9DkDV0p+/kU6zPhkdg71oNBY///pUPyk7ZD+Pe6Y/Y27GP74ESz8FzlE/Z/wOwAInc7+lAAY/RsqBPxU1Ej/Img4/tz2bPyIpyr5yK7U/5qOdv4xUfz91vNE/1qoFP4nM5D/n8p2/HVPRP+0Vgb9zRCK/KiXQPgeNTb94ris+WTedP3iNKz5PWyxAsBopP6GyBT/MnyVAY317vhAr0j5dr14/pZ22v8+SNz9jXbE/OYuuP447rb+9jIU/zGXTv5oS/D2uGre+hVVZP09ly78njmg+CbeJPyGC4D5WNT6+0bzKP4v6nD81m4I//8ViP76SPb+pdoC/psJov7sgHUBqMLA/XYyTPsy1vT+DZjtA7J16v6kqpj/xYQm/pCoYQFO8ob3TUrQ+RgCTPpo2Yr+fKak/9vgFvyF5Hb+wdpU+CYAivxibM77tgro/uLKwvvycO0AZRqM/nUbrPmM4I7/RmVu+8ZStvy9jkj6RM/q+uPEWP7XEPL9n3T4/6tOpPhSNhb24/Dq/JlyjPj3Dij0=","4gk6Nv9dWzr9TJrO+fpRdPzK/kD/uVCg/UzHwv5baOr4frKE/0uCsP5Wk4b5h/5M+jTLxvzlPsL9ZD149ZNsTv5JMRb/z55s/hYPgPtKPU78BQPm+wtShv8CCvr/eL0c/GbvVPwN2sL/EG/I+6huWP7/fEj8jqrk+dh47v7WFBL5E0IK/BSjfvuO3k7/qcQI/QjfrvkEa5z8kw0Y/UyQpwBLhd7+L5UW/3vU0v6zAHD6ByDI/j843P8BCt761UxW+z3YUv7M6mr7bcmi/hx4bv5M0qj2HEio+63t1P8Ul4z3Jdx+/rGjzPWvaez8JjE8/hxusvuLYfT9Dz+K/tAEFvrAaIL7WeGm/163CvpKOoD772jY+qoQHvzk8Sz2zSw/AYsqVv5AOFj+DyD8+iaeNv3pbn76vq6k/2B4iP2OMkT++KzW/wOydP5hwiL/3LZW+unh8Pz9igb598HS9BuZjv+1TK74MrA+/25levsdqib70nTq/+BZ9P7TJsj/hWKC/eF1BP6woxb+mB9u+/KH6vIkQBb9BU7a/HJ+2Pthh7zuhKmo/jy23Pr4kX73uMyq/73npPuLbTj83OoA+h3r/P88U4r+0lHg/8+8CP9wLFL6ADpq+SRQKv2G+sD/JITy/jZdtP6aeBT9psmu/kK7uPuKmDby+TZS/c/xkvuXZZT/stB4/+Q7dPYSi3r7klWI/tn7Iv0hBEr+YQQI/bX3+Puz8iL7/w5q/L++UPnfTxb/S5Ns+Sqxfvzy2t743BsO+mgurPily7b8ZogE90sYEwBbWgrq/m24+xC0vP2mc2r+Symg9xi9GPV1MZz8CiDU/SHznvxg7vz7r7hc+DptQP0yFZ7+ZFhc+3vrLv+cb3b281I4/edtgv9ZV+T7V7tG+OrNyv5ydKL/Jh6Y8Hx37P65TsL98gjI/5ZzWPqKjH79mqD8/AUkqPzsYED9KWw8/bGeYvvjFBEBB/tu/VNZDvnIooz+ntU4+B7vfvp//xD4/sPY+5mW4vzZRYb/cfVi+d/yAvYt6aj+fmzM/caL2vuCakz3wYj6+iCS4vpqciT8=","43YUHP4Y+tD9Inb4+3NvMv9TA+r4hVrm/xosJPrcFSD+ABwfAl56ePyBeaz+sRF0/zgodv/d4rj8oEh4/NoE+PwzQJD/0IhJAgixgPmaiDb43xbw9lBYPvw0Soz/SuRi/kY/Fv8uYfj6nFhg/feMVP25chr8PayY9u1PqPVrqIL8MLy8/mxrTvrUiVT8vMwk+x097vW5THUAS2Y++yzYewIOdmT7UlNa+HGjBPYwDqj/35PQ8VqkCwJv9Zj6Ffso+n8uHP+29Rz9PFSc/1cGjPRDPBz4TcQ9AUY3TvSQ/Gb/EosY+2GDBP3M8A8AFUGY/96vGPVTRhj92pTC/RV3gP90ThT+wZ7G+FEHFPqKcLj4e9/o8JV6pPRBtR76S350+38lRQKbeq74tZYa9c9UHPmGqBL46WS0/C1Zlv0ArhD4wGG69DzyjPyzYZT9BHCy+TQaHPkdnJz4+Mym/GX8MP/DCEj4E0TQ/lGyjPjyVCz6l8Iu8HjqyPt9MKjyFakY/o0ynvSQQmj88HaA+lM2FvxXolz+X1Ys/JYU6Pg2u9b13HJO+GsS/vRbOTT+4KIg/OtGwv0BlTD+jAyc/ijSyPwkpNr+5VCVAOUw7P7f+BT8mp+g+BzfDP3m5BD/QAau9Bk6av7aLIb6DMfQ/INV0vobO77xpy1U+9ETtP7+NDz/tHUa/VfJVPsUNqr5BYlQ/kCTCP7G9Ob3CrNo/efMoP87HQ76JNixAcDRiPrU0UL6svag+4c8hQCqR0b5XXAM/KG3ZPF5/A8Ai7xk/h0rMP5VDgb6+iA6/WCa9vuGtpz8AtaQ9hICBP/7AB799jFO/kvB7P3gKoz/ZsIi/ZDxQP3m03j04kbu8RZ8bvxgYIT9ahoo/VD+2P/gUij8b8mpA7rQ1QMxd2b32YBq/afy0Pn6LDUBOxQy/VtJIP4Kv3D4Xgu494/yTPvVkN7+4FWC+v3oJvikbkz8ve9M/6XVGv8J7pz8Czty9fCVSvpky9D9XATI/cuy6v6Oqej8F1UO9GW1mP95+kD9KH4K+HJxZv/BGCz/wBgxAzYCePjB8nb8=","4Y/xdP0KRqr9rarg9qvcVP+sfIr63zGo/ZNvCv+UZjj+oDdA/HZ6bv5socb2nN60+o2btPyyC0T+wEGQ/0bgEv8ikWL/eRRw/N4iYvk7xrr94lbe+XnV3vjY+zj7TNh4/rIx0PpXn07+8aTFAZ0iMv+6zbT9m6Hc/gJBRP5kbgr9AT02/WwPuP0qELb9vvhK+4KZzvov/rD+Yldg+aA3wv/wBjj+1a8Y/AyP0PmSm8j6+xSFA6cNVPtt6AD9Xycs/9ECrPyiqF0CogEM/7Bpevpr2vD79axw+8+Ffvv1clz56wJW+nuD4PhyTjj8rHV+/UJGDP1IbhT6uD+8/VLZoP6rzlz/WgGe9fGwJwDucsz/mpGI9gS6Nv3qfqj05MBQ/xaT8PxflAT8Vxk2+WgSnv0dCMj88Iqi/OVJKPxMwpr+3hm4/opgevzu4br+ynC0+DXBUPykTgj80tis+da9CP5Aq3T462Uk++pbrO0oGgD/5Q4Q/RYEzP0Rsoj7i31Y/3P3FOxo+pT9c3iM/2hDKPrekEkAnkKe/reaqPuTfYj+7q+a9x06VP56x1z5rdiA/dO0gP7MENr/kmOQ+h9MQwLVU8T/2PfI/B7k0P8mK6D9bORS+yi1eP7ZC/z5IyaG/ByVwP8paLT4JhUU/zoHhPk0N9j6aZKO/PoaEPxL4fr9qRU4/bTmOP14WPT9Nz7c+ybq1v1cVTj8dp+A/CqHPP78GJL7gkXpA98WjP7J+b7yB5Do/EWWHvzvHgD5Fxe8+OuGiP1c3EMBYGHg/plKRP7VCez9+ZxU/Vqy8Pq1Uub8NOcA+fKHtP0EteL3KENO+vtSQP2M9YL5odgE/AWFIv8VdHj5pj7G+zZTNP3HPCEBJkK4+gbfNP5DRIT/qSCBAWsymP3KKir9Lu0o+tz8ZQNF3rT8NuuY+A5EZPkkE5b+U+r8/Tt8Lv8VATT/mKfg+4oUXP69fo79+M8+/jt75PhwUPT/Zvik/dgzMvSFQrj+pqos+XWSCvxObZL+llM2+e4ALQPZN0z5GdeE+hwcdv4CRtT/Fs6C+vm7JP2iJ078=","4VL/GviDTar9spwi/O3b3P5cuzD7Qzd0/w9Nmv9+RFL9jlSs+JcmIPyis375nR5K/RHXHP3kRxD9kTUm/L0mAv0EtPD60B3q+tXJuvzDZzT9Yfwq/RXP+v2s2/77Jxzq/QzYvP5xkwL+Qb2a/FRm8P3L1f7+H1A8/NpEwPjkOBj8kY4O/bngGPjpqgD2auN2/Wf8nP0uOvb+ITes+VXERQFc9DDyCl3g/Wh64v8qJlr9JAuW/9J8gvruefj0I8h0/XSOQvbma3j/KosG/7pklvkXDE70yXii+2HLLPujulj9ZMga+lXtFvmnGeD/cRy0/klqUP9V9oT9AqLw/B8dKP1Epjr/4OTW8a40ZwH1Iir8nsbA/6/moP++Dmr2ODGY/8qZ9vxEuxL5ktBa/5uuNv5ckpr9X48Y/WKODv3pZlD8z8Vk+YhmovsqHS7/TtWA/D8tTPqO837+/F3M/+FInvxUR4z36b2W/g7cov5r/Yj+EFD6/wYChv36iWD5Ctt6/nzVXvxg9YT+ICio/sLSnPjYpG71JjZG/NQrKvWgLYD+9YL8+V02yPra5l78z8sy/x5ujPOmfAz/O/Z0+VAaUvz951j992SZANj2wPqyF2j9K4Ee/1gWAvtA8C0Bcv7g/xduwPmmOxL8o+NS/bC3evkdNL778enq/snKCPhIJkD/TxUu/o1/1Pp3RQL6CTyA+mAlBvxDc/j5qDYY/wrkiwOARSz/RYXs/I4YKv3+yuj+gWAK+kJq3O5yiNL8s7M6+OK5pvyPIBECHCGa/5i+1PyWvcz9mx6I/YhEUv4pApr9DH789kq+Bv7lBwD4NTIg/iP9nv3bjLD10bd08vpAqP35Ikz3DSn4/GW21P6miXz8mYKG+Jr5kPyn3cb8/kDFAMsuvP9gspj/qvUU82CocP58s0b30ciC/UGKIviqYxr/g5vq/OXJMP6ATZ793aTY/DBtuvsp1pr9Odju/HyelP8gJSr7zf46/kXsqPgWtDT/AtyS++lK9P9yQmb5fkWw/jT82vaEzub55M5G+tVOOP8k45z+TJrO+AMtbPTOHlD8=","49WQbQB1k1r/qKS6+fXSkP3g7Lj8syqM/D7EQPxW6FD9LzhdAenG0v1WkZUAf1rU/tEzMv/aAmD78DNM9iWSnPyEojD/0hidA/tWAP9hLsr/EyOQ+r3G/PsPtDz98F2M/GMQCv0v9Aj+IC4E/D+GlP5cCKj//JZE/z5w9P2PgQkCwIWc/MAEyQFwM+r737Y4/i1BDvtwLZL5udx4/1g1Cv2wt+D6+BsU/DZlwP31NtL3+tRY/a89HPukZ6j2CUoo/FayzPywBjb/EkTc+gOicvqT8q766oBQ/0mnbPjpOjT+W5LM/QubWPujTwz/WVXe/Me/eP5z0ib8q8sy/Wn19P59YTz7Sl+E7z7okwNSubr5/bI8/vLuav1NXBj4B3M0/b6ZHwD1nLD9SxJE/VSkOP5AXij9u/c4/0EIVP+0Aur9KoVs/l3yWPyrIXz/TpJc/IKcAQKWI9z7wNNw+CONzPggyJj+MOnS9cyKKP5WWiz/lOyQ9kTmPvh/9MEAWyYU+/is0P5j9hz/RZJA/Zsqxv4vrBT+8RZy/fox7vsbqlT+yDvE+fygLQNKIvryRKA4/PiFwP73xMb9ie+0/bAOnP4Kf0b98Ios+3Ea/PwCGGb+F5wI/dBYPP1k/Bz6OqJa/bYzivtxv5z/+uqG/MMcxP5+aBr5uxrQ+/RczPtLugT/SiAU/CzukPxDcPD9xkKY/2+52P164yj9S1xO/1Ar3vvJ+wD3WN+e/ETqSPEZumj1ctUg/wUx0vy9snz9IAEQ+9cNGP/Z0QT9QcYA+dpr8PzJIvD81RH4+AaZ/P3GEy7/WFa++QlS3P7An9j5usUA/X7gbv508Cz+bfiA/Wqskv5rtjj/0Ve4+SbSvv/yX0D8c7as/EepwvyYwmL62FWM/J04QQNBukb8rD8w8CLTfPsh/7b7dQjM/yY7GPyUbKb6JpZu+OjgZP61bET+KwTw/XUzTPvR7mT9JDac/lUKBP5KPxb8a+Us/iLEpvdQzr79aFZk9/kDJvjA1bT9NzVY+Vl6Dvu8NWz7bNm8/lEO4PGA/ND/OzMA/YDHTPwohXT8=","4KDjbPwXG3T/MZuy+ZP0YQNelGT6L5ghAqwdfP/JnEj/ocxjAJmvCv6kyub3PYxq+Jh69v7L+GMD1MAw/t21APr4bQD8BndA8xI0Yv++or79YjZ2//yLHP1hJhb2RTB4/xPv6v+PLojwIzbA//ZfkP75AhD9QKBc/CHokP8CPqj8WvHi/NA1OP/BjNr+Xrda/OhHDPE15M74Wg/08PUfMP4Yvwz+ANVU/mZeBP36RUT6VEqU/8d9Ev8/Ukj/u2/i+j4H9vmgW4j6FQkY+SahYPAYlkLz8MLa/2/3tPUi4qj8xlpA+1hgrQKwU57+A6ou/2Uc+P2knnT5nc7G/G8Zbv4OKTT/vCzo/gDvEP/byC0BdX9i/p+uQv6cqlr97k2s9GDUvwLGHqD5g5Kg/z6y+Pe69pz5PbPA/eLSBP20YcL5AOhk/2f5FQOe4HL+diSY/6EYCv9ZcCD9CUy6/JH7vPr98/D7DfKo/cKaYP8V1/D5Jz6M/Hmb+Pie/yL4MKOM/CScrP6ywUz8qD34+C3+Wv1/J2r8NvMc/2inLOvFRPz9gruI96R9cP29dUL/zxNI/I+Gmv5phXr83rGS9xO6APvKwub/aAi3AragkP4EJsT5XycA/Rj0cP2hVML+NNay/oybvv+wd4D/Hiry/HxjyPuj7gL+DpIw9nWM0PxwCuT8aXmo//EKRPkrYNz+/KlM/BXYqve1TJT+/GdG/cxpuv1U8lL51TYK/QxHcP789JD6CZac/UR8FwIb+yD9MAIs+VsqIP9vVDUDk1gY+8Iarv1ru6D65aWg+uhgfv85V1j8szI89pFzKvUssWD70pL8/8+8FPkM1cb29xXO/BxdwvwBRnD8clSU/4yydv5Rx0j6bX+Q+VoS6v7FyWT/TIoY/11WAvyDgl794abK/6lyKv0hZcb9JfPs+8ZY5v6TxNT45lpw/A/R4PzaQeT9slEs/U2XVPhYG5D8APV68zOaeP9CeVb8Gdi2/32J6vuq0Nb+TVqM/mlqUPxle6D4pf+89LHizPwEPIT9UmII+zqJQPyumqb/+HlW+Gl1JPjED378=","49s0/v8Q1sD/jGaC+w+GPP1/Thj9wcJA/xmh8vx1Bwz1ZHby/QfvDv4S6HT4ZyjO/OB/NP7MJAEAzpiq+21ibv+uyCr+6m72+1Ycev4dbxD+dfLA+yW6AvzEWD78Vwno/NR2wP5MAsb5l9Fw/KNGev4Frzz6jGi8/b7ucPzP+1L6BE1U/E/m6PtQ7zb9WKwE75RmzP0z7GD/fxDW+oKziv3KBK79DtxE/ZPLXPhzvL76Swue+8M6EPwdEnD4JiCU/9v8wP4nI9T/t3lY/tN2lPyq9iL7WNx0/YsmQP0M+yj4/zgC/EokHv1G6Br6bsIa/TXNWP8QiKUBRD8s/gh5sP6rXzb5w+iy/U9EGwHu3Cr78k+c+kt6zP1TLCb6pcLg9YZaUv8xHBD9S3oK+bYBjvgxKL77OIMa/5KT8PueNMD1POYk/L6Tdv6S8iz9RGzq+tVXPPrkY877DtI0/u5EcvxWhYb44ZZy84iafvtCmND+txMO9QkqfPgjyHD2WLo6+EZhWvjDQyL48Uf8+fs+GP29/eb9NuYg/8xxkvu60Pj8fcls/qLacP6QQWr8vK1m/TXIiPmb4TL9Luxw/I7Nev1WS1z/G0iNA4zy0vab1lz0dQNi+3sAZvjgR0D9iGbE/Rvqsv+p5Gb/bn9y/5dAMPy4E775rXx2+Y+VSPlTDjb+yp/E+1gYiPzXRVD+XfWE+iz3fP/TGBz+sT4C+dXJZv42NnD/EMg1ACw2LPp7J/r2CFLs8bqwgv+d7Oj3d9vW9KcqKvuxw3z9iGYI91ttbvHRbLz/XUpY/3zugPSj+rD+szFC+c7U5QGEmUj8+ORE/7886vpC8Mb8Eer08w9Jyv5sVrD/N04w/rmKvPzj50j+zFwq/81DUvvhldr6zsE8+2hM4P3BhqT92scu+gpphv9oPf79qwhE/+Y+LvfMACL/4mUW+efg2vwfOkj6z2Uo/z0Q7P5VYqr+VvOU/vVxuPnERmb8luP69YFCJPzXyGT8j4Rc/IzZmvyNIeb/mA36/2lPgPn+oLD9h2fm9AdqjP24dnD9KQoK/J9aUP33LzT8=","4GMcWQGnrZL8I5ypAP6rFvVomqb2uwnA9c1LGP4/khz9mIQbANCq9P7NRV0ARlW4/s+uiP/mCvT/PKxk+Z8l3QHXlyz9u3yNAi2KaPkAkpT/tNA0/U2btPn2QBz+h7a2+nbKIvuIIwj/jPBRAjCSov+hHgz8RnJM9YbhRv7qMRz97HWs/Q2ZUPuEflj2QLRY/Dg9vP+72mr7EEMi+prwTwHTJnD+wLvC+Yy1JP58FqD8CuBE/XvilP17B4j4KwCc/k4qwPgewAT9+wRlALSK0vgh6pzqdsZs/eGwIvXfNvr7fo4E/l7eWvr2nRT2ecYs/tpnwPxzNzr5WoJc/+U3nP/KbEz/NpfK+18cIQJ7NUj7Rcau+RZl8P5AOtDvc/b4/jpcEwNgPg766xJI+tr6MP3wfjT9Fa8q/yyhtPygVv79y3U2/Z98PP8Szkz+BooK/T12HP9IaFj/7pFk/luEbP68Jsz2PkHU/k7teP58jhL6iJVQ/V1F3PyXBmj+k3Sg/bXCyP8OBF0BGoYC+zQdYP+2drb7GOim/mLgJPnfeY74Bb/O91lIJPijCHz8Mocc9bsodvyHkZD+RGZY/8lSQP+1Hjj/uDBG+AmSSP90AcL9d5oY/UqCcPzlwOL/eIIM/AFNpv86/pz/NkrK/BsRLvtu6Qb+fu4I/gDG3P3Lbe7+xcYI/eZaYPfB9Ar9NCcg/P3WuP3veDL7NSMU/T6aUvqvwej8r/pa+9kR1P2iWhDzLg3A/WN8uv+jUsz/JQTE/PjoiPzMtJT66ewM/c8EIQOoJk726x70/kbwaP2IcQr9zCBo9N4QIP2dR2L0c+c2+Kbw+vlN8Pj9qskW/nIpRP5YfVD//Z4s+0nCYP9aooT83/ew/7woKv5Nfqz/DLl8/3Nj/P2EogD/Akl6+qpOlP2EqHz5P9VO+VbFTP8OAEj/vScA+clohv9myVj+GeMC94GMOv11pO70ZeeI/Qk1Iv1EV3j8sHWk+UqIIPpav4L/K+AZAqdTDv94coz+w8zK/U9xmPq6zEUBPg8k+bqAVP2HEvT+2Hg9A9naNPghGLb8=","4Nf5AP1TBt7+CPBM/cKrPvt4PML+PdHs+Me7JPeqOVj9quRBACF5MPhe38r6yjgo/lum4v32C4j/8Dac/+WA/v07GGz6xL1C+oLK6Pjhtsr8GMIW+QeICPvaYbD9cnyM/w9ZwP021n79sOaw++ePNP8LYFj/7H/A+kKsvPwraFr+hIzi/pbmiP+lWFj8GDhA//V8tvgvyLL6I6Qw/xccPwGInAT/Pt2Y+Ujo1PxE4Bz4tCuQ+fhSzPh279D59UrM/gIEzPlyEQUByDL8/YCaKvnvNr75b85i+sb88v9M+m758QKu+kK29PnymwT8wFTy+7rNxPxKlIEBFcMK/0/2mPzc/sT9cnB09b73ZPq3RGz/bBI8/7fiMv6rMTD6yEOA/zoQWQD7vyD5Z5s09H9t3v1yFOT9SGuM/34oZPz731r/4ZVo/ispEPlOhW7/9wGa/qb0OP6raKD8QJLI+YM0bPljzXD90ipw+IPqYvpduy77X5HE/nU6QPkDVUb6Y96A/daV4Po3L2j+dbm6+Us1XP9K3pT9ekau/reLRvhWTsb1Hxye/hYciP1yXkT+dFKo/qIduPwnqFDtKzyE/bYGUvvMdwL+gEA9A1aMcP87O0T+Fo+0+4KgYQIm75z+IN6C/eRyYP2uNM7/gu6c/BEu3Pmj3fT8zf0y/J0+8P45Wjj/USOE+rvpUPoQDGD+eUv8+RjOtv+GPNT5Yp4A/jRyOP/ncFb3kqDhAZMSGPyh6BL/vkhA+qkyjv1k26D05KE4//4y7PjKazr9KRHo/MqETP/fLAb0u1Oc/gyIXPibutr+gQ2O+Fo+1P3ckHr+Iwoe8TNEpP1Ls8T8Rdxs/a8ZuvTL26z9BC5g+wXCXvz4ukj8dqFo/Vu+1Pwh8FT/20D5AjQRUP0dOlL9v9Pw+NauUPofUrD9lSvk+QBiXPzGOn73Kvu+9LwpHPxJDwT5cnhK9mccaP+bzg7+Pk+G/CHXUvhfvnz8vR9I/8zu3PEbI7T50CYw/WSmHv1GNib+/eTq/Aqq2P/+L0j2B9R8+CfPnvTIWhD8qy8e+fO9MPgu/RT8=","4bCHaPxEYFb/i6XS+g7u5P80Njb7bRb4/ngk2P04gAD/gitS/S+FWP6Punz4NxnA/Yj27P6v6ez8GYnE/bLhrP1+sTz4kq34/6BbJPuNSqT8iFC2/bEiRP6VQEUAmOQO/dfcLvzDsor8fQDY+OIN3P7Zg4L63y74+S91bvzaTjD5vOE6/nVULQB528j9jxAc/SVqAP3b9vL8q/VM/KMkbQGUHvz9QgL8/em6JP13RnT88QN4/u6zxvTcMID42bc4+ndJuP9Mm8D8dSyu+dgVIPoEgUz7ocri9yr+JvvA2jj+6vFM+h+9BP1VLST7a3B0/tKg2Pw1qgT2RYr0/7D7/vfkHqz4es4Q/qeUIwNqByT9FHKW/9uNlP5PBfL7TrI0/MwuaPxxL5b7rcsy+Fwxtv2uuF0Cz1Is/6y+ZvlbNtb+1MDG/1MuJP53RgL+La1Q/NMSOP2ptQz/vrY0/Vo0yPk0niD8bxxU/XqYTP8ZghT8bWYg/GCioPynNib08cZI/8p8gPgvUgj6BEEM/TpYnv+92Fz8cBdy+bWTSPcC3QD/5sXe+fb8rP7bcRj9Ko/0/OgC5vvVd0T4RJCw/0a1yvz7XuD8vW46/NbsUP9a6JD0PPdE+rvy+P+e3179sTIE//IW1PrGxRD9af8M/zZi1vgY1lb2JO3+/TfRmP6lxXT+X9MC+q5AsPiLHLL/x0Ja8qXyXv3CKdD/S+Mm/SXPtP7EHfz+M7jw/73dYP8KOtD9uTY8/WIRbvw7G+j7+9To/jbIRP60tzr96vbg+CHUgv/R5Sj+FKTy9WOK6Phb5u75fiX89VnClvY9Pu77N++8+nZ4lQNGAnz8UguC+0uIHPxTKFUC773s/J+iNP3cq2z8HSrI+uE/uPU9FNL6plzhApzi8v/Y/Zz/y54W9z9uuv8MNVz9QGfm+JGf/PhpIgb5K7aU/UUcbP1+x0778lDw+GZIYv5THsL6Eeau/Jqh0PwKtHMAZdRc/j52mPr56h7+qdP8/CdDaP1xgij0cMa8+C3GrP2hWbT+PlSw/T++EOkxuT78zRwC/PqNEP8gMWb8=","4Ud5ZP4a95r5/s4k/AwZovoXxYr7SoAC+KyfzP0j7eT9UBw7AD4t8P6luiT6kaQq+YL/Ov9HKqL9jjrU/UBC8Pj4GlT+LV2e/U0S+PkylgL+kMKU+M60pQAw4HD/OuXI+UbdqPmZmmD80SF8/ucwGP7WgpL6SjM4+cfCJv3pqaj/tEkA/yTm5Py32cj+31LY+IaaqP2TxNb+jpYU+tJ4yQK51tz+Z36I/WKcMQF3KAj6yTXE+f2SvP25VST9Q6N8+xAvwPxc5Tr6fjE8/c31uPnSwfD6pztE/m6sPvu3iET8gODM/zSNfPgV1eT62wC8/sfd4P8AXg70eT8u/UVZWv98wiT/EfqM/4FwCQMLw6T/AiZ++uGluvwv1Y75VZSNAznXzv67NmT7HfoM/1qOFP9WKUT9Bmns+mJpWvg4yGbzIsXu/vRrXv5eVcj9tmYM/ndoFPjT4fD9NPZY/QRXOP6Mdkj8V0PQ/abqOP6Fwhj+PnPg/mhPcPnb5677AdCRAprV8PwNgB0DmgZQ/lF2jP+BvH78yCYu+YhBBPrpWLz8nA4K9KHDwPsDd8j4ScOA+QmXrvpHNKD8mCvC9qebQvUj4wb/OTjDAytksPzO/Fb+m1qg/nvpLP5SNCMBg626/DV6Yv+jNrj/Ocpe/Uzn8PEVsQz7A9FI/P9RvPeYd5D7J7Me9hQJlPwoAUb8Fo1Q+i8GrP2J1iD9jTC+/5jctvyKAnD8nL9C+8DRVP+r3Cjyjmhs/BdoGQKLM0T8tncE/aGGiP8zVI0CETl4/OeBOP1rPej8vSVs/oR+TP9/DWb69zAA+N6WZPjjxNL5BzbO+ogEsP09B+b2dd/K+6NMuP0gQ2z7EvVM++sOsv/I89z39528+y2SGv5UzlT+kRB/AyMzYv2+odr+CN+K+KKGIv1kpW7/OfGC9Uhl9vqbgLD9+qTs/fj6+Pr98QL7MhYO9vJg4v11Xi7+/Ur4/7eALP7F9ET6I05q+xuAEPxBin7+ULgq/hS/cPxv6+77EzKA/q78EP6uok79d/DY/4es+P6BhAb8cswu/4eaPPzrTs70=","4qhtYv7s7uD+G4Wi+MIlcv5/VFb/kVYi/5VD+PvycTj8QLQXA8GF1P15Mtzz7JSE+YzpaP5f5FEDGO1I/w3TrvWlsxT8Yp7c/l0c7PTVWLD+oKTe+e9kjPs2k3z/VWhe/tHKqP9VfrT9GhCG/PzeMP4tfOL93lBm/FLU5PyGhWj/EdEu/secjvwijZUBIRSG+jL8SPzxI0D+xQiA/DMz4P/h6Lj8R+5G/6ZmrPhDUST+sh4m/Kjg2PwBKLD08spk+wWLYv8YFpD9Ntae+AMHyPj6r9L0/HQvAR3iZvoT+hb9ETxc+lpbZP4Sdmr/Wwzc/7n7mPgKgOUCBz2I/CMPBP4fVMD/6CFM/9FLDP5iauD8YOqO/D6UZP50xKD63D90/XMX0P5fNur6ncOY+SLyNP3ftU73kA7M/T8EWvwHlBcCbTBk/Qu33Pw4Zi795xyi9T2erPgvN6r1h1GQ+ZYTLPs1Vjj/lYf4/I948Pw3Gu7+kBBk+1EC7Pq3Ga79F79U/6rIFPqt4lD/ewou/FHazPzU7Iz4S16g/qDQFvMvyUL+1Ztu+za3gvgdKQz8Aq1o+JdM7vzzqOD/xokA/gtpqQNRZST/V+0ZAfx/2PjQlgT8wXrw+zWCTP9Jq2DwVxgM/4B22P/QesD1KxHk/SLvSvrkphD6d92A/RlRkPzQOTz/I4yC/wTeBv7qA2D6So1M/tq+yv5F+UL+KLNA/H2cbvzyf9z6VQqU/INx5PnodzD+sS68+WNQrwJY/wj5CWbo+cHTHPaur8z9ZVeU+Q9Oov9Utgr/i7tg/W8MTv5PKmj/LQ6i9o1y5v1Nh377OjOi+lVThvlIudT/03wy/9VwePwdJNj/DPaE/mZNOP4+bDz+RBrE/h7nNP+b0mD+SnFFAvccWv+cIGT+aRQk/iofgPmad1j4knL2+rDwuP/nF0j9kUMi+bD4JP84lG7/wZcO+x+CSPn18JkBD1d+/5TKqviKVtD/aRaS+XuKBPswY6D+54/U+YJKOP4kk4T8FSIm/t6MpP4gV3b4Bx9498h+aP9VVh79ZeEg/2bdbv8NtD0A=","4lIfovTnQtj9MdJG/w3tIwD2wVL9CLy/Am92kPf1HQL7dUI2/7jeJv5xHnL8QR6s+rneNP2uoDEA26Xc98kpHwIEY2b4Fzxc/nCAKP0htXj/aGqE+9IASP6nlpD9BLVa/jmBoP4e82r9gzlQ/JM2bPyIDkj3lJDq+iX5LP+Sx479FWC0/8SSDv/G+Lr9FQIQ+RnfDvkkqPL/uuaK+GT0pwJLWeD8VjDK/Bwglvz3EC78Q5fS/2gkrPpHYeD7ALKg/lltvP3W59b5JLxW+Yb4OPmM8kL50KwVAX5pSv3vq17+XuEM+8PAwPta94b/0kkK/efAPvv8Fsz7U23s/gZotP70thD9sW8s/pP0owC9LHD1HaRc/mlxGP8Y+Xr6u85W+lUacP9ugy77G9Ro/lxqiv1vfP759uL8/x1Y+vaJTub5cVAs/om+8v8O/Mz8eNVS/utS/P9yMiD8Ayz2/s9vHPrSMJD5cJTO/6B9OP6qOu76tcfI+0gUrvxBcTr88y2Y/a2RJv6rLjL980uK+0XdfPyYhSUCbr4o/93PbvrUzg78bkhy/coubvyEsjz5MXMA+9z1xv0PHCr9mftg+9T4lwEM9lz8voya8Qu/jPezjhL4zVYA+AFCEvpuuOL/HFlQ/aUlhv1Tyxj3jl/8/dZAMv2JHdz8Ahqe/pD+NP2rvcz+UmQ08rf9yvlpIVD5sCgG/DJSEP2WtP78gS28/xDU3v7LgJ79lI+4/dm8Cv674PL8rrC+/Ccs4QAXrxzwdMmk/7l/QPqP4CEDHvnQ/iqnpP6S5Qr88BmS+CsPFP28osj9KGI2+BsoXPxy3Hb/Vl+e/gnSNPwRDQb7/ISS/vjI0vzEbSL8/UEW/eQZ5P7/prT+Wgwy/iPZVPx+1oT7NA9o9W69fPphYND9ar4m+LJPnPlpeSD/T5wq/Oya9vgXF0L/R4wA/Q+g6P1UxyT28+jq/NGRBPvZV3L9Js6A/P8jIvwH+V765BKu9mF8PvvesL7+uZHy/byHXv58+hL9bEkK+/tllv+DMwr/rJ9e+UOneP3EJqz+maUC/t7XPPW7aAj0=","4rCdqPSRlZr7txkS/USipP/S3Pz/Qcas/VCO1v7xGhT9Wd1C+rB1Uv1AueL9z4gi+iwXJP6zx0z8FdkU/Q2UUv1HXMr/u3ZQ/OLMGP2sSvD/KaZG+dSgUvwVbjr3fTYy/Xr8ZQHRgMr80nTg9EH11PvAnir/wdK4/v0ykv7l1vT7hb2y/vk0EP5XzBj/RHq6++gadP1zhsb9rNDO/ib0uwFDzZD/S9Ug/HXPpvpfdZL/2Qn0/x4vyPwZzNr/Kv4E+slS4P0XIyz7CAJE+TG/fPiadp76qPRFA/KM2P6XUoz8vRqi/GP2QPxMYHz+uFB6/1z5Yv5Teu74b28U/xjbAPkajtD9g2Xu/DxSQPywSWL6KGoA/h3eiP17idj4Jymu/7PkFPwivQ78I0w4/6gP2vlWJgr8fMtM+eyeJv7mm3z+ZJZe/wloEQEebgb8kXP8+nJ7ovokB4D6ATH8/GSiov66OVb9mpJe/3x2CvxzErT9F4oa++6GpPZEe0L4IHmU+wXzTPi2dEb9vDLQ/WtxSP6W8Gj91uIk92BaXvkzNtz8Itx8/crKHP2Qctz5rlTU/tayHPk3WCL+YUI4+E1QuvvlTuz/ylvW+nz8BPxJmNL/62Rm/WQ/5PsWEFj/QyrQ/RuLXPwhBuD7kOeI/rwMLv1TTPz+Hyby+27ENvxTWnT2WMm2/MLS7PwGBSL+LOCq9xO/bvwPgeD+GaaY/TqnFP3sAez9Z1lU/Sl+XviaxL7/8FPi+k579P2MDO75PXie/Jei0ODfVE8Atl0s+nIT3v7DYmz9vgMI/fx5Ov0dHeL0Yx16+nLckQH5iAj/kios/9h+0vkJL4D9NOHo+dHXqvuZYSr5UxLm/MYOqP4qbdD/FVSw/2XNdv0JCoz7HdUdALDkuP7utmD85sv0+r0qjPwrFIr88+Ce/HIWDPyeDVT3MAUm/qZMtPh2rgL9UCoQ/tsxGv3R5UD8hN/u/VQ27PoOjyz+wUSpA6SfZPtpGs79z1Cs/9pTQv0glur3naTs//tYmv3xzDj9ePQ6/NUhVvzT8Cz9SUdW+3zKNP8zhNT8=","4P5irP7GgFD4y+as/JS7NvOHnP7+CF/a7G+aSPy9Dgz+C+ww/w+eCP1+oyL6T+YY/iP6+v42VmT/pP64/b413P1QWFT+o5x6+QBfdviXGxr/ogNq+GHtOvjVCpD/08yS/cFV5P/LhrL/zILI/pcahP3HsVr9uiiI/h4zxvpjJRb/p+FO/7B+wvrye0D/sZBQ/SeHOP9875D/OB7Y/zWPYPzavrz9WoEg+zYmOP7ZIej9Ijkg+Z3u4P6DeVD+cmkS+jvBgPqaBKEBgb/s/t05iP/jM875Pm1E6Dh03vziePbwicPw83Jm7PtBJlj+XlWg/fAzAPxlBO0D6Hcy/8j9GP9rRtj7Ws+4+Xt+lP+8DqT85VZC/5G2svyphdL1wvng/ywwyQE5jjL5dx/O+S718v40XlT8AX6E/kpgxvxPnwj6ERx6/YUF3vySQkr+/+dG+1hqLPnUxyz5VNIo/7jkSPiHLJ0BgH7c/krqjPjdQV7x+M7I/QhyaP5ppor+oV7w/urAtPcNc3D4jKyc9/waMPxRPHL60CIw+iojzvmuNxj5KdxG/ah4/PdZ+uT+owZA/tCODP1keLj8GusC9oISYP4iX1791FR9ANwCxvkrdrz9ErmY/ZPdUP2l7xD/nc6q/ApCFP196YL8Fcq8/fiTqvpdTAT5yVEm/DmX/PsuFcz/ZZiW/NhbgPnB41b5FPzM/J/fTvytY3j3KVPw+qzukP+3Bdj//M0tAmencP5cdij+UMUc/cM1yuys1YD/YrDg+lxKjvo/6Rz+FN20/j+8awGtQNT4vAIQ/itpxv/TUnT7tJKS+LMfqP3zYI7+fAR2+tmvSPws+nT9Ls0Y/hmE9P3aZE0CJIwBAcVGov3EsYj9vBcg+dBqyPxDgJD9OiZ8+lcpIv/AGor9kR3I+f3qnvpW1Aj9QBNu+qiafPi7nhT+/nHM/tzUyPzJhH78QLqM+FJ3Vvt9IBb+kGe+/bCgWvh6CbD8PvEM/zCtRP/UagD+AwiS+0CyNP+8/nL8kXL6+my7KP2R6bD6w9bA9BCGhP5fRZb780uq/fpvVPuAP5z4=","4290xPzFRvL/9Yam/cwNQPy76Tb8eREc/VD6SvtlHF79NJw8/Uo+cP9D3mj8FTIu/usHfP+eLWj84BE6/DpcjPyIujj6bjLy+44iIv7Dp1r/u1im/3bjqvzyJhT8erpA9GiTdv2Vchj7p/7u/jhu/vwdBXb8wwJ4+32yYPwGAC75K25u/Lx/UvKv7gb68QJm/o9QnP7dEGL+QDoq/lOsjQAYXgr+t6SM+TN2yPi6bkL4AU3K/uzXQPtuB6b4pdwe/rGcMPzm1Kj4JcxE+E7XuvP027b55KEQ/xl1Yv9Mh7T4QMz88RezNvwBF1j9M6WE/DkrNPxpoDcDv+9M/mXoPvu0/yL4DBlS/hIGSv1YyM7/pAIg/gmqzv54djr3GpBtAqrokQMLUBL5x79m+szJaPpOEjD4Kid2//4lav7v9vD5kXp8/mwanv4RniL9Ip6a+RI89v6lzVb6ScYY/dPxkPtMtGT+4hQO/SINyv9umED8kCiO96pfOv0CL+75Czjm/jNOTvsLn6D9W/TE/OTy4v4cAFj/jQ5q/+mjEvmKZCT/KEiW/XSW3PgDs9745Pje/5W8xPxwhRT+tJOs9wdAWwL5J4T+GKl0/ADWLvPO1ML9Ympy+4PpIPj5ZgD8eTLi/TDcVP8s4kr+7u7w/JIPUPaSpxb6vE0I+BeQXv6LUg7+E6E6/g7mZPiwCTT9nngM+5Nqfv2gU1z6DxA2/+zzfujTqiT9P04o/4gt2PXxxoz/0kWm/vsfjPs0u/z7w0pK/4utvv10ivD/dV8++mordP2PNuT4mIs48d66tv64auL+lmAO/QCglQGKdLr+6bZM+lbnbveqb+L+ATYs+3yxYP+XOGUAsp5i+2X27P62ftz+D3L++W05APwTcgr/qrkI+gNjzP14Qpr8vJva8SUmLv6sGxD/n3Nc9er9XPTA2wL4bzP+/oCNDv7ClHL/Z768+ducuP6pYF8A/6rK//zdmvupIrb/L8mo/FjJiPnuCLz/hq1+/BSzEP93NDL9SWTm/5h/qPLuiFL+SC9S+nEFRP52+fz8/Jk2/o7JLP1nFqr8=","4JBQCvoqzhz5xDJg/f6SwP8n/h79ZnLA/QhGTv/o9jD9lA68+itQ/P0Wekz7IbMA+2EzEP5xe7D9i23o+ye2fvwLVMj+wbj4/3vCCvuBt0j+8TtG9BRr7Pez11L1xEUS9O/YKQIlWTL8YzGu+GNa3Pwd7k79KuIc/Bjepv5iCpr4XdtE+j0UKPzFR1z9f0yY/gMTnvwA+T0AFPUY/UTD6P9dYzb6r8F4/mrPIPimbMD/9xhu/NX+8P3IBBz9G9hA+bF2zP2FngT+M9yM+H2I8v1gK/b6bdfI/vvJ/vzYYlT+OcQ8/KMJdP/vGY79emQk/Gr7pPosBF0DzerE/AWeTP3TzFT+Gujc/w43SPzKAkD/oPB8/mVquP/cQAL+d166/nqKmvnQAvL38+oc/otwjv9z7lr63nMs/T3t/vz6FBUCyrZu/6r48PgiNGz/LQAo/tbLAPuhSmT6xmLm/2spIPv+VOT997MI/uLPAvrvbrD/U1z0/LgiXPyp2Fr+vDBa/T1n2PUq1jb5Mj7U/KhZzPwl/LL/nyVK+WuvHvm2npD8W0mG/G4B2P6cOuD47KSw/fQYRv1MF1j6SvQ8+wNGcP44spz+u6X5AT4GnPsa4+j7Zt6U+8e2APiCiG0DcnLc/tdrsv57+Bj9i+4G/V174vaMi6D5EKfK+DeoGP9Veez8ZM4q/JyazP3OMU7/RvIo/Jy6eP79ChD9FRc0/w8LrvnD9rL+ewd4/LSPoPsLuoD/uOzy+c43dPzHkIz/m4iE/R+J6P11WHkBH1Bs/tHO1vmoWjz8vgOW+Dc6MvugoU72te8q+2qj9P669Xr9uDYU/ze4qPwb3Rj5g2Qq/+F3UPpXEPz4zV6w/1CqmPzTOVD+O0Ys+jL8xvg3JzT9KCiO/VonePwRnqj+mQFe/3mkjP0wysL/P+Fq+r8XwPi2JXD8qxZE/uawgP5fgcb8n1Dk/6J4+v8Ww8T/wNb0/GiYFP3yiwT9Qbic/cBVHvxa+7T/eVDK/lsGDPwex2D18mFk/FsF/PXO6JD7od/w+u65JP1z6lz9VOrm+4O5nP2chCUA=","483ggv8TU0b8Y+0i/abOiPSHRDj+hDRU9Fx35PMbDUj92nf4/HAZAvWyQRL9j+qa+JxraP8miWL/kOaY/oKcev3aRKb941w8+hJaTvmiS1r9MCAK/P0mjPl2zjT59oqe+ixUzPul/r74VF54/oqi0P4T9Rb/gmH++BjgcP2qKIb2R9X+/Y1HlPrBh9L4/ycS90TcXP205OUC2q04+9IpyPk1Fcj+VRaq+stZ6P6d0sz7Rwdc/ylvVPuskqD4g/zE+avnEvztvkD/RD6o+nni3PS/mVD49VTLAMnwGPwaUIL7X8kO/rFvXPgNwNkAGRDm+kOsvvdfIS0DRD9A/aQInv2/ykT9LuuO+neX9v9hZbT/NXgjA7py1v64Em70cGTc/GvIRQE0eWL7KLxs9IOCVvjlfQT61EdQ/mOxCv+116r9pcx0/M2vNv2d6pb/o77i9WK+5PUJru77fqbI/LPnEPo4kUT/6hHQ/MOlgP6olkL+XcU8+ZhlaP1zU8L39se8/BsW8vnGKZL88Rmq/gfe1P61lij7lYbm/uX9SPo9/PL+n0eU+QVCBvibJnz7nbTY/qSvYPzx8qb15soc+rJvBP2V30j885+g+egIdvq1Idj/3JFw+BKzBvkwk3b5fxcm/25+FP20dCzwaGps/+ZJovhcfe75PKdG+zx91vzmhjT+bGBK/vAsxvyis7z518o4+5X7tv6nBrb69GVW/FUDgPwChUz9Bssc/otW4P6nwG78Gk18/nzgwwL+COj52j52+DhhIvbzAwr9nY9c+TRfyv0VlHL9+/k0/Kn8YvV+H1r8Zklg+keIkwJQoBz9Capo9Do04P2hNIL80xow/WUqUvr3atD6abZ4/+0e0Pxd0Pj+62Ja+3PZuPwwCsz4TxcG/udc1wOt6uL/9RqE+rGOdPskrsT5OcIS+ExuzviiaYb2k32M/vYFCPzekIL+iXcm+RjDtPhVy/z5VfAHAUL6bPjYckr9dDWW+Sm8MPypasz+jFEm+WP3rPs4rqb+o4NI9tgmYP30mwjwzZcY+b7WgvjTk0b/d8ly/gDWMvx6Jsj4=","4NoQXQAjo3j331DRAtRBdP6vxgD8FV8c/Kxf0PYrhLz8lyhXAi5QOP2w6pD/attY/pHjgv30trT4kdBY/gwpjvocSMD+148G/pu7ZPqgK0b9Sxjc+x2UCQL/E7L7OIj0/mHptvz3U2b/CX4I/PrXlPs6vhT8SFFQ/zfusP8Do7b2PPUc/vME/QEMnpD+GgrE/uwDYP27PMD4nimQ/iQb3v3M5dz1Tei9Ar0GRP43MMz81kz5AJKp/v35SED+9mrA/ODTDPwtCkT4hIb4/5KdkP6AGyz6GGKu/D/xPPwgSpj9Z4pg+MjmcP3qH3DxfQ50+vGHePdTvHUCHjNi/f8+JP05QeT+cA4U/K8YNQCbCgj/orRK/c8usv6hEMb7pvXg+4Picv1WaDj/xrbA+2Wmnv3zxvD/7kDs+RQ5NP5aIzr/c/JM/mQMKPkygcj8ARuA+i2YPQKnEtz+zn7E/oXqFP2mkGz6iqPQ/MhM5PzD0sD+8CbA/UhCCP5bHGD+Zyma8xMjbPijTMkBdmF4/z1ulvsNIaT1/Qw8+EIwkPjUmfT8gwSw/tT4aP8VAeTww4AtAekUYvqfveD7EIbg/NasaPrQO379AH5E/hII6P6EV1D9o4+A+GxtMQNfJ2b51Xb6/yqetv9cHZD8yfwPAMsUsP8kqzT2paZq/EbMeQE7Twj5W9mU/cZ6OP7HLfj/SOac+5prVP1fcvD/pBwe/izn5Pu/JxT/5/p4/pb8pvn6pWL2b6qg/F/mYvucnAj+5jrg/1hgEQNMLqb/C8fk+pLElQAyFnD+dSJS/q4aLP5YGFj70Q8c+qlVRPwyOQz/Zdlm+FyJIP2/dC0CDssS8bb9XPni2bD7gnjs/BO60v1S2gT9s84o/ZzPSPbGX4z/u8tU/i0B7P1tGq78PJvO+eziZv7PYaD+t3hA/8DK0Pq7svj5nZrM/hV+sPtrLVD/+Rk89zPNHPwcftj3kqd0/bN2EPyDGxz0vAUQ/byR8PyAofj8Ughk+yOaRvzTBwD5/NlE/pfrEPwqCMDxLfAg/FSeFv0b/cz6O7eU/fDusP/OJMT0=","4OPaVPCDioz56UyY/8WkXQDj4nb5l2RJAYJjhv9LfvD5lQaS+Ljq1P7t3K7+Fb5E+N3Duv4unbT89Cpm+NN6NvwA4qb74oYS/eqYXv/c21D8pEw2/oY/HPuGv477dYiI/7Yj7P3CGuL6Ho9C/2Orbv8V/jT9LLY8/VAuCv8sslr6q+Ii/AKCHPx8zxj/6iI4+qTnrP3mVW7+VXlS++7gfQDGCCr8VutI/IXE7P9Yisr6e2lW/BYydP+AVgr+x9XG9mV9aP9ugjT9eMwc/edunP/rHvb4rBpA/E/G0vir6AEBdw4S/CcbZukFrKT+wuGw/9LLcPjLaB0Cmwti/LhTJvsclEb/onus+FuC3P0s8Qj8sdZi+DqOwP238JLxwk2C/Wx4MwCoZyT5N/ra+4ddbvsNoiL4ZEN6/Dy15PyF8LUDT7TK/8HMFvwQvk79wSAdA2nW7vpfSyr14E74/0kBav30i6TwSldE+/1Ftv9o32z/Lc3k/SW+iP00w5L9icVI+F4ZTvpHHIL9q5tY/ByqVP1e6TL8VpQE/8oyXvqshsT8107C+gNBxP7GxqL6tnnY/REg0PwNBJj8l+iw9mdqBv5186L9rAQjAbU5Lv1Eltb83tya/5nEwP/nzCcCfsMk/tLJfP2vPUz+DFY+/KizqPkBpmr7U1xO+/F5QPvNUgb99PDI/2emGP/VQ074ORti+/17Dv1Qxcz8/xJy/YJ3JvzXywz92Kxw/jeMdv/XMiD+hw+i8vwqVP56BIz4aN44/ZKkfPtn90j/XI0y+XD0HPsUgwD8QuZW+uLcaP1JZ4D5KO6G+DxUDv78ccb6E3do/hjYiQInRrj+mmC4/jFhZPyq1Fj8xjpQ/OCzFv2ZYwD4L8gq/l4QDwARWJT/aLHo/G0avvsnqqT8acCg+ik4CwIgqr79O/gg/770MP7VxHD9E7lg9oFpRv1txXD9a3WQ/E1zIvrjWwz0QxPO/NA20P3LjM7+Qf3M+KzSbP7jb+78ORsw930a7P3Xii72aGABA3udqvog24T7qeCC/3q2lPqLXxT4Ffzm/UTFgPht4FEA=","4u6weQE/Mqz+BQqA+hfM1PhWzkr6MfmC+ZD8tvq98nj9/EWS+jdHAP6l4kz+9e6U/+om6P/Z62z+1GCg/VXjCPrBWVz+2hpY/McBLP8vfvr+NeE2/jSR1P1viYT9AwgS+72YsPhWzyb+iL6Q/bXG3vwm+ED+qZGQ+FGaOP+Mxwj/UMzi/YNiMPqmG6j7LA9I/jerGP7WwJ0AiDg5AZUXJP32kDj/7Lws/4QoWP9cWlj/wo0w/SUqUv4boBD5zxfw/ip41P2hJNEAaV7O+4tqxP91/oT4nGD0+OyXrvcHfez4bysI/9JU3PzGksz4VZFI/EnmZP5HFPkD236I/82PHP8v4xj7xOns/JQL9v2laVz/FUB4/FVGlv5qjb79f/Cs+YVnMvw5CY70rccc9LayQv22p1T8aLKi/Z8chP5PF4j2CWH0/daz4P/jfqr495P4+6fv8P6NOuz6Re5Q/Jdn1OuQvhz82Sa4/2VWGP4A8Vz/9sWg/QF41P+4+sj8hL6U+w9zRvpn7Ej/7O/g+KL6QPtL8lj3b5no/irK2PlhOVj+H0Uo8HVAxP7WQOT+mlJw/KU1cPwxoGj9MON8/KYUMQEvRqz/3KGFACISVP0a3DUBobW0+PJyRP0bu0j8J16e/zW7Gv8a9Mz9cnsy/FD4RPizIV77X/42/FDQaPx7hXL/k6P4+DZ4TP7gqKj8GYYc/T0ucPk46Ez8+rDs/VhMqP98UuD8HY+E+LE9zPuAI2D9N8Zk/7EAdP6DlwD7Jduc+MhqKP+69HMC1Bm4/xJeoP1dfOz9X4E0/La0SP80tlz+DTzk+Qu4dQB+7D77U0xe/UZ4/Py2Egz8Rs0M/Kq9AP19Ggj9X2QFANEGcPxwRgj+9vG8/gxUmP8whyD7efUFAohZCQB/Jnb/8MJG/QY0RPwClVb5JB1U9RlyZP3v6XL9NoTc/+E40vzMR4j68hlU+3KYgPxf0E0Al5f0+odsCPzZKAb96+tU+QsSgPxqh0z/cQO0/TziOP4qZlj+18SS//4AmP5P2TT8xYi4/2YCgv0idmD4cft0/LmrFPwpXTT8=","4zYp1PtQAsT+yGpa+/Xpqv780nb9uZOG+n/N3Pts94j8lhcu/QcyHv0cazb4dB9E+nWyOPxBnl78pYuU/ArEQQLzMJr6wqLM/UvPsvrLBj7+j5I8+mgDNPh308z44piC/GEGNvJ8Ivz4eXzs/K2KZP0D6Yb8EYLe8XF4kvyPTnD9enhk/qk4dP3r4iD8N+Ki+o+PsPm7ZVUCmEho+1WkGQKJHyT+FBTM/GwCTP+Gcmz/lsaY/GQFBvyki677AAt+++C+MP9Uj9z/gV98+3MGwPqqBrTxpRyE/1IaIv/8swr3BvCy/KkvVP30/hr8nOj6/ZdTCPmK9HEBoNJA/zUx5v6fCcT8o7CK/fVbeP3KD6z8vy+6/aZh3v0/1Sb7OFrw/fU2+P+O5374SJ76+/huaPn3xv75VHrs/jDBUvwdeSL+z/CS/I1WiP7huXj9NloG+UPbwv0ldir45ZIA98LIUvHuAhz9+Nbw/WGqzPvmKvz6F+3U+JdGOP1EERb/tZRRAj/qtPNKEKj+/xKE+KMvAPxt4Z79tlpI/sciuPU9wmTyYN2S/g2eYvgLhcz8LdbM/i9cTv4TVOr9GUeU9m0JOQHmCfj9bbZ6/mC4mPRmlDT54/5I+qjU4Pxkuyr+oOHC/bJGCv6FVpz46grg/tEjnvlXJKb+samY+SXxMv0VhXj+5MUy/u/U2PdEuFr8A1FY/JyGIP65imj7RR7a/aH5OPxYUOj4P+sg/qBHQPwaWjj7z6zE/XMrAPwrtkT4gRiG9vo2AvhH7CMAGso0+4gjevxR1gD0qOw1Ai2YpvwMEpj8DALO9q4j3Ps48Z7/2CNy+Qp6OP9n8tT9cddm+ua9Evzrx4r2aAI8/rp19P0vDSL+U8/8+VvUlPsv0lT81mKA/NTDAv+AYWL/vZIi+Ihz1v52wAj/55xu/4g4sPxZNBT9EmOi9TV4GP2QHNr/Tr9e+6Fiqvvj2FEA9R6k/Yk7dvpLkDr/6iEM+RmdPPhj04j7UVWo/ngStP/d1zDxiuP4+sMuKP2KUez/DRk6+PeXFv5GVBMCjNWc+8RyiPfSMCD8=","4+CrRvk4/Xz4w9tO/YraaPajqTT/VSpM9RTAhvR0mGL9vhNm/2mCjP3izmb+E6m8+B94CPyza1L9arsA+I57lvv8ga7+/vcE97KiOPk5Toj94jdE+t9KPv0I81L0iF12/eJFgPhEopb/EXxs/PUXGv1xkmb/IIsc+dOAFvvOBkb/CskC+ElThvhkBB79nLQ2/aEytP0ZFEL7/DLA8YLQkwFdo8r75xxK+f4OmPi1Ajj/b9+g/lzZlPZkkFD9MlPO+Zf0KPk5bLD/6tOC+ny5mP5jahL7xc4c+1oAhP72WJr51/Wq/y45ZP2EiWL3vdF8/lguYPwE92j+lm/c+FoMAv/T7/DwUcpG+0hjWvbVi0z9NIpQ+hU2APwGaLD+Sc5s+dsnCP5SVI7+yH5Y+Y8SGv1y/SD2bedW/Jn6Sv4ehkD2R2qa9Qk9Pv6hZBL8GzHG/f3iePnCxxr58GqA/fVBqPgaAnD5tOVU/FzGCPhrgXbxPRgw/KlPaPSufo71RXZs9XF0IP89maD8H06Y9+t+6v98THz+Xn8c+LF6ivj/Srj7gLRs/PVEnPmI5UD65dNu+FJ04PTKfPj8vPPK9nqtpvzYN2z4rsxO6yUMuP7pgoD4Eswo/nX3EP9r3ub5muZ8/DMcFQFrjgL5hBIQ+QpQmvzB0JD9UWIS/QLy9Pxxtkb8zP2q/XdHYPtx/uT3J5DE+25mJvy8uMb0PQ6U+V873PSdrrj+W5qM/PvSIP2sCzL+nC5A/VJmdvamhgr7Dh6w/kk0aP3nASL/XEPc+5EMJP6EDXr2b16m8AX0oPjT6oT70f5++asFKQKeN1j7K1pa9Wk6aPp4Juz8SDAk+kOc6Py+LMD7mPaA+kh/4PnbRUD7c6y4/YdxoP1CmlT9tXwlAAYPSvwtAmD/D7ZM/vudQP0eRhj+M2Ta/a5XCPp7gU79MmvM9KS5Ov26Bgb/ksQ0/XI8rPdfoqL8gaKq/0kEgv1xLhT8pgzK/fwZKP6LFjD8qgNQ/bAPfvyKUib8u32q/ALPjPyG+1D/NDrA+tW/HPuQoNj9pCky/UI4nP/GwRL8=","4iTY1vP+tJT9QDHW9uiHzPNHARD9656I+94sNwPapuj7IS1a+jzKpP5/Zb78NQaA/L9vsPzypO79xb1Y+5SkXwNmobL94Jl0+XM81vtMN07/jfbS+mShmv57Iir/fUBc/ZfvZP0JMzr9yzrw/XVnBv/+Q9D4cTRs/NxahP2nXjL9bsVi/IrheP2Zpwb+5aVE/gYyYv9dlcD/5SQK9wfYqwJRg/b42fyM/YCM9P3GVyr7Z354/FluiP/hY/z6JONI+7OJ3PiRUkL8Ndzc/qx/QvrtwAb+0L2G/PHQOP9/kzj4WrnS/nNx4P+PIhr/F53Y/8B8jP5DDLUDiGdk/mZdEvaAtgj+UnY4+16PRPRkYZz8GIRW+bNKfvyeIJD67LQfASNozwOya7j6Otpo/68mUvx9prD1oYNO/t16gPkQm9L0TPYw/fzt4v7A7iL+98Sk+WlhEP4P6Lj8Uhqe/aTMfvyA6Kj6dlVA+VmvjPYzXcz73ka4/DcyKP7T/Hz8lOi4/z38FPzJc479LtXS+rHItvwG97j4Z94k+UT6hvu44Hj0fcwg/b8WavmLTqD3dtwxA1xEcv3pcRT/hz0A/rbu8vZ4H5D8DoVy/j44vvmdDbT8SWOU9yGUmPZkjDr+Og7K/U7SlP0gv5j8rDn6/j03VPtH+RT9azZO/L8J+va2hkr/uDMY+LQebPtguWT9FZy8/XS3Wv/P9AD6eDA0/dHs/v7efob+ncxI/wl/UPgAmlb95G9I+vDQpvmQpYD++fv4/VbLGPw0t+73Qd5c/ErGZvgZjAj9PE+K/MfqgP3lltj7Pqs2+BVyZv0gKEz8MI5A99a+5PyWKgT97Juq+6zFfP4l3kr+iH+8+mNu+PwYbij9kE8G91znJvzSN6z+2FUq/L0O8vV4Xq780Nd4+vE8IQLQf3L+0Uws/13NYP5JqGr8QuA9A6yE0v6ZMDD5Vd+c9jQlaPwDlkj+G5wHAmuIQP+4hbz+sI08/7XQGv0GWx79Mm9K+p1DSvy4Qhb8AvMg/J2LZPk3CqT7YSno+WfgAPqaAFz8PanW/tRiBvssV5j8=","4n7WWP8V3tj9VxjFACctyPxgjXb8XYjs/63ehP8kbSj+1GQDArJOjPwxOBkAi0qw/Gl9wv2ikub/MGw4/xrg4QJ6TCUDg0do/fxGxPyy8rj+9AQu/sQS9P2B0yj/tPE6/vk5HPs4MIj9XrNU+P6mVP/dGgr8yRmk9XcxzP59m9D+aMBq+G7nKPwB++D9VVWU/oy0/vqEagL6vwCE/oqcaQIngkT9n03g/ZYPwPUnJZD9ruiW+JCuLP691JD8I3EU/AzpQPzt3Vr+MWD0/zkNVPZwGIL4dvqY+9vZCv29Amj9zHNU/ey54vY+lA8D4qHc/vi3TPwiv0r+sbmS/TvjXvmG/B0Bc+G8/C++7P3MLEL3sMiJAB5GaP6uEbb+uxVo/DFJKP3qB8r6oNRVA9+mCPlwOcD9816Q/6kpUv61e3L42Wxs/FFWWP3sv2D05uM0/lDg8P8W9Hz/cFjm/bO0xP1wUjz8JTb0+OY1XP9znKj+PiIo+Myc1P8koDUBkKbq+PWDJP1cKKz+GbnI/BD2wvs8YoD9R1pA/c0ABvs4VGD8+zEa/IsZgP5hfnz9LZZM/PQmhv6WxMT8BRvA/wQ8MQGoyVr/Kh5y/f7K7P3j+Yb/5/8Y/uwEUP+v3FT7OW5U/4Fvgv9cT2T9lktc/pXIwvwtyfj9RAfE+NkuePa1RVT/R+Tq/qDalPmPq6T4l9KA/eNepPjPokD9V/oe/I/iHPxdukr5cixfAxKp0PYgtuj4ERnY+TxS3PdzyKj8jxSk/cx4dP8uBC74aw2E/WsXIPwTfXz8nouu+FEmMP2kZrT/uioC+GKPpv2sEVb8fLW4/xvGivuAOgj/T8XO/fKZBP2EUCj9MgvU+JLA0v6WpVD6VosI/68IqvSUnnT9wgDLAqcOpP2QNmD8FNIO/lYQKvclmhj9ptxW/YDmjP4YpQj9X6Tw+IszxPjA0Pr8SH5+9xoyfPlS+G0BuJPA+W7CPP7wHd74xdQBAVTt7vhz0ib/V0vS+gpmcP0Eegz/7nMY/A15Ev6d5JT9zx7Y/b7C6PoK5ND+gSwdAhHy5PHgxez8=","4gf6NP3I7lD86AQE/nt/kv10RTb/kh8u/Se62P+ra4D9512O+lsilP/VP9T8GnMM//GqQP2b37L+IiJ8/X5/KPyQVI75K8xNAVjMsPwnopT9IEPk9TmtLPnRwiTxKWR+/a1BDv64w/r1X3ZM/Of81P5Wzk7+UsgG/aURkv9DznD8CsBs/a/P2vqQXUT1zRaA9B6tlv/VNij3bioA/vFk5wPSNLT+7eVS/GXhMP0OeID8Qwqc+SEwDvggRVj+XMRo/iaMKv0K/ET7tW28/wmFRPWY4S76/Goy/a68gvy2Byb83TCM/xFsXQIndmb8hj1k/SAz+P9PHNTwk2nA/BdgsvsrAXT+/9Nu+byqmP9gvtD/GxkK+9EaSP5JsAb/EGtU+kmOOv+ZBsL7s/4Q/CRnSPBF/zbvzv0c/WCeYv2ApEMA3sES/IlUYP9jqQD/RqX2/FR3SO3v/nj8mG4G/6OmnPuK1ND+XmIU/pHKwP34rhb8Hmto+Ayd7P9Gmgj/UNghANdxVP4Kn2T8Ay4S/XyGCvvR3cz+JAU0/4u+MvjsxRr9dJyO//kOFvuzfaT9nwzQ/MZUIvyFOLD8toHY+zeo5v2PUhT/1Ut+/FEc+PwG7HT/U5Z0/EcbFP/5GpL8KV50/Z8mfv7Vwlz8kdA+/Bey5vh181j1T0p2+b79yP/97Bz8/ymu/JCcBvytVNL+qgIU+J0qFPzOnDr/YmJw/8zlEv00feL+7x5G+DbU+Pp9+x7+vHYs/Bh+4vyORqT90Kac/GzJ9P76lEEBQhQk/yinbPwi8L781cjE8aB38PLb1Yj+KRuO9caSlPyLGGb+gMbi/HFBXP+A4vj/3cY++3KQvP5PjWb7RAz6/r4N0P72pp70tVDQ/sQ2xvjdkij/I0bs/oR6ePr1bmD/D4ye/XRrWPzDnyT4eGOm+kyO3P0GWsT56jx8/eRdoPhQubL8+KOy+Swsfv6WGtD176LI/PKE+v8E21z8et6w+2ImvvjlUJ78HV5Q/DTbhv6mRnT6rCe+/PetdP+fisD92xD+9T0JgPTUIdb7id/s+eBdUPoIaTL8=","4CeN+PxR+Vz7/A+e9lSY4vxTiVr4kGja/f3gfP0hWUT+rYOm/iE+CvzWQBUBudE89j4Idv6POnb9ahqs/ICDSP4DHXj+mwJQ/bbkWPxkQpD4tVAg/OGDfP9rSpj9l+Dy/Vkl5PnsczD/h00A+4Y6GPwGvO79rSqg9Hd1vv4uOLUB0Dj4/dUhJP6kNBkANL9I+FVW1P8TGsD4sqrs/zlAGQBc8J0ARSUE/KAfEPw5FTj+7cxtA/ag5QJ8vqj8s58c/Z3R1P7mxc76ijVI/vaNtP2W2B79GTk2+8JoMvXWBkT5W8lE/LXqYP8T48r0tH1S/3M6hPwBcGr95qy6/dlB3vzjQKUAqVtE+8UAnwOH8Mj+PATo/03emPvMPLz5GHYhAIxNFQMZ62L7w0dQ/MSehP64eQz8VIaI/hMkRv7yP+L7Q3mO/QZ/CvhBPHz8tZVk/+AowPf2YgT+04qE/cRunP/hwnj99Ip0/Osf/PmKmzD6GwPs94fRTv6YeZz8uAJk/YahCP2gRoT/tkiw+V+pnP3eXxT9yzcQ+k1zivqGXKD4ocbC9nvpjvuXAOT+SPq0/goXmPLb7E78S08E/KGecP3axDb+iMxc/6WXLP5VYpD+o8c8+NQ1LPz7Oxz8srsw+eeOTPq+OFT4j0Pw/zx76vlFSdj9kDJ0/Ol2Tv0rHSD/YMCO/oGzsPn9kKb8+SB8/LuU/P/jzvT7KSfa/96pOQLe4pT+252s+dJg9P70okb7Mqi++jhN/P+K9Qz/0/v++/G5rPyqA7L8DanQ/OZEVPxhy7z6Gjbo/6I7xPXrfrD6sohS/3d4Lv5yZ/70661+/PzbkvuPXPb7kq9e9DTMmv5KMvT/Smgm+G8Ypv+h/GT+a+jA/ZFDRPyAZNz8Wiu+/PuKnvxoTvD6/vIQ+XhZxv8Zbxj94mBS/viIuPpqIRD+Y7EO/exYBP7gJJL+i55m+YBE8v5aHNz8XJSs/lrLpPjLK3r86p+4/kTNUP4Qz2D8Oz4G/rKuzP+GgGz4392M/yH1bP7p3p78GAnE/P5GBOwNN/L2tBbY+BNclP7HhKb4=","424iWQLvVuT+967k/swmrPsGqUj8kvko+6WfoP8QlqT94i4A/7Z5pvyjAGD9wLRFAYPz3Pzz7+T4R0uw/WG0fQLM1mz+EAp8/OpWMPyEt3j/Hhmo/E1LGP1gyGUAQ6DE/WskCvxut979I1xNAmSkWv8IxDT/VKoU/MU5nvxe4Uj/rq3A/6VSkPsj1I0ANUNI/yo6lP15ILkA2hyZAdg0MQBnS9T9judo9uQK/P9OS/z9wizxAQN6IvhZ3VD+sWU0/WMYrvZItBkCkc3o/HWO/P/KRrT539ve+KvMIPzJ4BT+Ajno//h2TP+/xWz/tUUC/9vgWQEH2C0BvouU/iA/pPzRLmj82/+o/yf2xvgfa6z8TpQe/1m69P69VdT9yy9c/UMfhP47N2z72VMA+WhG2v2hRQUB4V26/MukEP6DQV78bc1S/oDbEP0J3UD/vPdg+1bglQEN7wz/d3qI/iDuiPzhmN0Dtdg5AEDqtP1O+sD2NPgJAj/OnP48xeD+h49A/FBQWP5jfFUBsAKO997lcv2I5gz/S2ow/cRqKPnbi9z0qwgc//8HnPogD+D+yX/g/NULMPyJHF78RHwpA3tDVPx///z9jhmFAU8K0P5HoHEDQD5M/Ih4IQBmDsz+1dLs/5g6WP7ZbRD93sRc/szy6Pgrssj6csqO/qMLuP8U4pb7uabE+v9hGP++QKb/146M/ysWsPkDhXT7VqO8/0pUlQP6moD9/aaM/QNu9P/oF9j90Hw5AaCOxvzjinz9u/GU/i2qwP6HT5780Jbw/HLgxv2fDnT4Aoeo+wO+7PmrRqD+VqZM+GECcPjS0IT+5pGg+a9bSP0k3rD9xVKc/gAUxv4T9/T83PwxAxJvPP5BdHEAI5tw/JOUeQKXhNj8uV4BAImvlvEdduT+Y8HQ/pQm9P/cgnD849AM/1tt7P6hZmr6m76M/hv04vu9Xkj6jZxY/yU4YvxisTj9E26c+RlrxPjYrsD+NqHg/mGK0P4eToT8+n6Y/EmS9P0Bs/T5sQxM+YPf3P9TGVj8BDKc/5KRbPijs+L5rYCY+qwpoPokKdL8=","4vOuMv+mewj8MwSbAJrksvop6yD4ajcK+sKarv0rNn78Muku/sUVePxS0g79Z2Bi/iXrtP64fC8AHs2m/LiN+vwfKcT6hB5G/Cl7vvqpeuT+C+iO/HdHTvtLEpr4GApO8bGdbv58UqL2V/YO/jBTHv8mGcT1HP7S+EXyhP6z6Ij/Re0a+/sR1v9ABNsDkOOI9+xbKvj63VT/UvGS/KrcTQJBZt788xRm/dDXwvl7iM7+Cl7S/vkzxvwtxSr/pkga+HEHKv0a0or8nwtG/0JqdPWzmn77MuCDAbfeBPrdaHL9LFSE+JqiTv+2oAsCUoEI/MgR5P6gRJz9EtNo/pHULvxWtCT0q3II+ScT4vlqpUb9q7Io/GLOyPykyZb+XMYk+WYIBwLTsqr2buxQ/zJvgveAlJL9egNu/bGOlvW34RT8Fio4/vVWMvTnoeD3pJR2+xGKrvppqa7/RUZq/td9NvhZQwj4Mf42+sQMzvNjla7/YiVk9Xp0EwIhBLj/1zaa+9jFQvkAPob4u94a/L1Guv/G3EL+XisM/QrSRvlRzDL/KMYE+1S0FvyCty75mrwk/6aJ8v57QDz/pqnQ/kLQhQFNe6j+Mi5u/58XaPkzVqr5chL29JSKOvpABUr7S1rA/adnyv5ZBMz8us3G/5IRpPCcCLr+EdxK+WiOjv04VbL9KW2I6xs0Tv+kyRD+kWRc/DMhHPzQzH79B6tC/mRiHv7l+gL8h5gPAg64MP3OLib50pcK+QuKnv/loO761jXi+WRXwPfTaLr/FBrM+MK22P1fzwr75s7s9V9pRP+W31z/wNYS+vh+cvRXJ2T5oZr29gFAWv8LaCb9c7hu/+Y9BP71lxjwpPYc/xP3PPxGaeL/oBh4+v1Vqv7BhybywGd+/TITMPk7Dlz/cm5S/XhuWv24dMb8iXLU9QNcHP4JYcr91l0m/kP4Wv2JqE72cjzC+cx4kP7PaiT+u1XM/mZKGPtwbw7/Q6Q6+5L1tvqUsHr9IvbK+cuDDP9prG79tSRC/JT17v9N2AL+mSA4+4FBtv9hWoDyv0BI/7PUXv6yTQj8=","43s6xP8P9wD9Q/gi/0pQJQCa89r7iCPQ/LWFUv2cFPT7hKfS/G36HP21+hr+UcEA/8HrAv7UM17+60Cc+Vg96vvMGc7+cTea/4odMu/HZoD+FCVq/d/HFP0D3iT5WnBc+IwOsvxqR9r9FXJ8+M41bP9oxKT6hXZK+AnK0PmfERz8e1fi+CfE/Pzp+eL/Vcz8/0wcFvxyTDb+TbGQ/xdwJQJMe4T6+LR0/GVehPo5izz6tZBpA9wzqv6m8pblS+Ys/cSYUPoAiVD8X5SO/vl/YvUVvCb9fJIg+dnF0vsdaiz8w6xe+Nt7ePs35M8C5wk0/tgWDP1ZT275rzqO/slqAv9f9rD8baDI/GPH1vxgmqz41K6w/mA6fPxFwl7/jwNs/+34HQNekgj4iwOs+cS20vyBbvD+SNVo/EtX5PZLf1j5TJxs+utv5viT8ub7ul2c/Hur3vYLCsD+VX5e/MCj+PlkOlz+qoTW+NI1GvbH9aD9ZSpg/FytNv//gfz+B+ZM+3QVwPnOwAj9vhVs/tEXXvWaR0z8ds5U/qKXkvuUQIj/3Lc6++t9AP/Txjz/GMCdAawXjv8dLOT9nMxI/puDGv6RoxL9iede/3Or5PoRw0z+ehjM+9POtP+Co9zxjZZM/L0j4v8XWYb75tc4/pzEQPqhRgD/+hbK/03k5v6fvtj71cdU90kUOvrxVBL750QO9k50DPu6kKD86oAHAmVEZQMWRf7+Ka1M+i+2lP3xI2b6ihIu+U/vxvnZUVj7Alqq9M2VNP8DeIcAU2BQ/ISPbP9V07T6Bh7o+R9sePzE9uT9R1wq/YtJ/v3xTz77wooI/D30+Pyk8JT//waO/+BZGP0IxKD9+PAa+YP+nvzAuFr94BgO/FkRwP8e/EL89FIu/T9TqvbdHiD+zgZi/zZSvv30vBkAvjv29FkF1P9c+jL/fZ4g9gZzDPslpVT16Euw+kKZxvrsJSb9MVqE+HOeLPy5PAcD56ABASDUxv6XFOb2t2aS+i82dP9YOrb+T9Qm9rfqXP8+gRr9Zw00/KeTNv1v+nb7IXz6+Si0RP9Rrhr0=","44LmrvREDxL5HFDo/uVYYP/Ky5D7WTDo+nAGfv0AzB7wpMFg/Fv2zP/7v2D8ne7Q/P0yYPxn7UD//vpC9XklhPxD6jz5vWJI/1tJ6P9Ceyj9fkTU/ri7MvgzmeD+0LEA/9ngtP4//n7//Zb4/P5rJvy5HT79C+dA90auwP7KsUL+9RJo/tYMWvuWFCj3TDu4/Q1cFwAhZRkCg6Tc/1iUWwHyC1b5Hnjq+8M4Au5jdJz9BNb8/rdy6P8uRlz4a37I/znaevraeFL9QuhA/WJV5vzzN8T4cPXW+M4jbPnQSnT7s61M/LIcdv4ED+r6h+oU/j3WQP/wEij5t4YY/Zv2YPzHdAj+sZvM++90gwCs5pT2IEUo+Tc2lPxXOMj4rOCq/CUACQJNI+j7m4sY+ZIlrv0CYsT/Koua/WcJlvyXpfj7u1pI/uZedvt3Ckz9oacE+7J0iQIV/iz+YW8u/TLhOP9xbUz+5nBs+mb2RPoNmcT6+JRE9n6woPzimrj/Tb2y/ez4nvXh0JTyUHiq9CZ+Vv1Sg/j+YqLS+sD6cPowdSj7n+OY+DNKpPmEYpz51ugo9MV+0vuiWOD8RIvE/d7p2P/JSlD/hi0hAVESMP0CtQz7fZ/Y9ujJXPt34yD4ZKbo/vZVCv2ZJQz84JmA/XAkOP8xx4T4BKoG/JKiNP/9dm7/6Tz+/qv+IPq6AaD+n3XU/8YO9PzQyAj4NXJc/p4VIQBzXxr86cys/ohyxPkh2qzz1XAE/SOLlvi1dB77bCz4+0U1UP9VEIsAl21U//++/PzTCCz8nh4i/g+WWP65Sjb6Mxbw+9/y4PsnRwD7UVzo+bLtRvvFN+75lBt6+ZDZlP6LUuT4omLQ+9+JxP/+qEkBMfGc/RefLP78OgT+cx3C+LrRiP8CwoD8FBim+SPYIQOBZtj8VVRg/59s1P1lOF7+FR3I/+RxOv2WvO79QAMw+NF4+P1XJCD+0AM8/wzzyPqeAxr1Ym4g//iZ8vzd/AEAsQTa/afa2vz7pkr4nBWq+O9SgPqxv1j5dTVw/B6cVPoLEsT/WHmg/RpTNPqIgir8=","4G4mEPk+Krz/MrbE/2ES7v1bDjL/ydU6/5uKPP4Bakz9giRnARN2yPyawnT+tff4+UA/nPzuouD+p0d0+JQUkP+J1Fj/hbs0+Cw76Pq8Yvj/pnWa/GSRgP5nrrz4J8cW+VryGP23jqT88KeA/2/2UPg7fgb/omQS/or1zvwSykz8Zj/6+q+d9P0FZYj6werY+5ACQvkE5AL4bqhY/8MtEPi9lsb7bte++lbgJP7nTuD/Vk0m/LaASP/MVhj8DgHQ/ffiDvWsi/T+VaD4/kFUdvjN/sb6s4ji/cB2Cv4Fqor82lMI/FtRePnCEFMCMOoc/pWNGP/kSb79BoOM/K5nYPtryoD0vBu4+iM2Jv5udmD/4MWI/bHKnP3Qqgr8SwNE+1ukxvhiC/jtKkQk/ijR1P81Q4j7Rnek+u7h5vyKLTMA07oO/7yQpPpg3fzwRRLu/7ovAPrKn/z5FyI2/sxIRPwoMJj8uHRY/MC05P2WyWb80J5Y+ajFwP3EPWz/2ryK/1MdLPw9dhj8TH0q/o9qgPwmoHjyWEq0/19HOvgmzfb8/KGK/xyaIvkuovT4weMu+C8HIv42RTj8zVhe/x9IEv3am3z9cUgg/UQ9lPyqsVr+DWJo/v5dFP3sGZz+tF6w/oxALwCE/Kz/jiYO/krlRvqo92D7obXU/6yqWPxlGbz4e93G/8sEYv2wQVL/3ZJI/e4hBP9sUgr4LMIy/jYKFPql0C7/1CHg/nlzSPxHA/j4ec6k+Ng7av6pthT6qMCY/BK5KP14k3D/K6Kw+eU1rPwosUr87hOY/5ZI0P6jNuD9POrW+V42DP8q7Vb8cRGm/aVD5vfI/YT6MDpi/8DpqPxi7oT8ZfI4+jUi/P68igj27/uE+4P1FPfenij7/SXq/ZPOxPwMKpj8Z8J+/ThrHv8LoOz6jkKS+WYwbP1PzGD+P7RQ/CsnBPR1rcL8tOxC/tHIOv0fjI7+fz3M/rv2Kv3WTub/qMA29tPDzvnU0yT9TxYc/l+/aPn6TBD9FHMS/teB7P1tuOT/6pIk/7mJsP1VukT+xgl4/yLUSPZCiJD8=","4YTq8PqDqiD+PmIi9oTD+vycpP79r+gvARmYoPtOE2T5RoWO+w2xUv8lJlj+GkMc+P9jvvpZior+JSKY+hsgzPkvBYT8V0IA/CofgPq/XD78Su3I+IBQeP75THD+KbFi/k/qfv8VP2z9fcK491+xfP/ng/z76m4W/T+o4P5kc9T4kqTQ/Gn8JwOTj2z/Yja48qCyFP10bF0CJXGA8+uu5vrDqo7xG+am/IRZNPzovhT6N6Z4/rubKP8lDHj8aiq29slq4v7WMBMC9FEs/3C6LP5Dlhr6GSJe/cn0Sv1Jucr/6RK0+6Xm/PyTYDr0tNVu//IpMPiwwlb4O5+C+zy91vVBf7j9FIL0+3bHDP0tcSj+Zd2e/5ccIv8jDoL7gU7E/6zdAQHtRLr8TTuY/6mO7P4ULrz55vas/rpgAP/fyZT/+VWg/fqQ4vpxHeT8I69s9T5AFP1yEzT+WjEk/5buhP+fnSz+ba9A/9I9EP1ZKnb95kaU+9KiPvvOTsTxf+5s/QJcHPwisqz/X1aG/+nGLvxrx1z+tHXA/MvXHvh6unr9Chf6+7qXgv9GljD4X0XM/sF/TPj14HL/TM+o/85PxPzcS+b4VAZw/hPZJPjzqfD7vxzc/iT9PP23l0rz9qeC+5Dmjv2/Mjz9rMuA/tNczv2fiYT76yrE/W5TuPQr0LD8+e+c+iZqEvymEwz60ckc+qQ28P815jb9TeGA/WnugPxd3Zz9vXxS/0TFfvtgJAL9LtjC+U5NQPxTzjj8X8XC+5u6GP8977D+1jic/vG1DP1dhm79hX4W/+xPfvqfMlD+PYwO+jH0nwO0WEL9R5oK/B60tv0XAV79hDCI+lg0vv1yvYT6wKba+cNwFv0KusD8RXWg/C4PGPya4rj+1v9W/CmO1vnS0+L4jIhS/ide7P8r7jD9JMh2/q+QSPHeF+j/s+JS+MTDmPnTq1D4rXnO/ksmsPnL4vj9eBtI/gDTAvg+7sT+WNZU/YB5oP1ao6j84bsi/j3f8vghvdT/KSMw+hQyHPPasnb9JaRc+xi+EP/uOfb9RHg8+5VStvw9A274=","4VFwJv6Vx8j5KM7G9ikp8voPxg787K6c9wGJrPtue+D7Lvna+uVuyv+35U7/qmpE9izwzP0vTIED04rk+Im8ovwKo/j7rhRu/aL0dP3kZTz+KLG0+byDQPtSNWD+hWg6/LlZuP6nZjTxym+w/FHSlP5knX7+sIIA/IAmZP49JSj+XKCg/0E7/P44+n7+tuoA/KMmiP3EZk7/q0BO/iuzbv90ePL+9Hv8/P+TnvZsO1jwIBaq/t/98vwedCb9NMq8/LzAZQLUPTT/7MjA9HcVYPzDtAT4SldU/HKhBv/dzfz+6gLC+RK39v9VRST6gnHu/VeEOvickEkBsVzQ/81O+Pz0kUT6MNZs+LUH5v5XNbr8uwkA/sQ80P/9OXb43CiJA6wTEPpOsir4E4wW/lxk+Phqplj0MicQ/aYAcvy7jAL5+4Jk/v48WwBT0WD9MVcA/GbV7P2pmh7+cDIw/iqgFPV1dbz6zlXA+YluAPgtquz8BJMk+aIRSv1DLzT98dgK/KTs1vloi1T/69NY/KMmaPyannD8WWRk/ZJ54O9idoT9tbDW/MMtfPxOqXT+W4g488G/WPpWbOb85Ek8/p4vAPzwFOT96Rd8/0FMDP1ElUT6Wc7A+IFFUPz+vUL/OmlY/sLCXv5kBdL7WN5i97NvQvi87Tz9jvF49H9KBPlVRVz+mMzy/EWu2P2ajLj8aU0c/j1aiP/3apj+Huui+fChRvYT4lT+5DtY/yDdLP9/hZz6B4eM+HfwhQBwqeb9BqM8+YGziPQwMDcDCZtQ+AEoVQOIprz/vDP4/B7nqP1P+Bj/f/iY+B73VPp4vP78kALm+xSI6vwwREkD58vg+PbpTv0OQlL7OgbY/T6RBP0yD7T6m3Ro/8emNP6KqsTw9B34/rbOgP6ifKj9dNwG/wTSZvwAWwj/NzfO+MC6cP+4XjL/Eql6+NpMRP9sPFb9Eg4Q+g3AJP3sEmr9orLk/aC4uPyGbvb+zVv696DBjP80/QDpUaGA+b4JIv78z6r7uXtc/jpwtP8V9Tr5bUAM/GC+Hv6hiJT/faWI/aGjKP/BwSEA=","475DXP+ST4j/bQbA/p/9jPs4h1L5VBWw+rQS1P1I/7z+4gU6//5fHP04WAEAUy6I/yCmPv5sKLEDTJ9Y/dheVPsPMBkD97QBAcAW4P1FDbb9LmkU/TNDgP8By2z9vYNW+WgrnP+uhuj+xA/g+IRtAPtKIyr5DHe09oLYPvyZWJUCcOw4/VXJ7P7yVW0CgXr4/uxbsPeZ1tz+dn9k/Hi6aPfbFsD9LjLI+fFGsPyoabj+ioNK+XCABQKF2mj/yWyhAcYNWPnSMAT+1JkI/f3m1Pum+3L7ydX0+EjfFvux8RD9KAKs/ZCzuP7ZMnL9t2X8/FaRdP0LAwj8tyo+/f7QBQFKxH0BEwZc/lA75v3LdKD+sSt8/7/1Bvx5NYj/0YT1AKjEQQCmEv74+FgdA7VORPy5rdD8ADDa+l4HgvsSewz4jzwO/5rk1P9LpsD4Fgqs/vm4RQNjtlz/QvQq/AS2YP/TSzz8X//Y/SE6vP+ZSuz3dL9s+QHjFPl0lAkBON6A/YcpwPyOT0T9RKxQ/i3qcP10HREABAqg/s6qovk9qNj6Pnai+paSfPsPAxT+GR88/a/kcv9C2JT9SV80/Ql8NQGsvjr/ncYZAKVW/P7l07j+0wYg/ZjzKP1QtBkCcIGW/SaLNP/b3RD+f+Y4/LOXMvjekAEAUJXw/DHSLP68MwT5FAOG+O/+OPWKR7b5kRKg/ATCOvrTf8D4J6dM/cmYOP/K4p74pHX8/4aKePe/XTT/VlJc+aBsWP6DQQj9HvyQ/J42OPzUyyD9oiKI/cvzOP4M3Uj502GA/gVU3P9BPwj/qALS+CUEnwCglxb6HIWA/2QsHPnNTsz+sks6+NJ5TP8qYiz8kkzY/zRx9v/0rzT+fKc0/lxUHQBLcET8mT5Y/xj4BQFyoVr+XdpA/hmXNP3r7pz9aqt2+cJi9PxMUtD8GrA2+IaCDPnAGoL5IUUy+nU7CvpgA5j+fc+u+Cz+3PkZJEj9sv70/aPSxPQg53T9G90m+HDf6vTih+D8Dkdk/dYIxP8IoMb8/SYc/5rqIP5ndXD+AYbU/tnowv0ZhWkA=","4wQ+0PzHNmb1jnmi9BWDlvxZdEr/o/d2/f3C4PgK9qT4kvc2+ORy8vukTAkCoS4I/3V/Kv6NfpT8oVci8O8JaP3DZcj+lk9w/A3kFP5P5xb+vGGG+FXC4PkGBkj+jf96+01C5Psl21j4kzs8//siiP7bPaT+V+2O+Z8yvP0RuRT5hUT6/EoAzvyw9O7/Merw/05/eP//zez8UFoY+kkRvvx2PZr6tNQy/oNF+P5+7Hj9aLd6+8Yu8PXWIob54kXk+kywoP79HCT9qPwI/evQ2PyXg/j5ujpY/G1UTv46hhb/kA4s/FAzFvtAgNT8/oQq/rjMDP8ya6T9qWbq/xZgVP9wNWb97tQY/+ojevwXb9T7GA0K/pf6fv3vWOT5vy46/x3lNwHVmpb49cce+xk3IPtUKtD/4B9k/DVA+P/Bpvr2Pnps/1jWUPzpSeb+p3SK/Q9LVP4JNsz302pw//bXDvinM0j7rcz4/LgBcP2EaGL2pXDw/tCy4PzneEz2SUXs/l4AOvLm3ur9OSGe+lkIjvw1Elr+HwWs+sZW5PvKpnb5zBd2+QI0Uv54PIL/9nus+H9q5Pk/1474MI4k/U0rfP2pW0L+BhGK/XyUDP5EKrb8hvIQ+mqOoPUDr8b8QSai/+zZ/PxMb7z+TXLy/rHgjvn6ktr8piCM+a35WP0Zhmz9knDY/KcsEPedwZz/XCAo/iYi+v7uC0L6ioZy/0P8Uvh+Fkj9IXAe/glfMvcWePj9EyyA/BTChP5ItjT8ujTg/jPq8Pteetb6mDhg/0R59vPgwuL5ntxe/Fl6FP8AagD2dBNw+RjXHP4PaxL56rJi/yPvdPz5mhb5Ol+c+J6oZv2Ggvz/FY7c/Hgm0vxDSiD/O8aw+kq7fvyffCz/ne5w/Lbp7PxBRor+MztQ+LnWLv+LdqL8GlmG+aMEYPynLqT58oJw/qrQ6PxW9Oz8c3ZG+f7Q5P0mV8D/Uh+O/e5eKv0prC8CriO2+YU54PzWHwr/+Buw/G82NvsPDez+5TyK/NEbGvgI2DkC1lYS+bOoSPpdqqD6Kmoc/FrCQPm1qabk=","4ZSQXQD0rAkCGOqM/SwGpPiOuBT8rPbA+DNIRQCp/qD8o9Ki/tHVWvwA86T8+DAk/oXiEv1nL9j8eIxJAcRJyP8DcyD9Z4nY/YXd3P1DE8T9SHBg/n1DYPytP0D8S4gc/Ow7jP+R0MT9Vi9I/JgBFv+pxmT+WpG4+0B+2P0HxGUATkYg/6lubPmtd0j+Cn28/CKdwPUWCn7/yhQFAqcQCQFZKEUC/y8S9PPA7QMkrKj8G50u/uTDcPwLrij8sVgZAbY6Vv2rXMUAhJ6A/SRZdPqDLwz4YHhTA+KzBPrubRL0FAWw/nqYwP3tZqb8GQDy/89aJPxUQSECpn3G/++Q1P/zzQj7ydbE/zIggwIfT1j8KQ5m+hR7NP69flj0WCzBAD3onwK1uzD7e9AO9x1saP98lID8repi/8dqIP9KIhr8RiaE/+Ui3vnlbjT8bgsk9I1+DP/afir7eRDi/3uHsPkzswj/qv9I/DvCfP2FRP7/3IpI/q6pgP8LrsLzifsQ/QGFBPnoLgT/hJDq/bnKHP5cXD79y2NM/mtHgPrm7iL6i4pw+dHn9PaAJmTyfX4k+5FUTvwAXGL+VczM/eQe6Ps56g79zwbk+ZJCWPxALrz7Vsko/211hP1BZg768sN8/tvE5v7zkMT8mJOS/amimPqfwvD3XviQ/QmyBP8swAL+eZnM/80dfvslQOj8J/ls/wpq3P5M1PL6pFL+/576kv6em0L7B3dg/gcIAP2vfyj8BmYQ/4SQiwK+6WT/6FNA/08cfP9A/CUDUCTw/F8cov0JfIb6FOwdAdMLlP12k+D/2C54+jprCvxQA8z4OPpo+wh7eP4Mz0z8L3ey+rxAzv03VF0BV5BhAaAZovwAn9z+R14E+ZkeIv0B2kT6xGhpAAvViv+bfyD+10qu9Zb8nwOlEib8b8P4+CgHKPqVXdj0p8EC+KI2Svv2lhD/v8gy8RTxmP6/nQb8hCMQ/y7zqPhw6DcCGbiC/7OxLu3xev78ME3g/gB2iP/yynD4+Uxc9W7kJP07QIT5Dkac+x/7mP1Bd9z7LJDi+SSEiv2+qEkA=","4H3gov5MF8D9CQzw8GCHrPY9aRL8/p+U+RSWeP3xhoj/dbtq+j3vHP8r3gj8KnO8+I+acvzPBCkDTEt4//Yt+P9JUkD1kk6Q/vdBDPwn43D8pNQq/JUcWPm33tT/YDVE+uffeP2mNZD9CUGO/Q+2oPiSSPr++JOQ9poQ3v2gmyz/waK6+jniFP+J5UEA8Gj8+l8xTvs71D8AHL0A/c58HQCEslT8cQGw/4xlfP0N5Lr4l2oY/iTEXQKqSXD6dzpI/5iIwPrbH/T+Q+RQ/XdC7PubPjT4bZ029/ek4v1ipVD9yIzW+SSAwPwgluL+Xg5w/5051PzNLXj8d/5q/HllRPvNYoT6KSki+uO4MwHTqrD+SsF++vW2nP/ohOL8hdyJA8VW4P3VCEz4tECA+8AkwPwdNGz89Kwe9TmAsv6TOuD6TRCe/0t2zvj0xIL6GbcU/U+q8PnEa877llYS/0N0RvbC7ej9v9ww/ZaFFPylg9j5AaEG++yaXP2qWqz47ec0/La0WviIEij8QOpI+QzuiPyeBjD+K68M/u5o1Pg8Hhj3eMNy+zsp7vPNyFj+fq7G9Qba9vpZJZj+QxwM/MlKUvoMlnr+sFfa+dmqJPkeqcD5+/l4+KHA6Px9eqb8uXMY/bK6nv6nQjz5IqsA/ItXcPd1RID8GDhg/U8KtvpPHHD4AJyS/TV6VPV4c776hbZi+XLJ5Pi2viz5KOys+d4OTPxKtS780Jko//eO5PW7zyT+gnJA/sXS0PlcJQb3Z+to+XGQFvmx5oL/mQUi+GkquvyVjvT6XP+w/MyRvvbmm7j8LRlk+YwpCwDGNAr/5Dzk+wXuNPwHBAUCaVmC++91qP72pAUDzqFQ/+B5vv+8KA0BRT7o+vv4/PxfAMb+avHpAYquCv6yZtT9gNl2/6daUPxdxMj87G+s9SSh7P62FIz/eeAO/G6OJPt6dEb9xTuu+bqb8vkB5Vb8Ahtg+nD1YP57+cL8h9kQ/ni+ePPQIjL+lpBk/Z/qfP3nNjj5euvg/tYU3P2C//ryQ5jc/WjO0PYS+Nr/3Tj6/8Jzmvjlg3T8=","4MrmIPzBguz8w4NM+uAqxPjkOeL9ibrM+VwuKP5ijjD5PZgXA3guAP7zM074aDZo/Q5giP5J1AsBqcNE90bFCv9+H6z6SGBW9FaGcPusnSL9RXbo+4sDCPnFIuz2aFla/yDqRvxz4oL9hFyG/V3BAPx0dIL/fI9k+TLasvoEJGr/6T18/XJSSvk1sSj/5E9o8j4AnP/kDLUDf04Y/+9sUQBqcBb+Opcw+Cpw4vzVTAj/z0Va/y6LFv4+fHj+OJBm/X8r5Pq7NIT9LyNC+gMIrP5OWGj5W4+Q+fdBMvxJOGz496YA/Fln2PzF1Ur/J8T8/GO+5P8okcL4Ee8o+naUuP6u+or7h/tg/uHoHQFJjjj/MlaW+Za04v0MsYb4sJfy/5oKfPzbhtb6apJg+MiaBv/Nq8T0qT44/mbfUvjinDT/2dua+T0zRP7tQfT9rPOS+TJQYP3Akpj+XPZ0+BuY9P4DJnT8Ss4k+Ee08PyFk8j7lrms/4DGAP0rNk70ATXA/OMHbvixKvb6Iits+M/ewv2VPMj9ygqc/4WiYPNkcFj/DjVa/S1h9PNqyWD/MFJI+dWzzvm/HLT/RfJW+CQyOvwBG7j4NWYw+T0S/vityXD9Ksbs/FKrLPUMWqj8cHEG/Xx2xv33qFz/4+xY/eS3Uvi7cBb9tBjS/lc+1P5bUJj8wtN6+8TgtP+mk3r6Pm/K7fBbRP75cmD6xxgJA4MOcvvNLBD/gAOS+DCJHP25NSD93Zkk/RMIHPy7fLz/zLhI/VeKZPrWIEUCG9Fs+r5HAvwJ7zz4Qify/CxahvnaGtz9GoQQ9wkE1QIXGT7++mHG+ytLWP5MJzb6Qo9O+GV48PyPl1b5RDmq9MQ8LPzOwv70fv4g+zjwtP8dnAb/oMRq/UP8GPrJQFb+BfQy/TJoPQDLqxL4PUxG/Av37PsjJmbztjMU/SSDWPi3mwL6A8sY+6m33vo7tRj+bG/4/pfbdvcppJEDzdbC+vaoDP+gI1D968fe+eHy2P4j02j6PQCG/JT6NPueuhD5PDQo/CQtRP3mBkb+0CBu/aEZNP6kdnr8=","4LxYyP1Pftj9R9BM+sEiRvhNn374Y9Ae+qDlTP/+Kqj+kQdy/fHedv/Ngyj/Nrbo/8LDMP3d88794oKo/nfeCP0Pwij4+hidAu7pvP0aErb/9qiM/SumAP8DMej9gKvE+W2l2Pw4/jT5v8kS/vKm6P0wQEL9C94o+Cg71viRKQED9noA/YfjNPi9INkC1l0w/VtlfP87sn73C9AdA/CccQCcCxD8lKSw/C0HiP0Xfbz6RmNA+pQAyP1yAcz7LZIc/OOwCvpL0pL4FENK+DNYuPxVUFzw7SQG/g/iXvuYlFz+Z0GY/JeUGQAAjKb9BN0W/gnOKPyezCD/SgLo/wDLov57QiD1I5FI/vfwpwER0BEDJrFO+c8ejv5ejLDsLJnI+HAkvwE+G0T5cdU0/mr0dPukIej6yGtM/6+79vlhFyD7w+xK/GuaFP5HWlT+BI7Q/sAPQPQpvcjwqVck+i0SCvv1SaD+fJCA/GNGZPxJmVT5asH0+8wmKP44NTD+HHKw/PiZDPcU2qb8DdHQ+paHyvqAZoz5bTao/2OsJPhQ7EL5QeLa+3zuBvunbm77FGVw/H/+MvpNgLL9MMG4/2xRCvqW5uT9KskXA3aYMP4+ZU74GSmI9JsxVvmQwEMBPEai/EvGDv5js4T+RGXa/5MkMPz/gYj6ZWte88SwavzGUhz9oR/a+lBAEPO1dz77RkqC+JN2jP8Xom7o/Nf6/M6Civ2ts/D4Ucpy/6keyvxYB7T6RXFU/LZyFPri4Sz+s2LU/hPWkPjP6yz9v+Wo+dagVv/REKD7lDHC/LF6tP1fduj9yzjM9mh4zwLtpz75Iy0I9mVohQH+5ZD/TeHa+MMUxv7GkNb43RBo/bYelP6x8GT/s/sW+WXO/v4IPsT7cYxY/Scm8vxonhL/oL42+1wwOv04oor+3L8E+UXtuP1XLeL7JSr88CP5LP8kiwr5ceZG+JKu1vlnU9j/E6cg/x7ssP97+EsDUZ5y+rjAxPw4K07+WyNG+WF/KP38JjD83ugFAN9zRvquUtryZj5A+VPzvPuZFiL8R02s+4ndNv2Ny3z8=","4aZTaPyyDxr9G6gy/e4DcPz9ckz9iGrc/7ehSP6/5BT+bZk0+0hAEvyZGpb8SII4/cXeyPy7vOT8N5Ro/2VkOP4IgtT6Jt0dAX5DXPgycvT9IcXQ+IQfavpbYwz8R+Gk/0XiNvkQi5r9EAC5AWAO0v/Jujj8bVGg/OMq1v2yfnL9EohY/IyeXP0fDOL717Oq+rv4ePzNruD4mKMG+JtsowG8EAECInHQ/c8j0vSwYUj9L110/ZUOGv0mzpD4wyGm+5nmsP2zcyTzLJbw9gxWUvTzW9D3O8Io/+sdqPyZovD90bVs9x9mAP2o2vz/4M0i+uyAkP53Ygb8l1Zk/tE2yP6SESz8Mazw//zoQQGn7qz8CmN++vDStP0CWZb78RKe+kh5lPyNlKD9GIqi9lfKqv9xhEz/b/Mu/jxZ6PyFu2j6+q4u//JUFQNNIVT9GGnI/iolrPxSKgz+yX4o/q84aP+D60j5CDJa+rEsQP6K5yT9Mpck/pNUFP16CFz+oaog/hZCbPyesqz9p65U/r4vPv3wJ3D9xTLy/98pCPgEpsj+kBXA/Hj6aP9S92j8ee3s/187cPoX1tbzePqW+6/H5vnxypj+4Kt++QXd+P1yP2T6U2oY/jFs/P8u4R7/eG6U/Pw+hv/K0eT+T1QFAa7oaP3JOYT/x0a2/54P8P0rQkL/Uakw/Eb6CP0KMPb/hHJY/1F6lP4rJlD8WXUVAfjgEPZhFeD//ybU/RL7IPxilRb2J/4Y/j4tqPuDUhD8AIcQ/4FF6P9wA7r/UuqE/gpWqvi0BuD++iDe/Gg/4Ptzby79Wuuw9Nz+PP0f2PD8bN38/DDuFP40Hxj/V2949TeQZvdlumL+xHl6/te+VPzlyhT8nIu4/rJjpPpOcxj/U42tAcpgGPzMrmD+MneW+oTVOQO4iUj9tPi8/5TKDP0sc6L+59dY/+MsrvzgnWj+DpzA/PUYuv14HJj59ats/NM1MP1GxVUB5AlA+CpBYPhqqtL8CY0w/zaXPvzCuTr5rb+8+PRKbP8glnj87OwI/wswXPiYdfz9v0RU/NGCmP/C/D8A=","4Fcg5QJKIsr/eL78/mgKoPjO+mz/5Uho/d0byP7vgC0A0oUM/u2/VP0YH0T8sP9k/qHXfP+2Pnz9r+AZAjmycP2Rviz8Z5TFAKWukP4Oje79iPCQ/tvwpP87KHD+UtXw/+O7hPg1J4r+0KzNA/8KBv5qojT/sMyQ/QDGWv19Fpz92h44/V3s2PyKOGkC6nWc/cDFgPzpIIkC/tydAXLYgwM/0EEA3+bA+Rc8FQHb9iz/su0ZAXkFXP9tPmT8y0Xg/6gMuvg+DWz563Lw/A43FPVU3/z6O7lq/5Rx5P9/SNz+2Sk0/YZxIQMZoCUCOto8/u/YwPxcE7j83ydU/ec2ZP27+zj9hJpI/P25IPzgkMEBopOu/aYNBv9TSQT021qQ+mkmGvwe7Gj97Q6s/EA+svzBWOT8Z2Ke/nOKKP1g6ZD6doIy/yp/NP8QvoT/mrHQ/erAKQNlakj9d86w/zpcvP8/LiD+HhxhAdTLdPxdb2L0Rwo8/qRpeP2C1OT+Sf3s/j9ZQPzyYGUBuOr2978eBvyd7GD76t5C/k0fTPvwDgL1t+EA/VgTnPrBIij4CRz4/rMaAPyTrQj8kjr8/b4GbPyFA3T8UhnRAXPukP4G0CUB1UY8/LgiJP28wXT+sGWW/vsw/vwgxhj8K18+/Xd5BPxHlpz5arqO/KCa1P83MI7/ALmo/yCL1Pr0qSb8F+3s/et7DPzXmnT3jUBVATyusPpFNlj+oUQNA0jHYvZUCKz/BN8E/Sg44vxtRyz+Bfj0/MQvfP8q9gb7UR2w/rFe/v4MumT5HMLq+a+Q+PgCHqr/TbdE+m8IqwLC1Uz8xCjA/VQaoPQ5KtD9nDRk/09J3Pz77Jb3FEBc/JhC9P7N/NUBa6d8/bkpnP07+B0DR83ZAFUkxvk91Vr/nrs26MSsAQI8f6r5tF0Y/8h7hPY2WLb+Cp7U/txievmwZfT/izOg9e7Y9v1Kanj+Rauk/WlNfP2qYA0A8bac+ifvgPuuo0D/tNdY+Fxakv2lFIj+dEME/SpK7P0WUVj8VQg0/kP3hPi0arb69Kky9g+0dv2M9Or4=","4nyDOPzfGwr+OMqk/s3gPP1yzQz+Lhfw+6u/BPwoA5D+YxQDAE/CWP3WOjz+7s72+XB25vyieDUBzW+U/pFQnPUCvTj7nSMu8g1ELP5Ie0D/l6TW/J9xcP2HWMT8HoEq/hcJlP1RyyD9TIOc/d8acPzCgLj6zxlI+TRGQv3Pwrb4rq4a/bsPBPw0IuL4MxnE/+HU6Py6XBj43Cak+foVmvzIUUj6LwFc/ySUhQMZhkj+Q/1Y/FF0qQAGW1z+nGIw/kTF+P4gcnz/WEh1AZ+jIvhYYL71s9N4+lb43P9kOWD56sBA/5tnJvkNusD77qmo/wCLrPgDLHL97p7O/xQiFPgJJKD/NZCU/2XUUwFTRYj86fMQ9eqaWPxaJnL5gqA0/BqYbQDdlA7/VXxI/AdqXPxFyij9wPac/we2HPK7U4b9GpG6//1A1wJceoL+7MTg/vh0bP0RRNj/dgZM/cemMP2BeDT9mUZI/G0YtPyXXGD8LG4s/FoOpP73kMr4SHsg9iksRP/X65T0yGAI/iQmCPxej5D4UEqi/M6Cavd+CQD/bsAA/TlSAP0h3OT7Y5Ya8yZITv6eRNj8NLtm+vRVNwD2Utb+LkaU/AkNwPv7fVL5WQmY/9+WoPZIXiT/ch68/W2fkPnF4jz6VnBA/+KAJvyjQJD9Z14c/9oLMPuLfRD/u+b094NeZPljjPL9lkSk+CA6wvzsxQz9lMJS/f2SbPw8Nhz9FL2ZAWBKSP1YbOT52X5c+IhGXv7CSgj/qnsA+POEhP8T39T8Pwtc+LkbZvy66GD+Xprq+ElD8Plu4ur+r3wu+Ju2cP6wU4D7ClSQ+06zVP2lxiL+XSCm/SbxfP3M/7j/W6QQ+HpOev5iRLUDutGm/6uPwPJRo5r1/XcS/URe/Pn7epj80f+683Bu/v/nrLD0VpDK/SDygvuUZKT+LCJQ/0Wn1PkQqjz2UYpw+U3gkv3VrM8DgdNG/e2oXP6mPAMB26T8/BLsaPFzmnz9NhQa/YmEdv4ZYA783EnK/ufeGP2nSsj3q6V0/Qfb4P45MFz8b68i/T9CpP33XjD4=","4wP2APwx4rz86I1s+pIkMQDqgkb9CdgVAR82gvn2IQD4fAgLABqaYv8UL+z5tHIs/CLa5P0d5mr/HUJo+PKwiP++nej9V2zI+A5sVP4MklD+5EUU+/SwiPw9zLj+d3Wq/pXajPSyksT4Kbks/9qmTP1LJeL+Gco8/CEKav8e8lD8DHyc/nxSeP8ViIL3A8K0/+ls/P46dbkCcnDA/Bw/kPwIGbL+AwLA/jg29PwI2BkDKVEY/azTjv3eTHz86ECA/eZO3PwIrWD8iKD+/di8hPzqRu71Xi98/CFNWvzY52z/0Tzs/ghH/vXTxVL8nVli/EDvYPohA2D8as6w/XQmuPKt/rL4QkmA9iVScv/itiz9psbs/nG6GP6B1vb238zw/lNhRvsQ93b6kYyU9GcftPQ4umz+wSMI/bb90v6iAsD8U6Ym/ELe2P7iOgz8rKVU/MhCtPlp6+L7t4MI+S3BKPyYbkD9yjl4/9wvGPrsMyD9m4jw/SI1APxm48z9fIsq+IMVbP+ZI8r0oiOU/E+SWv6BWmL4775k/NpQuvjOLyD95rSq/n1fCPzaQUz+vXgBABLPBvglBM784aPc9HkcdQNTvoz8YL20/xtKjPyO0iD0y7Js+zE+sP1e8Xz8tkYg/VL25vwn/HT/YLRe/c2Mav1gijT6KyBo+y+l4Py/wWT+iWEy/Hc+fP18IPL+XTds/Go3JP7Q9pz8kdcK/MazOPpDICT+sEyE+oMlmPxOh1T6bgV8/GxZ6P/Ozgz6aep4/GeABP92FB8Dpv1s/QE3NP6qMqD/ts6O/ruSxP1Whsz/K4kG+2Hn6P1vBQb90bsc/SGCXP83jMj+F0ei+H+NEv0ng2j6mRPA/RQegP+wJhr+PvkU/MHGWPUGbgj/5zAW/i0rtPwUlcj+weyO/gm7Cv+HzIj8eUTW/OybNP/0VBj+DZ3k/KzkkP5FUab++xmE/rOA3v3Q1FUCOc9o/jmBGPzv32L8297m8AKwkP4eu2T/CnNQ+YRiaP0ieej8hwEs/GsecPyxbhz/YQqc/zJLCv+PLgT9F1/0/bcqJP2sliT8=","4dlaaP3mx1j3xTEY+Cx5svwaP6T7YTEe/kucPPyBvVD9psoA/zHbKv9fJnj88VKU/GKSIvysM+T659Bw/USezPzc9GD9TzghAl2XDPlfhzz8UT5e+DzO3PRidSD9QrRg/CFbdvlm9qr9jFxNAkr/4P0i/jT/CHGK+xAPBv+iSjzxKgji/NcwhPkiujz01wA0/W1DRP13vgT/yIZ0/faUPwLeqrz7xUQm+nVrvPf5Ptz+49m0/JCSNvlMvGT+qqFu8dkUEvuhoXj/QRwY/a1SAP5aR6j6Rygq/YlCdPnhR9r4vfGM/WtwNP5wUwD9udo6/ZzWLPwDzqT9lb4q/VnmuP8Su/jx6TCU/q/DdPlCXwD+zIs6/8NOmP/qwEj5Ohne/6Zvkvx9Chj5BIYg+0ENsv/Z51D/HAvY/fZl2Pwi0jr6RGZW/oGqrPzNFQb/7uUo9RE6tP/InxT6/nps/l10+PVg1KD+anKs//h+IPwDVrb2XAU4/I2e2P5kzFD8PBGA+kfl6Plb7wT5VHkq/Iwm4v+aEK79wX5w+bhaDPsjcQL+4K44+5c75vsW5DD/2ZiY/POyqP1E0Ub+oW4g/JuuvPwR8ir+NiMI/+HQrP1ZENT9Yw38/0EECP8MKDL4df8I/kwUdP1mHuD+ensW/T1nKProUI7/ea4q/+M2fP5kcqz8tRGU/Wl6rvokeWb8S4Ww/NvRmv5RO4L45f14/T1jgPiobjj9ehMM+W3mWP34KKT6IKd4/QfSmvR8yVD/UZFs/eo+XPyJReL++6gI/aNqKv6MX9b2s0MO+4w2RPQ3bPj4z4gE/eMTJvy4d5D4omBi/nBoBP+veaD+qiZc/4V1qv19gjD/ARps/WyB0vyK4AkCkiI8/QT7ovcI9jT/BnypAVecHP8XouD8NawA+DE7GP6YHM78ft+I+3DPIPutsD7/yrhJAx8RxP/2Fdz8hXb6+FpVHvwillj+ItJi/Kkmku8AxND86Psi9a6uDP1IewT5SJxdA8USUv5n2eD5m9LU+UNGWPwkDI0CrDC0/jui6PS9Sub1+io4+01EEvwphg78=","4kgW6P84Okr5HE6Q/v1wnPtV5Lz/XCq+9WfF3P6hmej/zsiQ/3qS6P6LO2T83kJ8/Ocjjv0xwxb0hqV8/X7fjP9q/3D/JTs4/mOqePw9I2r/+CtY+z+MWP+Xw6D8iriQ/GSGdvvlazT6iggI/0xS8v1GwoD8v71k+TlWlP3vcrT9UA1o/rO+2v3BBgj/kyJo/0CG8P3FiKEDRNXM/FQjoP3fWrz4oVwy/P8JOPwvvlD+nhfQ+vSJvvhdvPj+4c3c/J801vySJAD9kXIg+4z0fPzzDSb6kZx0+HnITP3sMwD5FEbY/KX0ZP69atT88V3Y/KgbcP0b7z74wg9i/yOYaP9tvcz8MxPY+u5wWPzBfVz/8n/0/Usi1v8v0ir2I56Q/gjw3QOAbrj5BE5Q/Fd5nPmHdcj9rh9m/yQyCPygAQkDMW4U/I5G3P1KblD/Z+rE9a26DP1Q9Iz4eG5A/+BCQP63+wz/sD2A/wGMPP3ZEbL67D4E//HWMPnCcjT8XU5K+OcRgP04KlT+MJzO+HP+iv/h1sT/TbSO+D5ICvgfF5L2rGO8+Ab3MvrcTaj9QT3Q/M7BZP+ZfVz8fw8A/O+XKP1h65b/JOB1AMYPBP1p5mz50yYc/CfqyP7sI9j/V8bW/QaGNvzHBBz+q0c0/hxaoPr+kdz9sljs+zA5HPw4hdb9rImo/XrHLPZk8Sj8/gL4/P6XAP2MtgL56pr0+nKyjP3fikz+/lQM/XBwmP2oHiz+jQ2Y+3ljqP80TID85Ofs+uOOiPo/OvL8wy30/BtqRPztbBj681li/GycUP36hkb7tsG+97z4wv3JgCz+oKY8+vyXrPsrLEz8Eciw/+YJdP+9UiD+bnkI/J3PIv5T0LD9uc7g/5eOrP+cLmT+2qeE8byEZQNousb82wOq+IxyvPhGl8T+O/c0+YyXJP4s87j4qSkm+9N5Av+Z4gz8kghE+3mkqPzIq1z+ayuI/4PCIPnMAIz8NqMw/ADAiP+vQtj8u0Ae/73BiPz09kz+nK38/IJ0VP1e/pj6Pj1k/a8W5vYMjgz/ELuo/Mzs+v4RKDT8=","4BwOzP1Gsbb87U+Y/6a4jQEv8UD9KUgJAhGYyP2lRYD98tmg/Qjafvhm9cz/nNgVAqvGUv592C0B3bh0/E6frP1dYXz+sI+E+5gWHP3Mqib/ODS4+/uaVP9uMJUD0wP4+imIkQKtRer9GdyI/jRu8P+yFBT9iKG0/YsHHvpoPY7q4oQA/MOa6P2WvyT8aNCBAFOhhv7Jjyb/MOG4/Ze/+P52FKz/cUMk/0aiDvZFGgz9FAi6/eM/uPxNtrb6vOrU/2P79P1F/VUCAzMk/eXj2vpDt3b6AhxhAfEAdP6jl4z/XSoQ/qvSKv9a0yz7gIKK+qE8qQHDKp71xJJS/47uWP1DjVL66PqI/+OGzvT0XZD90ILg/AK9iv3nONL6xK4I/mMMVPxKFnz5IeTm/NQxBv7RkHUC529Q/3mXZPsuuJT4Hnsu+nQAnPxhUJz+pPMA/uLOwP7Gzpz/jLAi/aZp/PuKq1z/juDG6p5pbPl0+GEAX0sM/MJH5P+E8FT7RjoQ/1+epPoSXpD+y1wtAPnqlPxQQFUAFzjW/ja7avo+2F0CmZwY/bMz6PwbEAEAP7iw/E5JTPpT8Zb5vGU0/kOrnv/RQlb/rRX2/Qb9VP9//Ir/K9PE+beUUQHgAsb8Ms2e/Wd1qvx9/lD8LuqU/KXi/PtB+iD+sUzG/sPDGP8QvnT8STbc+DUvJP2vUhr7Bxus+99+XPygV6T/TJ3s/8FfCPyCEG79rW48/22uVPwQI4j/1WlM/X/AQP7F2tT6EOeo/g97xPtzR878bKYg/Nw/3Pyij/z+a8Jc/ORztP3beTr9pQ7C+oT4rQDKxED9K5ZA/Q8QpQES4FkB+BmY+di6fvkUyD0DJkfw+sORsv4TEgz/D+4s/+3WPPv7zpD4L5hBAum6VP47BUr+ZwLq+SY0WP03EmT9F/e8+JW8eQDjJwb6muTs/NedTPwPYdj7RDKg/0D6AvkFfur/XKsA/TweQP3bJGD/STABAKXHZvn3757/t1+w/eKt8P9Ev/j1rroq9TIYxPwW0sj994So/+ET9vH6Q8z9YAq0+hfMlQFzewT4=","4W7wjQAGUdT+V5kVALjcrQHnBhT+BQhJAJYQOQKAOvT2TILM+MDPKv+sh4j+rr/k/YNvPvxwks7+sQ7Y+991zP9XZDUDKKhM+TPAWQOpwyr/JMgc/pqz6Px2Upj4+GmI/BE6dvIwODD4bx8M/H33JP3sajD/dZDs/zWLPPVswQT97DFM/nZJ7P5UJ7b6Sqfo/41nRP7JOxL9EBrM/xe8fwKfR+j7nKp8/TLF0P1djlj5d+oo+c3qvPyRBmD+i4oI/5kuMP9BHzb+BZgpA9N/SP3hdqTypkeM/tLlYP/zMBEDZTuQ/lf2UvsqtPD/nLou/e6OwP7pSwL+Up8q/lJO+P9pJpD9ma+8/1Db+P+Fzvr3tKbk/4tepv3hLLbvpXcU+6jEzwNn8BD9Bte0/Pm58PfVfCkDYGN4/FvOCP8FwG0D5wS0+tWOiPksiaz/n6g1A82g5QP+jIkCGUbo/D/NmP0RpHT+8ewg/+Q2zP0AX+z9ItrE/eAoGP+UNMUAEgj4/m+8FQPKA6z8sRto/Jtmmvz1zfD95fH4/K51OPqQ3sj+QSl8/72rPP//QnD/QJEg/jFyqPxHNN7+/xrY/9xZqvuhd0r8fkoi/eFizP521Dz86kgJAUze1P20VVT8Y6ba/CsQ6v/je9T+wmL6/E/QOP5/1Wj8bYbw9daH7PwnIkD83XGY/66VQP985qz7y8Xk/b3OeP1H5oD/uSwlADJc8Ph76xz8JSBHAEoAoPwkBfL8R1Gc/vyeZPylUuj/z19Y/ux0PQLstpD+Df8Q/qcW3P+h8uD9//I+/wo0JQDgLhT/chuo9Vq2CvwIKGD/r1/E/E1zWvpVokD8sg44/Wh1cv+H2Dz/6mxi/etitv4wuPD9I6Pc/dnePvjKDSD+BcbO/KGFpP9zkpL/NLJW+NOAOQCb1LL851Rw/spZ2P3nUpz5UWLI/48g9P4K3Uj/g8Wc/STaBPiKzMb/g17s/YWn1P6RqS0Dt2Mo/+ve+P3/w87/h1VA+LL/Gv4zClj7+ctk/vRfWviwkWb5JDq8/lLDFP1JAgz8pLHU/RLAyP6/0b78=","4y3w+QDm/rL8NYyVAyxkPv5VRhT9xChS+GtegQA5rsj/1fuC/KIZpv1mmDEBbgS5API6AvxyAKD/ZJ7g/REEYQPROMkDUD0dADio2QJOX6D/Mfbo+Y4coQGHSU0CvU6g+gPRSPnaiFb8PtIZAmV1mv2uswD47P4C+K++YP09vmT990Gk/Ov2IP4UaMT+HIvg/uPB/P5Nhjj1jlA9Ar8QIwCAlB0B0aNy94K2NP8BfCkCfj4M+mXiAP1CZFkAaLOA/VmmWPm3OCb0cyLc/FMgBvrLV+D5E+F8+VMRDP/1NEL/CR21ADhyNPzhuYj+vEzS/0x0DQPVV0r9euY6/rT8iQCTRpj8goC5A2CLVPxScyT/yCKM/TDvJP/gtJTx0fQJAjOByP8wkEz4v6Mg/0vXyvphsLECFnZK/xRFKPjrfBcCCsok/jAD2P8Tfij/zJWm/YhFrQD4zPkCA9b0/piEXQPRkDUCWilw/KRA6QAH7zb4SthJA/2qfP0fZZUDbJ/8/BxIuQFeLKEB1d06+2Tp9v8c9PEAW9Zm/jBG/Pq7c9b4uVk4/H4qZPuHEUEDXOn0/btE1voo6Er/Nrys/hhhOP58+gL9t3wA/hoMVQJv53D7DLmRAodOdP5qguj/vqM4/lpN3v/k+GEAg+cs/qeTEPUoC1j+Gn7a+6XpfQATkIr+zzFA+K0ysvvLlRj+sNgxANZqjP/Ti3rwlditASyZ+P4w/wD+lBkO/mHwlQM2mab6Ey8I/uTqNv/JKMUBZ5RtArtMXQLiaEEDzbSpAtLgFPzQjM74O4Z09LJojQAWOqL/Csus+P3qaP+fSRT99lZS+tSLYPujIfj+eALi+UZYpvzo5qz+93Ou9tGJivxD0WT88/DhA+UWpP749mT9/u72+eIHkP8d/qT+qd5W+TpNOQNwlsT+lGao+XWAIQAXxaj7wGy1Apn27vlv2mT5Fmwa+4c4oP2ECVz4C2Lg/MqszvwiYSEAwZJc/dYSEPqTy474tQeo/pDSuv+VskT96Z6i/mMBwP1qCqT9SrxhADqchQCC8gD/WqPM/9G+lPlkQgr8=","4/xpMP0Fvtj7/gr4/mGwPP//wfz5QQ1Y/c9oKPsranz9EkuU9B/5Iv4i5kL7opFY/X3KqP5w0+z+HoHc/zP3avf47zj8CmS6/Z/YEP9Cpgr/sQie/qp7uP30ooD954jC8iD8pP2ZyD72t4IY9YJt6P5rOOb4pLEw/RfXLPh9N7j52KEW/B67ZP5oQrT95H8s/yvRJvzb3G0BH3h4/QqYOQEJpBb5bXbg/u2FaPyVJhz+4xCM+Jxajvuw6rz46P2Y/RNgnQEgs8j+kSWI/0JXhvoS0kb5+719AavAVPVnEfz9wUFM/rsxVPqJ3CL/RvtW+apTRvfzwCkBhhqE/Y9fBP9f4sD+/ToA/e0gMQM5hPj8CTj0/rJJOv4M9p74EjEM/BTgKQCpGnjySt0s/0jeUPWD2kT9P8mo/AbtRvrtTDT/acOs+fvRKP5IITr/pzio/16s+P8TYpT6XC0y/IqWLP6ZVhD9oY54/RMZiPgab5z9m46Y/DzKQP6JZ3z4vACg+mbkCP9B6oj8cUOk/EzmPP+1jkz5B8JI+naYbvgOaoj86IXM9qzRrP33Ulj+9ewBA5iuYvrZVpL4BbyM/CX8OQA01pD+VTyxAqqjyPkpgKj9S6VU/tSXeP1dBuz812GK/yr++PSfNtj6LTEs/gdN+PUJaHz8GuKa7BHtXP+/tXD/06Cq+PCN/P+opmD48ib4/p50gv7FSjD+eyZw8xO6HP6XaQL9T/dw/LT5sPx7ZzD+AlN8+Cy0eQCSE1z2J/8g+7EomP07HbL8LikM/O11XPrhylT+ayLA+z5n+PvIODT5T0HG+2zpuP0V33z0CJ+4++/wPP6j14T/Zumy+wXw8vpaYtz9y8eI/Rnd4P2c90T45/KI/aUEaP/89gz9Hnje+4aUCQKYhRL+gz3y+qTKdv4veSz+cW047gqadP10EsD+fg5g/BxIJP6Efwr2f750+v6OxPjxe5z9UoTi/zTJJPr438z7I/6s/aTHwvtsOsT8UJp2+BYK4P4LcBT8qs7Y/yD0hP1bTab4lwJU/7cQcvzqHrD0Sy1A/KIWSP08OCkA=","4KIvlvtLrwj8Dp+e+HQE4P36+Or+kkBY/2c7dvymz0r5ZqAtAslyGP9oDgz6RtIS/BKTQP56eAkAD0b6/86Kmvw1bzz4yCcm/IvImv6estz/DCNq+Sr6TPjSrVr/f13m//d+TvsPumD8xjv696vuYP3r+kb8+w0W+ib5OP0x9Mz8TinS/ARd2v7jmrL+oYx683IgfvzOFyD9Kmt++e8IZQIXgBsCouu2+ZHz1vnEcCT5ewoG/p6Xnvn8ndL2pxaM+ZzTEvu1vhT+RtJO/q3noPjOdFr/kuFM/mS0fv6GkpT63B0U/WjOFv8/UFb8HGSc/f9V2voZewz/p6r8/bcyqPky5jr8Ykkg+tB0WwPbNRr/vlgU/F6acPxyC6T2MPTw9mvZZv8N2DL/IOlG+BhJoP5J1ez2Q7bY/B+B2v2eX0D+3Syg/WUyXv8iaiL9Av9Q+hPC2Pp6CnL+ceX6/DoJvPg9dyD7Z6SU/RiEGvu1hNb1a0aU9uh6MvkZyaj0pnuq/O9J8vxlV275Nomw+rGqbP3Hrl78vM7Y/T6wHvxPoKr245wS/v4gJvYSjlr/nl66+PRYVP71EMT8NmYY+/aOiP5Bbwj8I/ypA9rKSvm2WfL5iyVe8ccKGvmK9sD+H26U/pDRmPzGiw70il9q/8F38vtzxhL+QJFA/jpWkPcwnfD+bJmS/L5sEv1BArT5RlVA/znGkvy9wvb7rs/i//BQ8v77ijr+BrSK+2gvrPmICoz+A78y+AUEDP+J1eD3jQH6/io6Cvl0nBkDTxRG/iInWP23nHb6qC2s/U05VvsZ8wz8CO/S+dfRAv94LL7+R3Gw/nZ6jv0L3u7+900o/ql02P/Evpj+Dbf4/YHyqP06IhT5ahxW/KgWqPd9nPr/gmgLAqqQFQJJMlj9yhGg+WGgBwPQi6b7sJSG/smP3vqQWxD7LFI2+Sr0vP2T7W78VHtA9cV6tPhmI2z7Inqq/7fgYPkauPMDRy4G/EuHDPc0KyD9lWzy/cA/ZP6Berj4LI9E+XLRtPL6whL8atK0+IYxWPkTg2T44cSk+RX5Iv92rCEA=","4Rf35vj8u7L+RqJW+ewx+vzhCnj/3Gjm+nqRoPq1NAj9gtbk9d0OzP2Zmmb9DD0w/AJzIv+eAhj5RDHg+7k4lwMBp2D3MlVq+BWylPsDI5j8G8zm/z9QLvyvJnb5Bjj0/+itBP3sDyL8wTkI+8WfEv5QAUz/kjvE+XLfTPusV374hHNK+o78fPyWXnr+1JAm/Zc0YPz+Y6z9yp8Q+Xu4XwHGyCr8HSV4+Xw3SPXd8Ij6pGJ++uk6ev7m3Sj90Xys/s3DfPMasXz5NNlS//ehpvsB9WL753Bi/4eaAP7fVYD1TA5w91MTkPwqV3z+4Nog/mgbyPvVpWz/C+se/xDKJPqEkoD8LhpY+HoKpP7H90D9GlLI/Cua2P9lIib+5kZC/Jtj8Pt/h0D7XXLw/WOmiv1vNf7/PS9m/arE5PxAAQD+/yuI+tR8nP1P5ZbxHO4e+0wAfP/DcOz7mPLw/VP0dPwUztDyNNww82W4LP/eK976v46s+8QjUvF+i+j7xf/y+9dbrPrBsqj5Fx2i+GCB7v8tybT8oxNG/1G2Jvhpo9L5POV8/WiaKvm2eo76X/O0+MqEUP9z2Tj91L2m/04rJv3r8y7+U2K0/Yl86P4+c9j719w8/LOQPPwOAeD/+Bcg/W10GwG1UlD5HbcG+9ljCPuEavj+g75q/K8DOP6mYkb+vBU0/biWVPucLDD8UkDc/IyI9P2DFNbyi75M/2RXmv0Jdqz8fJQBAvIXru1wX3r67pga9QL9aP03B5D4cULk/3PZNP8DTCUCE9Ss/nzh+P5qNxL1L7Mq/c3SHPmt08L+2DaW+6qCCv5DxTD+NAZu9LvaAPR0wyjuVvTY+1+U1P+n1l78/5Yu+PmS5v1OBsDyFBkA9KSn2PaXMzD/p72U/mQHrP6Z8xD8naqm/PKMdP8Nrsj7YVhg/nvJlP2XGTb9fe9Y+M1wrv7IaNz8cEKK+xkamPvBH5T4to3Q/zNuqviFpoD+ICQW+5zIUPkH07D/GXFG/vBupv8Qs4r1Ag7Q/8L8zPy/UBr7ar2I95J4yP+zZ0T8i8Yk+UXGLvwGEMT8=","4zySJP4UASb9iIEY/GraUv64DKr+Nkou/peAiP+zGzT9nHBm/8JSFv4jq3j4PDlU/CXUJPc0ljz/EGvc+nRmIP1QxEj+aX6U/g8gvPfVSdb/SbaA9kM+vP6Kw6L3FFQK/FmKFv9w7tD8/FgdAsviSP9lDGL+2tz2/wy8Av75mVj72eFA/KRgNPnba/74cRPo9HayHPyKNvD9r0um9yK8pwO9lpz7dHIe/wEAovMtoiz/4INC8RfDqv/AoUj6mWRc/wd5Cv4++EED7GmE/aDJJvVYSUrwZTIW9eLcUv4TEzL4o7zM/f7e5P2PCCD/ERFa/e7c1P48KVz47cuY9q9vBPwkryz5NyLq+0n4TQPFjgj9pj4a/reVNv5nqSb7v/DY+kmmsvULONr4+JWa+Ke+BP7vozzzsusY/wlkBv3ljcz5+/B+/re7zP4nAaz/UJZ09bC9jvrkZVj+0IW4/xEk3P/tVFj4GB4g/59NfP1brir9ee9E+IEORPyagRj5nUb4/K8O0vYGLRUBMacu+xJGQPwUxDj9JPfy+DZIrvbjvdr9yCOK+5dyQvqSjCz9GuWG+dlbQvfyOSL+htwy+DBpSP4Dc8T3QN2E/OVmKP3F3t70ICYk/X1H6PxONu76ZLFK/dziJv1dLhz/8QSS/UjykvkSGAL/OL3E/vyYeQHFydT/8ZtG+1m0pv6nsFb8SJ4w/ytGiP2O7Bb9daghAd3ihPfYmZT9pnO4/H2ulP2S+8L6CwEk/FgUZPzA75L2OiIQ/ERlVP23aU78s9NU+C5oMQI+JKL+co+4/1u3KvDHwW7+RL8e93csgwKQwAb8o7Y08Ks/OvXgXmD/oiXW+E3M4v8tgDb+jxBy/vpFPPmDsJr+tfMU/L6uPP0hvnj89BUZAd4PcP3N7R7/FG/C+gz2SP7Wqgj9Ia9K+5iRaP0s3xz4Lxzk/2I4hP4952r4KjSK/ZswNv+kZoj4e668/80s0v6XuEUAY9Se/QzVmPi3C/j8zoARAzO3Qvx46jz8gsWM/3eGIP0aeyz+Oham9Joyhvw43tT53UO0/v0nMv+EE/L8=","4sTOpPm5bxz9P8lC/A/gIvxF9Vj5zUwa/P+HyPhKkMr+kRqC/aguePxHdRz4Jfyy95VO8P0nTAcBafSU/By0ZP6OqEz+T4QA/1vyIvdPUqz8/3SW/Ux5Vvu1YlT7UtRW/shn8vj6anD5t3hRARW6MP09aor9u79c9foVhvnHUyL24GpS/ZsgGP3R6Fr95mfy+8tv6vvXLDkBoBEI/cra3Pk24oz8lcEU/EwGDP4Lznz+WKbw9Zd5jvw3wyz+nh6i+g+9FPibdpj5WtUq/rfnUvdqjVD7Xlz+/f8aHPvhz6j7BrZc+AzxPP+xNCcD4sVs/3ev7PVhHAkCFQsc/Qw6uvj0oVT56tbM8QRUJwMowUT+Mmq6+jbaYPwpND75w6Ai+hRquvnWm4r7ZwzM+GPxWPvXQCr6/4ag/zyV/v4jWk7w+bMq+e6zvPsCYk7+HYF8/KFhvvhm3ir9wK5m/9WrFPgeWGj8zooE/7/2TP28sQz42GeS9zQ32u2R41D6DHMO7AL0iPV2CaL84SwY+5J6mvwG+xr/MbrE//d6dPojU4j2Mat49YZoFv5/Wzr56fjE/x+WVv3XUIj/kHy2+ZjMSQB2Tsz+KeFE/teV8P/BSSj9h7xA/pzwmvrlalj+j1LQ/80QlP+zR2b1vvV+/G1oCv63oDL8rJpY94AF0PjpjRz/wA4G/3vCcPgKBCr+MM60/STWnvypreT4Xaei/cbOvPntOfL9yfqI+80upP+b+q75854o/8lBwPxweG7/lwB8/aUepPrqGgb92vh8/Q2uOv6REsz70s069Fa47PubExj9BP8A+p5O8v30OST7rCdm+4no3PlV1Nz5qfnK/bCEcPz3+KD6tCeY/03CzP4k0Ib+gehu+hEriPiFlnz/RJYQ8d3KIv4sOmT+JNJO7oIvKv8H4S76DtOW+cFo/vwGvHb4qcVo/rwcWP/1kgL9SnO6+xFbbvt1Ysz8YgsK/jfWhPhqiCMA/UuC/sYnZvsMc4T/oeCg/GesfP5GUYD2b4uY/jdORP3GvVD+tFu0+Sc/mPm08TDxUxyk/CDm7vrZOg78=","4BBVFPyMSm7+jYgo/NZnVPXFboD60Tge+owUHvVN3aT9DxwLAPNqCvxqdBMDclVS/1HiFPx9iK0C5URG+42q1v2r2jj8O5w6/b+KDvr+Zmj/BQ4E+yFQXQF5lTD+wDhy+REViPoRP5z6I64U/gIxxP01mCL86zKk+PoSZP00Ou7yrLzc/zTgcP1hDRz/1oU0+LTk4P8SYlj83/y6/guIUQNj78T58KUE+vL99vfBg/rtpCRi/xTfzvpC18D6pSNM+PnumP/PcGT/bgzW/cHblvrqK177b6O0/FUyrPjEJbD4pIPi9SLg2v6CPFT4+NFO/8FtBvwt+Hb+7g2I/xym3P+9nnj817LQ/zNMWQF+fMz9Nh18/a1d+P/0wXb7NZBw/gH2yP5zAzj17tQI/Qa+5PnMkVj9vP6I/ncYOv33IsLmWFX8/YtZJPxObZD9Bk58+j88+P5x5G736rko/JzW2P8SmBz4+CGI/f7JLvgAwOz++yNA//cFMPpMeNLuqAvG+vNlBPzMsxz9JjnQ/zpCrP2IINT8VgY2/g/KIvgct1z6uhH8+IJc3P+tTDj+Mmms/GDlZv6GZLb/wkd+9HijbPkQuaj9foS5AIeUrP6nHqj/AQfI+M+hbP6H96j+iQH8/Q6uSv0a+Ij+Pv8A+sqUmvmBFRD+f58c+f8YuP86wED+sp+K+jqsAP0SyYj9wIa8+7/qyP8qFID/BhDdA2msmvwHTUz9wF2Y/k7isvOQyzj9XkDy7jZyeP0uWhT051s4+eaCBPxL2ab8kCko/gWrWP4h72D4nT4g88x9nvqDOtb+KuKS+DMOxP+PtbD3mqme9thzyvol6yL4EVGu/dc9Fv+psK782Y72+MiNbPwiRrj6wt4U/XI2fP4XFPz9uluk8KIoSQGUmaT/7aae+yHMpQKBaEz8Hvli+v8a6PRCPtb65m4s/blMEPzgbr76T9A8+cMkcPzjcXj8J08g/X4SevjvcL0Atvji+EEqevdsC9z8CgZy/2pOaP0Dljz8tUAI9EdTyPvhczL8NiWU/2gm6vmUGmT8KT6Y+SWMjP7mlUb4=","4d838P7tksb/L+3VAWgo1PZHsjz/VPsw9Cv1RP18ElT8eyJw/krYMP7I6rj/x34Y/Gmzbv2gmjL9XmCo/V5q6P4TXnT/VKRtANlkEvs5Ep7/3IOc+j3O0P8nfiT/jnVM/Kbv9v7u2C78P6qk9RZeuPwS+iT+/Ozk/TbQzPwUrab5l7Gs/FiMBP1etIkDVntk8YxYFv+F4NEDzO0o/JNQOQCYGcD7yDNC7P03ePpZQ4z8zq2y/GlWNvyK3iT9HOoo+SZuRvaCCCj8yH8o+bqkKv6kKgr472DG/Ln5tP+Noiz4VEbk/a12GPxcLTj+K7EI+WYGyP2gQ8j7bxcO/qSeMPnbnmj/N+/8+lCm3P2AsJT9O740/xJGMvzDSOr7H0r++Ck44QBwqID/hR3k/l2jNvoSOEj/RcL0//OqCP9awyL+Hexw/8g+TP+wLmj9VJ7c+WYPNPplPpD3ypx++sFmgP6TUZz9LzrI/oIHoPr0LI76MOWk+QlDWP7QktD7uN0g8eF+YPtX9Dj6vKSK+TwiLvk/JHD/Xc5y/MpidvuIpCz428U0/pNUZP2trPD83pKY/BKiKPgP6WT32zKM/FzotP1fZx79YaRNAfslAP7O9aD/yt5Y/BISqP7vV8z8766K/TcSTv4LkhTuTaK8/P4cUP+w1D7+KUBK/Vxe2Pz1TaT+NE3E/XGAJP6qvEj+YfpM/X0HkP7SN1D44EOo+P5lpvqyJDb8CtkE+gTp/PgL9MD+SMeI9PFL0v7dKaz3QCUQ/oc2jvPakG0BZld4+dOwEQPG00D779py/b7elvgATt7/9BUm+2u7vPs1IOj80eY0+T3O+P1CEWj6X4EA+u+O7u6KCtj4pX1k/+dC3v6Rp9z6bHTA/zVifPxArkj9k05C/xFEVQILahb9oErC+lDaqPjWg3z+FWic/BoLQvcfVHz/MJBE/IMEHP8KoYT+DycU+oi7NPiKVC0C/gfs/QxXRPrSQjT9RQi+9EcvdvkX80T9fj+C+CFKTP+5SeD8SII++3YdrPjm51T7YQNc+oUJ8PwiEMD/HGrA/tvbZPks4nL4=","4A9oWQA9pqz9nfJhACQJxv6lf+bx5mGC/S/9BQGIJ5j7k8QvArdOpPOiC8D9sUIRAMkhrP6a9CMB+R50/dg3wP8UPez8lW/Q+uMkdQGYhyL/5cyU/S6z4P8Uqrj+6qhw/ApCJvkgJNL854aQ+j3tGvu2SCL/+yAM+jVCbvz1qHLyMD2w/vkc6PmK7CEBgSWhAZyuSP6UF3j8bLQ5AzAgdwNCN377EVra89MbXP1+xLEDUqQ9A2djcvYYuwT9SSnk/0NGJPzf23T7eTB1AvOJ0P/c9fr6frNo/kvgKvbRZcD09mfo/NJxLPwBRDb80zqE7kycIQNrdij8WrnI/KQgWP+BPgT+YisE/tXbVP39HtD9cRo4/cteiv+E5iT4eGBu+PwIwQDmTGT8oQJY/txrWvnILUkCSAd2+amznvhtsSD/gLXu/JbO6PlK/ez9p9lg+juAqQE+vMkD3tFE/EnnQP0za6j9+Dcw/wnLYPxEfmD7HSbg/ITNGQHP68j897nI/5ZfeP41j3Tw3w80+N9W5v2AvC0BRgJU/VQVFvnWhbL4y1jO+3wFHPoB5BkDcogVAFkJrvU3H7r3maAZAHPrNu/Eggz+To4M8EnBSP+1ZfD7/ZvU/87s7QDdpTj3+9MK/fRlGvmmnnD/HP5c/qYDXPhjlqj+xq5a+OfMwQPBgqT3uFtK+WTfEPvslPb/WJR4/2KiJP3N+LD4QYt6+6PY4QNLvgD/roqG+0LwkP1QJor8Pcc0/qHoQQNdVkz8MADFA5vWiP5Me574n/qU/7nHlP3iNBT55rPy/BlkNQJmbrD/dFo+9Uvu/PpNomrxW97W+dtY3QJWcuz+Qy1++vtiVvUm3tT9oy0Q/lylUPy5c4z66TYg/4WyvP+pPxD8cAMC/xu/SO9kwpb8TDTI+qLU+vgxMEkANXQY/JNb3P8i9/T+lKNk/yDGuPRe5vb6MOGy+Nd74vi5IJj+NLIY/6+e4vuItRD9ASwFAj6RcPwXrTz88vMM/AR/Ov7FObj/tpAo/bq+ePzKDEEDIgp4/fnJpPzWLrj6Zi7o/O/B8PllCmz4=","4ze3AP7ZjG7/3jJc+KhNEv+XuhD+RMFG/xxUXPwG0B0BRKYa/Vz6FP/qV2L45bng/OE/YvwFyhb8N9p4/YkqcPoQGhD6umxO+ckHCPjl6y799Rdg+unAdQHpYVD92//o+xigNv8nulL+ElA9Axaq1PyeyWD+CYQK+36yAvjeq0D/Z6zU//bN3v142f785/EA/9kqzP860g0DVVM4/S3cAQHmmkT/MY3y/KT2vP3ewoT/LZ7U/0EYGwO3aVj9G9cA/i2VKv/J2OkCpTyi+LjllPgVohL7rRji/YfmDPyBGY7/g+Ic/ztDfP37bHT80RWQ/nrICQE8FPEACYN+/6OrCvnQ4yT/iTY0/ePMavyhwGUAXh4o92l2wv1Qu9D3kx6E/p4BVPnnCrT7qJTY/C0tfv8scjj/7LMI/BiVRP8J27z32N7u+bKtQPwAVXD9Bv1q/2/gFP+sMIT4A16o/9IF8Px98+z9hN6o/R2OiP+y0Xb8Z0uM/emmOP7BMhj/tfeM/UGynPveTVD8sT1W/qSp9P5ODbz7hSKG+ibanvhvdy75PUFQ/gVgbvni9Tj/9D/g/r+oAvegKJz8hG6Q/IaXBP/mM5L8adDc/iqxqP29QvT+Ma7g/Jd+MP9CpTz8WCb2/alSsvl9GtD89Mq++MMTRPlkpC7+rdEa/9IFEP0H0fz9UsSc/Hee7vYDXor7yu4c/7+x0P+oXJr/65SW/+gq2PjNTqz8hmhQ/0lflPx8maj39h5Y/56NZv9+LSj8XbEM/r0qVPwKuRb9PTok/AeAiP8s8/L66YpY/EYY8Pxid9b6hZ1i+YP2dP3QgVT8EckC+GBcWPzcFwT7fAnk9fTI5P+jNDD/st84/sNXFv8P9M77Z8Qk/hmX/PpU3Qj9meka/8o04PyR/tL8xQDA+3RoXP7vluT4fS3o++2uCP+LNkL9NMqo/s48ZPyyyTj/do1g+Zymivh+N3D972WU/Wry0viS4977zPhW+Uz23Pray2z9FiTI/ddC5P5i0t70keJ+/5YPPP1KNMj8dj4k/AVhgv7EK4b6RHcE+kMYvvfdzUD8=","4EgUQP90qFD/3xBo//icPv8veXr/YeY85iJJCQL1ZqD8ZDdm/6B20P1iLAz8BsHk/gDfMPyGGvL8KzbY/G5JIPycWjD+QjF0/tn3iPh1F17+wWC2/gZDNP68ihT8gyR2/pvcfP3Uymj9D/BRArG2cv0FNSL+/AYC/wqYdv9gBrz/auHu+E0xXPz4+CL1rIZA+ygqrP9B+0T4Pg1s/T4hHvtGFtj+568q9EPqyP1Myoz83a7W+y5c3P7Bs5z+d0eQ+Ic8ZviQlTj/zTHM/xZOPP9xHDr8d258+x1s3v1yhoT7RlKU/hI2sPy8oLDtfOp4/qxmuPzd0Az9lf7g/FCKUvj7E+z+YIXk/iKwCQNSv2j/U1f4+adijv2eOer9sPx5AXc5AP9t7mb6bng1AyIOEP5j91z70V76/nGs/v89fRL4KRlm/9Un+vRJEDT0MNS8+VwFvvp/WkT/RVqc/zU6mPxOgB0A4Q6s/igzEP2Ec175tvr0/LQHfPlV4Cz9mFSdAeO8BQPI6ej95B6y9GmmaP+6E8z6EqBY/Re9/vhp3Rb8LSCC/9R4TvyxxD0AVkKc/u2OFPHNkWD+3Dxa/777cPwAXxz+zMdG/AJpSP98oBz8OrhxAJ9xRP82oUb4o+rO/q6EIwArsnj/UyGE/afVUvkqVtT/qEWY/7PqOPsSoTL+SYx2/LeWSv7u+J78/hsg/e2U9P96+w72Y0I2/FIgCPtwruT/cT4c+7x4fQPDAkr+rTgU/XIABP0+WvD+nc9s/4UWiPwWQFkAL/9s/Cj86vxt4RL8kvdg/eg1rP3xiWD+heK2+dKJKwNUuQr+p0Gs+BwvePl2ysT8MUIM9TmpXP4PVYD/UBeI+L/+WPyiQjL+SDIU/kuBKPluVuT9pd/2/RnKgvzeto78JopW/9eGGv3Gezz6FMQe/PXObP7zayz8oy4U/u6wFvyapLr/uslK/JoUIvxBDYz9DFGY/GnSHvvsDtT6hcik/PYuHP6/lkb5XnTs/FvOWvhzW276TM8A/h+SFP//Kvz1nBpI/TH+DP/sPEr9shNo+wfTNv7F6kz8=","4lJAoPwOW0j+SvN8/B49cPrn1D7+Fjts9RYG+P7w+mT/k+J8+AGu4P3Ie1j92dCM/Uvy5v3aC7D8/qZ0/i6WSvs8NVz8ZHGs8bBPMP6bxqL8xlHQ+Gc6mP4rhhD8pHA6/8v8RQMyY3z8CYbY/F3aPPi8MIb+ArY4+O4s0v3jotj5I0xE/FC60v4dmjj9Pwbc/gs4SPadW9j998kU/LBUCwLIjOj/tvdq+9UuvP9bNzj6Nunc7GNc5QPBQtD8MD+Y/WWfQvio/Qz/es90/wwTDPmA3Hr6PMeI+AQQQv3hDNj50pmY/90PCPn+znr8SE48/qe49Pa54xz+myLS/gaaRPyP7nj+beEU+WU+8v9iEFD9rF6Y/GBWPvw56ar5F5yQ/0VkmQLB9nr6Zo5Y/87irPxvlGT/dQ5++9T0Yv3EGNEA4myO/AIeqv2jyYT9a50S+1LXXP2sbij71P2q//TxlP+dKCD/Jezk/IoOKPyi/gD5V+lI+p46jPzJLJz8Xg0s9tmwAP/frn7626jU7GUaCPzAwXD8LWLw/AgU5vmNIqj0SlP++3rbwvitntj1vO8E+txZUvpmSTT/vudg+9v89P5rbur/p9VdA1ICxPs0whz0Tpzw/GHrNPs1IGEApJYm/QUqUvyEy4j6Et4U/lV/OvvEpcz8to58/P9FsP8+/MT4zdgS/lLxmPn958b6EPgw/T2SMP5xHEL9E8N2+Ded3P5u6L78ho/I/7zMYPq3+Eb8o9Zs+CpnGP5KBSz7v75M+TuaPPq9d3z9ugjw/aA6dvo9vxj36pB093aUHP2JtyD93Nom++PWWvY2R6b7+8Eg9GbOIPELJUL52goc8YQ98Pwx9zz9rS4M/MvKIv8xShj+phYA+ur8oP3FpUT+ZI8a/mDuJP0O6W7/TaCW/KRuYviMyEz9Vtwi/bfkKP3/U4j8h/HQ+AuusPjQH376FP6I+w6Lzvth1sT5OsKs/H0Q5vi2YOr/ZNRI//NvTPTJH2T9lZYm/XfCUv/A+Oz+/DQU/b7xiPmCFAL8EqVY/Oc/tPyQMqz/lrRs/r8b1vubp/T8=","4AWYiQOjM1j+PzBlAIjKjP0jDmT/BTpc/LdaOP3A43j+CZQ2/ye4Gv/fdIT4pvb8/SZZVvw+GEEDhl5o/CeCMv2HL1z/CMJk/HWRaP0POXb++nec+n9U+QLs65z8Cim8+Q8NyP4SQwb/PzCW94PiaP3hFkD/zL2c/OTOcPiYLtD/wzYI/EbvlPxXkhEC1O20/1oqBPZ+b9r09iANARlwkQBpxkz91zaQ/T8mCPzR7Wj5AvGE+K7qDP/oOzj7DN7Q+WwV6P8z0Yz9J+409irO0PtcNcD4Zjic/oRKBPyag2j/+Vmk/PtIFQJtVjb9SGdK+0WbAPgBQ9j/dUGO/lW/HP5Etez8zWyZAEbnvP1MdxD+NxKu83GVLv8/257y06/G9R6LBvowA+j09pnQ/At+Uv5NmD0CbftA/HeJ0PxwWSj9KUAA/mBpHQMXcmz9WkwxAJeEyQA6pzT+/nQu/0ioAPzSy7D9GkHI/OiUTPy8JkT9NjuU/PXgtQKkRaT/imvI/Kzw4P7UFZr3WTpA/hDapP7ubzD465ag/RwjRPS73ZT+YsVc/lGuLP23ZzD8cNzhAVlKRvmAwz77juzI/KVHvP4awYL/uKYU/ErZCPpQlqT/Z6rw/WSBjP4JTYT/VAlC/3glRv07K8D9xIWk/XIu4PeOg+D4Gd5a/cI3AP148iD9V62g/0a5TP02Xyj4lOmQ/hZejPzB5hT+CKRFAME9Uvtkd0r4Uio2/8ZKdPlGaFUAYUJs//zDgPpMPA0D6RUo/HH3BP3EaMUC+Bz4/LOsMwHLtkD8rrFe+P1QIPznOvj+xXh8+Vfrwv8AOSz/y6bI/k4SZP4bF7z/rbvC9orC/vnaJzz94+c4/XykyvzSH6T8jrN4/N4/yvjoKDr7vNIY/zgVBP249O792KeW9iyAlQDpuib+VWTI+4kapP6Mksj8EFgtAsWYTP4zVbz8FqLc+PnahPv8HPUDM0Mc/G6+eP/zo6z+o5sA/utQHPq6Tyr/S3nS+0rDVP9R/fD8yeyhAtJRiPbzlF7+fXac/L5DOP/UFd7/e/8++4gb/vTjFOkA=","49OgrP87nxD9KVxQ+Eue6Pwc/Tr8Vqbc/QtQRvse0Ib1oVqC/ueMIvPw+nLyh8KI/BkWjP9hQv79/Ghc//B4OPk5elT67Rpm/TceOvnb30D+IfKE/Wnt4vPPhbr+pX0O/6FZPP+Lu6byL5yFA6QmcP0SRSL+c1UA+3vJMv62uHD4VroE/+44wPiSiyb/Qw5o/YqB5vVGwYr/pqlU/p8YJwBMdET+71t8+vUJwPzclW775F0w/2Nn0P5JjBT901w4/UBOuPlMUIb9HcQRAkSphO0TBFr/nXJk/qUYOv7RVjz8aYcG+YW42PrcYDcAMebM97g0PQKi9+T/bZ6Y/9L3WPpdYeD8qBdA+Ien3P4T+wz4iGyi/FJ+rP31vuD/aMSdAPAsVwEEUAr9Im9s+xRgwvoGJCD+g8sE/bk8cv1M3RkANp1i/fen2v7mu5T7n1tY+3RoAP4E1CEAx4m2/u1alPi8y3z927oo/NWLcPuDNcT+DNbk/+UkAv1hqjz6iYCFApz11P4eTI0AIY5A/4qhRP5O3Ij6xnII/LcoLv3KtSz/U1hO/0c0zP7AZoD/mCCw/Kyqavyd4273Cnsw+N8hoPzPynT9becq/zA2LPoREiT/5kVw/l0yHP0Nwlr9HSao/4MoXQB+LPz/Ya9K/DQsLv0fRAT8UHdy9o0GjPUeyTD+aJEC/G93YPueWNL8szww/6oCWvhIKJD9SwIA/qbvsPcSBML8le7+99qbLP7Yb3r94Biw/65MRQKbgwj/yBX0/xCfqPxvsAkBTybU/6LknPzL5Rj9PQQhAn2pnPyqgjD9sMuC+pCqLvgfALb/D0Iw/VZYgvw8psz/g3Gq/LYa8vEg/Oz9bsdQ9ed6VP6s4hL60wyQ/vpGLvr10jz+10ha/U3Div1uvpz/iK7g/Y8hcP9jWBL9axSu/6IdYP2obBj+Zdj0+v4YGP+tTKb+BO+A+QPsPv/x9xr8j/c6+Pk/WPmtc+z+bV3U/BaCgvvGOtr9MydU+3MOjv80Yyr8SEqE/hzJTPx4zi73P5YK9smZQP/g10z295KK/oXTlPMOJyj4=","4mE9ZPw7JwT/xinq/VCOFvxnYzL5/HEW/n1+JvzIEoz8ijPA/s82ovzgsc77Hjeg9fmSuP3Wr6z/c0e09CncXPzxJtz+GExS/xKjePgXYnj9uFb6+ikUeQPnNaj/Rak2/e2ioP8ANmD9BFQpABxmzP0wmhr9D6Pa+zpp2P1et9T/aSyq/sKKFP1orSr/yE7k/wGvcvlGew7+X7dO+qxwpQPQXGb5HAiA/en6eP205nz5gzLy6JlMCvTnCG78FExc/rji5Pri+qT7d9Pc+mWMPP1gjwb6gQYu/LqqyvpDdLb9CywU/UkQwv8CaJ7+qFY+/+pbBPgUEuL/G5bY/AXrYPvHE4D4YFeY/psz5PzXM4j9TYa0+4LhZPws7IT72Cdo/NLNTwIvUB78XeQ4/FSZKP/0Loj8TtsA/OW55v76LFcCV6Dw/5/sgPjsETr8R2c6+VS0UPtNAGD/s+Vq/oUIKP9KMlD4vsao/GmDpPfL+Ob7Mdi9AcjbVvkozrj6Mni4+KC2jP8oqKEBq4wy/A7GpPl9wgT7Deqk/R6+ovrXdpb4E7q6+Grh2vhlYYT/h6ZU/rc4UP9HJWL+1LnE8a63+PnVupD/h2vu/7PWDP9XWq7/aTOM+4PulP5eYGsB5Z3g/9DB5P06UNkDOkbm/y+dBv5Xigz/n0T0/YxqNvm6NhT8N9WS/IZ9tvhVKCD/JX0g/BgqMv4DXPD43BR6/o47xvlP2Wr/FUL0+o4mOPz5X2T+Pbbe8UL5Dv1qffz/CtJI/OPgDQD8ZAcBQlKQ/c4EJQAMdm77jT10/r5v0P1axwz+jnbi+iWpdPovApb7J55y/KMCCPSlAuT8ksP8+HfRVv+jSMT+ggX4+ySqgPxKxUj4ugWk/x2u9vxfKuz//wAA/F827P4INfj8rMJQ+B3KUv80Qfb/rgye/A2nFP8oE7r4DwLE/rCJAPzkGU7+lMyq/c0T5PhL4Xz5nBJq/nNJIvpdPrL5I+4c/H4UKPfnRsb9Ws0C901TMP9lX1T5GT1u/5S8YP/oRKb/SvH8/n9fqvxB4PT9tsyw/NrkDP6KJiD8=","41oqYPb00pb4jPmM/1JBLvyGlVT6kvD+/XvKOP0Vy5j64s+E8ST2dP1mXHz8APlg/J2XdP1QPL798nw8+WcXhPr2UNT95ko6+RkJqP1Bupj9Gv9q/pesCQAeB9DxQS9a+5AjFPt9J7D+5yGs+UE2Ev5NfAr7iqL6+b7NRv/tquT9ssbm/mVawPZIXQD6zqNk+4Ym3P/hv979NYgg+YZONv3tnl776cZs9GLFePChQWD9Kwl+/rou8vgSqmD4a0Cg/NJYnPvA9XT+feCM+H7f8PliXy76jkoS+1fmmPhoOMb/2NWk/YSM8PwU1Gj/n1mI/UAkJP57veb/h38k/WmYzPSX4kj5eNYw+WHnJP5Cf5z5W9Jw/kqmBPw1f1L8WbZE+n9nEv/rXgb5UFxQ/UGqkP8aIdD5thrq/+LkjvlGNzb+/Iiu/zj0HQCVsg78jyay+FzVZvRWrTT/BFJ0/oSYIPvAZzj1cuU4+BVsEPybFNL3xQvG9gNQ8P81KjD9ZaRA/CUWUP40IGD+eFCO/nbCDP5lv+70DDaq8dkmYvQ5jBL9WXkE+3c1Jv7OpdD/lkr8+SAXKPhvoOT+uyOO+liX9PaH/xD991iPAHfIDP/e5br9SZ4I/2MK1P/gwIL9EmZI/d4sPwLD+jj99pgC/pYcuvt39AT/W+aQ/qMGRP70TZr/GDp++U96pvsQNJr9VjNY+lemLvl5T5L6WbZi/Y30Cv7IhmD900LO/K9pDP+Nrer+i5hI/v+6kvvxCL70ABl4/rLkdP+Gonz+IG7s8A/KNP0yHW771Uc8/wyZLP9TDt73fEMW+xrutv8gg1j1Eu2O/ScKOvmmCwD+7vfk+dWtgP6nDQz+BZxO/c3avP78tu7/FbFY/yspov1sA5z3t1ZU+Oe8NP9lcgT9w99C/WpOov2kpkDo5P5u++XSaP8cmmz+P5fo+cqoDv+c7d74zwQG/4SwKv0olIz9H1qa+IF1jvRpMBr/A6Mw+RREJPz+Gfb/7ZJU/bOIGv2EkgT/HhGg9tM84vNsYBT5buBo/O1iFPUehm72LOL4/rCFBvvJ6gz8=","4uutKvpoq7j8SZaU/5QkCQGNuaz9T2Ns/nMMfvr4Arb7yTLK/8zWWv7nPtz9LZ9E/XyIfv4rG3b8hC5Y+2mnfP6uC/T/6kgS/+LGcP8WXLr8EMp++FKerP+0bYj/RDec+aoqOve0g4D9kqyG/E8sJvnc9hD6TiT8/u+HSPN0XxT/gShW/mxEaP+Vwlj+BFxhAoRpOvW2cgz9Uavk+atqtPyCyRb9o4JI/tM5uP228Bj8kzRg/HwIlP3roDz6ZdTE/oFmoP4dGiL6AOTk/zHshPpAvO7795gxAX4xwP06VzD9n3CI/WkEHPiSqvr9JnWG/zOKPP7hYTj+Y5BO/YzlfPxIlTT+90kY/vhUBQCWK8z4I4RA/eCAZv/qgyT21Oao/OhKRvwWp0j3sSUg/gqu3P3uq4D9j8HU8FFPDPuJnIUDOMh4+bpgWQKmDPb9nENA/zk6GP1Ksfz+bnyG/HYO0P4VKSD8VL7o/xTfLPmVx+T9qCFM/pCDTPrUW1j9aLnc/VQWoPwXkCEAERrc/JDybv1r9LT/I+uM/8x1NvhR/pj+OfB0/9xKJP+2zrD9iOLE/cclHv5Y0L7+hpfw/hcB1QFWrFr/ugjy+WZSiPwLMET/u4mg/UEQpQFcw/73ioye/AQgPP/qO9D++YUO//XLBPhf40D1kCKo/zGKWPxa0tb0XUc0+NiKAPxfHAz4vqH8/vsxrvxWJgD9/aFU9KvfPP8atsb5NASPAUj4nP7gu6bs1PIA/AOLcP92sBj+EQ2I/Q12xPzFLBsC6Hnw/7QW3P7Q1wj/01+g8Yn2CP5bu7j+rtNi9bqmyvmyULT8O6IU/08ODvm60nT9yPA2/sEo6v8vs8T+2wFk/z3gJvwcq3b4hHwdAgXMPPuItrT8bt+Q+pntaPtYzGr+Q4Ik9NfUuP9o39T4XvNE+oy3OPxAvFECOrRs/nF5Mvon61z6My1Q/O6BcPqPmIUBLoIW/tpyqPxfBnT/mNMU/jEj6vI/Aub6UyKE/ucJ7P+a92j9Suak/bd2APoDmLz9Bx5A/6oM0v3owA77D1wFAT0VwP7t3yj4=","434iiPzy0ob9optA/JZI/PzSp8r6Bxjc/MRDVPp5Kzz9k5Pc/cFyHP8rLND9WwgY/MPyfP3+YOD8TBo4/q0utPzz6pbzmo6A/FC4HvuixsT8U+Zo+bb+mPuiYjz5ktNe+kzikv2Elfb9SqYm+D0ZLP2h4IL8zo9g+r3cjv3VhhT4aQxg/O/eYP5QtQECCef++t602v5hbGz8HUVQ/eN6NPwR4DT+iyME/6vE9P3kxWT/T4z1AmbTQPuqGMj9bcY89+WJ0PwY9Vj+dJp0/rbrTvv1KnLsUhRc/sdcKv8b9qj+GK6E9twkMQC3ifz9+1js/mDdEP2IZab6lZps/sz0wPrsnTD8BQTU9AkfzP45zwT8RAC+/LOOHP8jdTb4Rjf4+Uh8+QFwNT75W6Ao/xjMqvynTYD/gtD0/PB/NvmG9Lj9oAgO/TOULPjZ0QT+ddxBAwy4PPqwQUj+2hze9H8hWPza8IT8uj7k/H3yqPUBMkD8qcWY/ZROoP4RSEz1x5R0/nqJUPmZUG0CyUpM/IK8sv4KhlT9492e/9LAMPH6ASD8B0/q+5dLPPs0r+D4OVIc/3Uc+P5QU9D7w8rs+CwnPv/5XnD+wvrY/EVzWPeOH0j9ZFjo/ZqytP9mKYz5Wbow/QLlGv7bnTT6ou5A/C7yHvkxywj6zHDe/03NEP/cjEz/bvNi+GTe7Pnh71b5sQ6a9MhZfP1L9Uj+XPPQ/FJWaP//1B77i7wFAvWXtPU3Wtj9bjxo/lWhlP2hWTT/j0s4+ZhNUP2pXFb6fuOa8Gao5v9G2Vz/Ao5e/iPh6v+qAjb9hsFY6cqICwEx1ur5nwyE/to2wP2BfdD/WyOo+pFqyPjQAEz+v70k8ZT+FP7JfK0Bj9Ro/JXa4P3tTtj74jgVAmLkQPxThhD/L+oG+zmD2P3fVmz+OKzG+DlV7PbFj1z4gzlE/7nO6Piso5b6FXAK+NtaJvmMljr7MsIU/b6ejPwgvAECwjpM/QHbNvliTqT/iAcG+XN+WPgzzJD5u/hRAajzLPzqtmz5PDPA+tF0Zvoap6b7aqFi/c/RGvoHyU78=","4RWIaPWpfsb8TW4m/PU0QwNvdq75oXhHAY8N8vbw7Gb7XTwk/aABwvz9Gdr/kmzG/iBCpP2oQ9z8G5aa8cd3FPgdyUj+V904/sKxQPz8Mwj+xcgc/G85GP/P0H0BkjAg9YvXFP5gV5D6vfPU+atKcvwFugT+YfpO/uW2fP3+BB76ZTVw/XTtNwH3iBT/PAkI+gakIP4cIUb/PbYS/mKzpP1RvPL4HdQLAAIV7vkckIj8m9Zu/uFtsPma4vr8PGXK/4dKHv2RLAkDZIl+/5g4Mvk8cAT8+4Ro/KEqzvhIcvb8G+Oa96ICfv9aDvz9W4h+/kulTv8/W0b8koKo/6vGVPlEQrr+nFoY/0kmpP2Ddpj+rKTG/a5WYP3Fhlb3lZhS/MIBvPwb2hz4fZY+/60GrPWb2gj8Udp2/JrpbP6N8G0D29YA/TZtbQM8Yez+wdHe/rMYOP7uPk74U4l0/kzDZveWonL25soi+vyl/vplkjr+CPYI/ZVhrPyM8ar85BSS/TRKqPqCfLj3vpna/xG4MPmTiSb+1Op2/vcNAPjHKhL85Wa29oJ67vyhUaj7eJly/A+LrPhkgA7+QR0++lcQxP6TQqT8dfLW/UuFiPy4ngMBWC1M9fjB5P1Tv97+DCqo/vlhIv5nrmj+niM8/D08ROJ17DL8gx90+a+DDP7zHTL/sXIE/D9txvyTQED++igw/oYO6P04gz7+rFly/V+H5PjtTST91+lE+lt79Psnd1j8cKpI+zgQVQOPqNbwlYM09CXKTvSv9BsBScyo+a6zBv6RjiL9Ebp8/CBacP6C5tr+DHE4+Zxsqv5nPpL6j8Lu/odQpvXs3TD+E7LA+0nYJv1NYoz9fgs68yN6PP0dK0D3PT7M/4a9xvw75dD/m9ihA1q1ov6sFoT+atiO+pLIYwOaRJL6KgQS+iLQxP9K2nb2xhbM9iJMCv2SHgj9SxSS/qk0tP2diLT+wDMA/Nqe3v4DAJL8tYWq9W2oDPmYifr/fkA9AaLmfP3HHdz860kS/klbkvNiiWj8GpI4+x7GhPgvzST3NqCM/AYyXv/XSB78=","4vT4oP6qomz6JFWI/xGoaQJdibz7qIQlAx7vqvbsQRD+dukg+zHiTv4LJWz/WeSlAK+nVP0mZ6791a3o/wMIzv5KZgj76atG9TUKlPwFmkj/qI9Q+j+KGPzL9jDvbEoq9klyVPvrgyr/Q8Di/a8Siv/jnfrznJew+tJSDP+CRqD/J5WY/vyMZP6sK3j/F7i1AUJXzP2iTFj8dKShAbyjTv0wEvr+hIAA/UUasP2jYPT/Zvs0//QQAvxgkWz78MJk/vOSRv3lyQj61fMI+/JWCP2jiG765OBbAxDu1PcrlkD9scjA/PSP9PwMRaz/crVi/1t3aP4IYOUCOzNY/ZlwHP7YSCT838+8/3d22P2HKE0D82u68cRCEP6UqybzcVho/2rnZv6DtRb4haqw/YOOXv5CEuz9Miq6/YuwcPUeehD3DcXY/kbMDP8sSdj+vpfk+9EIPQMUE7T87s6A/srLtPmdivj+GrgFAySh8P0gKFT4fGLM/l2hSP1ANmz9wi40/RLUfP37V3j+YEtk91ZaEv0hgfT8bP54+Fq6AvUxOST9LzzQ+iDglPzWEgj+UhJQ/78JkP6E4I7+QRfA/4AE/P6K72D9BZ4A+n4sdP2OO4j/gh1M/jhw3QKbfQL/jrJE/L2Glv102pT9/dQbAt9UDu6DPTD//GJG/+iXeP2wylr9IixA+qMMLPs5aFz/PTNU9BODPP80x+D5lgCg/urGuvp5QqD+O3lq/iOPXvXsthr9ZFqI/gUsywOBXkD9BpPk/AZrxPzGlqT4Ig0g/pZK6PzYO5D6wEoi/kDXOPyTp0j5Kyga+nOkTvxrJhT4aNLs/yqxqPyFNFkAnRG0/UM45v3fbwz5u2hc/M6mvPwJlpz4MsKY/0197PuDwtT//HL8/JdOTv7EsjT9m3sS+oxFjP4UtE71sSDc96lTjP0dC+j7IdHw/AGoOvxGkojuSJjU/WawUP9r2Fz+Cx+s/i4ecP/wGuT9suXk/MiNzPyaipj4esYA/NjN5v0zcMT4B/6s9PJpOP0t03j2cyIU/65jEvpCSRb9dZdY+6P3FvZl1AUA=","4rZKtP3390b+p7CA/4ROlP1eKir6pBqg/bZuRusMlor0QWDw/4Y6qvz1RjL50djM/chuPvwo0i79+9Yc+2N1yvyLsN74sWgO/lmpHu9ND3T/jbUU/z6MdPvrACb4HQ/a+ub5QP4mvyL8mMzy/qJanP15pl7/KAjs/fHexvySgrb5q24o/kZexPi1+nb59Y4Y+OV05v7DYqL+Ytts+tuESP9l7eT6tUBk/8PWDP96aQj58ly6+gXorPt5/ET++ysY+8xA2PyvHub3jskQ+DGU8v1k7D78NNqY/z1WkvdGidz9FEZG+Rq2PPnRVID/eDW6/OQiQP8+dyj/vumy/ly/6vmSAvT4uTAw+cgEZv4xZ2z7cuuY/NbPAP6/IAT6epNE9nkWhvsFfzL6yR9w+1H6lv4XYzj78Rss/lQCHvw8dHUCnxJ+/ogjavzkYoz+5SuQ+UUbKO/9+pD5TydW934yuvorYwD67CgS/UOatvnmWdT+snqY+VzYFvKy5+juYEcE9y9q3Pie0G78qKo4/a2qOusliJL4c7be/GVgUv+fmXD9Ybya+VwheP7ABuD4ABuE/NHttvc34Hr9LawK9mrDKv+m9g78fI/S/gkecPEirl74aOIU9ex4eP+3Yr72NlsI/tyMHv0AwXr1ML5s+XVB+vkWsCz8PcZG/lpa9PQ1QbD9Q8ni/87VFP9gSUr83dpk+nAqoP1IzDD/fDvG/3qApv/Ul3b5UCmE//hWNPr+uJr/OIUu9q466P+XW7D1IRIc/4RqGPpQIA0CfDIo+IB0+P5NZTz/YHXq/aeiKP1Yq3L8Hwd++I/JZP/sMZ76DTHA/blr7P3cimD9+ESE9A0g2vyNF5T5u1pg/agZuv1Tekj0mZy2/jeezvwZoDj+U0QnAQhR3vpESpT8myUk9kCYcwJgVsDs6Na2+Ph3PPke1tL27j+M96tMJPwjhhL/4Hyw/vkk/vxdJnb9uus0/xMfQPsEw07+68wg/Zogcvwgc5L+DNCS/Sv93Pni/sr/6jDs/eblAveW2vDtWUJI9uPh8P/TBsD+Smhq/Z5iwPjRKxz8=","40C0zP/crGL+L/fM/Nb04vmiDYD+ljQc+0i2+PxiVjz8b4FU/SP6mP2tUNz9/Uog/st+tP7d7yb9Tj9s/YX2PPzOGiT8qr9M+1aAVPwGBvr9w3Bo/4W2bP8S6Gj9bYik/ekNzP5aPmT8zigpAN5Ozv4H1jT/Hk6Q+9iq1v9ZMWD81P28/MJw3P4aBVj+YOog/HEMCwPx9IkBUTVY/lSsxPuysOT/Lolw+s3wWQOGa2T/j7Yg/BtKRP9F55T+BTOU+s1CoviRF8r2LnJs/RTSSv/dC3bzSA5e/5BpHP238oTx80Ac/xNBpP9qrFL9NwXw/ftf8Pl4oxD+no7A/C4DEvlyw9z/WXzU+1FtnP+BdqD9O7S0/01Ocv9fAQb08zMg/lQ04QBKhFD+swZA/9D9UP17W8D6hntK/Fk5vP2LLC7+QKZa/omUovzGXjj/pXAQ+WC5pvqSjRT+O8MS/B5WbP9TU9T++NJw/0CBvP1yvnL52Jl0/dPufP6k4WT/re4A/NGvEP60mEL/8qKi+C60/P1llyjuVONC+SSinvbzgM75OdTc/XHJEvpEuvT9Mj/I/evlevgdmMj/FTzi9VpVAQMVDsj9t/m0+rtURP3b9NT8XRM8/z36aPrwwtT+s1pi/KbaPv+iZJj9s3dE/dNvYPskSkT/C/4k/SDU1Pa42c78h5mM/viqNPpJOPr9WN8g/AlXAPx0IL74B66y/XLTKPx00sr+o6W4//6rgPyvvYr+TBEY/S6GFv6jGcz8GcVM/knpZP+v4cj/Jcqk/ihbpvzuovD1FWSG+Hx1SPw7dEr8iQtm9HuHXv9liIz/vOTI9U/wdPphZgT9aWPK+hFdVP2WtLj9Xy6Y/e56XPzpEzb7+TwA/1yseP/fV2D9YfmfA+cRqv0SggL/jbAO+XPCDv69kJT9+Ihg/Q4ppP2Rb9j8ND50/VmgJv3tMVD+A0Eu9rLs/vx1v3D/46Nc/Cru1PtIGM79VOks//ZiUv+wy1T9WLGO/zhmZPLTtrL6l4HA/4q+JP8sRlT7Ijrg/82OOP6AP9T0jBKk+XVsOv0y3tz8=","4w6LZvwyJqj8dzNe/7HgMP55Ter4uhZM+FTYjwPIg6zwewwZARYnHPysAcb/ET8S/GZ07P+ITEkBZrqi/T6cuvwYrLr69cc6/KsYRwOtEqz/W29+9SAmwvz5qf7+7BcI8uwCRvpipLD8GdN6/ZH2xv6NnLT+67qC+qaWPP4qFQ79QAea+2kGTv6v50r4EUui/cCF6vqgAN8A4i+y/jSsrQJZxXb9mu82+lFDMv5ZIF8BAMzHAZSeaP61bJMCR9M2/2EwBwJ1lfT7zbAI/ChI5P2OVfr4c0GjAtpMFvJ0zs7ynksS/WtCpvz5kLj43voA/4IkOPjYRg79yuBA/ssNUPUOJyL9Ng3i+GHAPQJ7ghb9SSe2/59SFP5sR7j0ouCM/L7kFwOpQ9D2bb7a/dqIGP5of1b9+e9K/tRcwP9tixD4Tkow/cKbmv0JG2L54YFo9Ocb8v08ymb4a5Ra/wGHHvwpIeb6sG8u+5q0QwLolUr9IlI49TXvtv58OVcAyVXU/UMTOv0o84T9+wEC/d7O4P1Fyu78apKA/RCx+vtYiZb5/Iya+nSLJvpeRnL8J0t+/FlqJP8usZj/aWje/9Qdwv8zFPD/M2NS/BPzRv/p/47+mA4K/ZsNQv4zdAcAox4I/N+slP3FdeL5t4VK/o0TJvFI47b8zngY/WBj5v3LLV7/EmTo/LhPZvv9dMD9Us4a/XHgqv0sScb7dBK0/sl3Kv9+M3L7WrnE9rmR8PrMPuj+46ra/sHL5v2L5Jr5DGBTAe0owv5oaAUD2F2G/KmOMv6/yxb7p1g9Azl7+v1xNpT9j30u9uSoyvqnsLr7HMdq8VtKcvzEgfr5h/XE/CgJRPz9yeT9eFxe/8vYPPy2EYz80ESy/3LS7v8jGu788w98/JpoMv7QNkT/ncC0+bE0Uv+dICcBPERi9Astdv1fyATxBw9O/0s44v5VaQT+0g9A9pTETP08XFcBnYDy/xqsEP4c0QD+x6AI8wvTOPv+u7L8Oaoq/m+bVPz5z3r+xI1S/GMuavwnJ7L8YP9K/MFaOvanqQL9rnTnAr5AQv10+Cb8=","4hd0nQN/stz9BQIU/xFyEvi20c79QUpg9/AkaQFOWmz+Zdb4+rZqCv4QiXzxQpK4/WC+hvyqLdb8fKMw/gcQ8P4BZ7z/L2rm+nyyKPxAH1T+wfHk+JcRmQKIuHj/HE94+dXH4PiOVFD8PCco/+L6sP0JSe7/XMra9FpGKv8EL8D+SWjc/tZ+/P6nutj7WHUc/hlfwPmoQbL7mkwI/nGLNP967wz9nEsI+YQwIQGWxdz9c/lQ/sN1kv8O0lT+VTVE/5i8VP7wwbT3p0fc+ONkZP6TUwr4zbTK+hLZOv9j56T0Ad3s/9s6hPxKJ7L7+b1W/v5kNP/lRFr+3+Je/WXuBPgZg3T/PJ4M/ej8PQLqC+z9sG1Y/J/KzP+2swr7foaU/RZQOwDTDnD5tVrg/NN+8PnRrPD+sAMc/ZiZ0v6/Z67/u6n2/JaIYQOD+Zz+jZeq+wZfkPp0Zmj/JD9U9GmqgP1Gphj8aC4U/kdJbP/UPP76onAZA2pHYPl6jWT+N3n8/y7IHQGMpzz9734Q9hGM5v/bWV744lZY/5QGDvhNtl76x5UO/Ju2+PldHiT8GrwZAWcMmPtMRKL+mD5m+ucs6PzZSpb+TxwzADTLpP9ypdb64fro/vaX7PxMBJr/s7rM/zw/Nv3C4+z/8FhS/dlJ6Ph351D8/qcA+PBipPztjgj+xWla/FDmZvYBtML/R38U/zZbLPyWk/z6tHCy/FeluvbJhSj40D0i++Ka5P2IR/D6zAX8/fSv+vkZTqT9N4+0/sNXkP8RYc77z0qE/ktMaP51WoL5pXI48gAmCP6MZoT+5AJW+Ja1FP9LWLr9Q12S+UgdjP4U15T/45Q8+AilOvzWhvj68rYg9lrh/vzpIhb+ra7U/5kBUv9hj7T/SvfI+PMIDvJlTqz9TkCi/WVGBv+oUgr5JRa4+zlvAP8pkMz+6S2I/+yUZP3QUUr9lNJq+e88mv83yij9f8eY/lMHAvjSE8z3yZxY/f6HOPqKjmL9hkrk83vp6P2ExkD8ee4y8Sc9KPxf94r5okXw/BgiqvmIFCT+Vork/+epHPsZdi74=","4ZW+wP8iNoT/dC0s/Bhgzv9DGfr+47UG/sajpP1zQlD+DY0G/5ApTP+OH7z3lyC0/eye4P0Xh/T8+46A/uikQP9cCbj8/tRhAd/5RPz2smz+XK/m+lrnAPvyIHEAB3F2/x46SPxijnr2X49O9aoWGPyVbiz6z9Ti/tUFDv6FJpD7g9pi/y7jvPWLzuj+JDlU+VLuGP66GAb7hzmM/wjcJQGqi6D/zcR2/bk5TPtc6LD8BECTA1RIevxM07z5qnF8//9ORv6JpUUArV6++c8x6P8xqqD6o3dK/5VNjv2uGBr8CPG8/kS+5PhtTj75olxo/IcAxP3OxHb5eNbc/EZCZP3T5M749WW4/1OTMv5eVQD/Q0p4/xBh6P9hggL62NuA+otGGP67fLb8fuTq/n/ihvWSHxT5d5Lw/jmZcPmeSiL9PeBq/XQ4oQKVztr8k5+0+fXOgPquRPb435kE/eC2mPojYQD+2O9q+I7h6Pjk2nL/PMss+oMGqP8H2xT50uGo/bQWEPaWoqzoqv16/uiBcPwkQmj9LGHc/lZ1WPvk1Yb9+Uzm/WbaMvu8olz+sGSs+4ROnPYR5BT9N2rS+S4kVv3CKvT8seYM+C+CWP/sQIT1eXyo/B5gtP++NQz8+kJQ/8BtuP3IpdbwOlt8/w3giv+84xz67oeq9tmvVP3NGfz/58Y0+5586vyO+B793jEw/Y7TUv4Fz677Lgog/MO9Sv3VGSj9Nf80/fqocP5Ui2D8u8JE+bm7EvxaPKL5xdJo/LSHSvrbaqT61Gjc/fFEev//QM7+StNE/usR6P/QSmz9/Klk+PV5YwCxaSL8KkQE+gHH2PxEsgT/JyvE9g1DTPk7fCj/POe4+Bn2tP1l8yT5QlD0/imP+Pl6oMr+ttzxARWmePx5OiD/7HMY9K+qDPkLYCj9cdx+/B9hcP/2fFb8Ujz++hPEZP9Ormj1jnC6/nr/4vlTxRD7/Xfu/P7KWPpHzsbtLmAO/RptpPzpJbb+UTH8/OSG2P2W5bD8HRLY+KUyKPOfphT5ZqJE+vZCCP0NTfT/YHCc/IUGYvx9jyz0=","4lO2SvtKGrD8DRui+iR7hv0c5Ub6AFsy/kDLBvpB+Bz/ieRNA91ZOP7apRT3ppzs/jPcxv2Yjf78qVyc/sQ1Jvwjldr/+TgI/JhsiPn0kkL/OYLg/tfK9vjXh8b7jZC++lWqJPulKi7+N9km/QNQUP4vbLD6WHuO+VTgMPoAEuT+gUno/JyNoPtKsaD/rFzs/nY+Uvvx5I78Qg04/4hBEv9HNhL7HkJ69oaHPPUjwmL2VawdACEIzP8fAGz4xjrU/GN7NvaHFX78QZ6K+FRNbP2v5/L59NuK/SOlMvXfYkL+GSTy+99GfPwdMxTwincc+tAuHP6c5tj7bpNu+/S8wv9DWdz/fmPE9hU8TwKQl5j4JnCU/j66Av8w8tD832BBAVtYZQOXZDD2XV0w/F7Zgvw/jH71l7wA/rYXiPcnuB8Ab2tk7vPoDwMF7Rz/tZxe/e77cPlmiiD+rORm/Gju0PgXwcj9OOEA+B8W0PleqFr+Jn6+9y1Y7vzlnkz9crqk+sPl8vuuinj9CKoG/sw8ZP3sdPkB9kqk/Td29viIvCr8vtUu+o4W8vqZaez9tvhE/0od7P799uT6J54o/GuB3v/+OLb+pfBg+XTX+PgjL9z+7qxG+QYZ2PzJu+r6p6XO/u6sOQDqwBL4xQog/y6dava73xD+2E3u/O8Y9vzSQxj5Ft3M9np6Vvn3vp75j3bW+6BZtPOA4y74SBgQ/LEu6P/V1A7+jbw8+5oWgvYsiib+M4Ai+w3VGv0Grbz5jQns+jsUZPw1/NL/3ATw+yHrtP+xq7L6RZxo/+7TBPql+sT/pI+u+n8EePyTH5b0cFN+/5hXzvuxOkj9BUYk/nYXuPrB1E7+ZyQW/HNwav63CUz/M0js7Vgr6Pzpt870Lxr++h+Vbv0RCX79KHsc/3QHoP9es1D9Kj4S+O3iXP9wGUb/+Qj6/twywPn2w4T39uhe/C4I+vh9unL+P+EK++HLtvsH4rj00N+k/kcW/PprBnz+uElG/sCUnv+bTVb+dgZW/EnEqP1R/iL/kofY+X74zv1M43b6bR4K+yTAVP5uM8j8=","4BpkbP9mtvz92Z32/OxB4PwcmHL9mDBw/+enzvjjNhz9qghZA7fdDv14pKUC9Rqg/2tuUP2C5Fz804mM7BVYKQLV7Xj/uECFAa8wIvi4XyL/CsOc+XjC1voFXgj+PYWC/m1YFv4krqz9J3O++afRxP0XjW78ENIE+VzWmPxh4kD9NaYk/zLUrv5RB0D9s3bU+9NX8vh+seb+Q5oC+7l0gP6cWGb6+/xK/MaAhPLr8ND5B4+6+va+2PtBFVb/ppdC90L2uvjorxT6tn0w/jEfYPsZahb4jFoE/IgQgvwNRFz9Oivk+v5GrP9+Kxr4T1CK/6IvAP8C5Db4fZZg/GtUvP9J+hT2G1K6+VGWFP7P2BT/vda2+M4GOv4+iGT51fIg/9iCtvr6sFL+7nGI+wihwP/lgXT6cjqY/37FQv/5ME0CENZk/Yi7KP/fPmD8XKwQ/3Z4Dv5FIPj9abp2/qfggv8Q9TD+t2yw/QJR+vgRFTD05uLU+97CHPp+ZzL50X98/aQ1Qvh8X9D/+KAE/T+JMv5yBaj8Fn6Y/kyvrvnfw3z6MrQq/BXdSP4/TXj+P03E/uYYQPweA7b62wl0/yjWXPyRvlD+Kzq+/05mlPus2r79+e7U+eAzaPzdl+L8E0qm/u7JSv4F5xD8LTk8/tJQLv0bB7r6JkVM/ZwCbPUj7GT9oMz6/sxnUPr8ShD/Rai0/K6y1PxOcYj4OdUo/deE2Pz/Akb8gp6C+6eINP8XMIz/lixI+6YyHP8J9Cj+IKso+5Zn7Phgbgr8Fxoc+r9W+P2qyhj60EQs/FkGuvmu6tj8d97e+dVj5PWtkDb8ph40/RmCXPzI1EEDKY1o/VdkSvwts3z/dCT8+TzeDP9libT8GRZY/f7TavpYw1z4r3n1AZ1OhP988rL8wmuu9TcwjPwFfrD5YETO/cOPvP+MqoD9QeG++fj4DPwKFQL943+8+cqU4P47eNz/2tew/sVIZPmkX7j68UsA/7ceqPeGFuL9nXIA/IMyGPgkZKz/JMNY+BP7HvSkJhD/aieu+/RBUv6GdBzs1Gk8/1mSXvu03qL4=","4NTvAPjP+UL7KXyS/G6JKPwo8Ur/JNoU/bem8P/nshz+ma1691JuHPwoyvL7Nkzo+vKDGv6oeAkAh3oY/Hvp/PuFkpT7D2uA+/Y6EP4I/3j/jDu0+aZtmPxQ2uT+cTEy/9mUIQFshGr6IrLo/Pw9CP95PmT9X5C0/YL8Sv+70uj82xnk/xfNBQD5mSz8iLyk/9tzmv+c4bz+njlk/UKgcQB14nT51oZ4/gdedP6DLfT+yeDg+u4luPw3Irj1iMsA+6UqHP/EFBkBzxyi/dnOGv4lI5z2wCgG/Iw0hv10JnT6YBxE/Bj6mvi00IL/PYjE/92R3vuf4Xr/kabi/JNXzPRVMEL9KAC0/fQP1v9cC6T9XRqM+t5CxP9FgeD2MfsM/oHwvQBa2/r5DyXq+PX9xvg+SiD/LvDg/9IyBP19jJMBEG8q+K2QqP8Y5iD9p4B0/7R2DP15oFT152Ki/lPZmPySctT9XFGs+WhMxP/dUuj4D7mk/LKFvPzThSD9WL9m+1pwlP0Cu8D62zTI/wblpP3larT7NGRG/qKXpPbmsfz+RIRe/t2zXP4Q/aD9uWSC/NmZMv10DOD9PtGG/bld2Pq3Kub8DKr0/3zNPP+KlaL8j2R8/va5TvitfbT9uFLU/Gn5zv21SCz5wqLo/KqIAv4GykT9hz4G9IdoHP3RNGD8MsoA/PN8vP1qV2L5/TH8/W1KvP3nBjz+colC/BWKuP/iunL/jsL8/YGOtP7ha1D9bHTU/oHT+vwIfWD8Kgp6+n/1lPQ3TlL38M5M+wgETwCHwWj9kAd0/xFMVP/hrur5e6A4+rRSVP5bXHr+sTLU+qJ/nvuaHJD4OOyG/3vsNP/Y1mz/y2mQ/2Ruhv9/z3T5PVns/3z+AP+jJFTzqmso8AIdHv77+tD+A8Me+ksGjv6g3vT5ZFga/ah6KPxeqhz2gk+I+7cPMPrTTjz9DxLY+2Xaivp6Hb741msk/sG5BPxbp0b9LRFw+/758v+4Q8D/PbxY+KKbJP0BXXD7SzCW/MASfPz8mur6vocc/Fb2RP/wqFLwUFRm/Jke+P7sFpD8=","4XDy/PllJML2sHps/WlCpv2jZyb5K7He/JscePz5aZj/YFtO/37KPP8wiwD7bIo0/AicMv/at5b9gXkO+/iyoP19ssz7clJ0+M50HPehxhT9F2ta+FdgvP7sttr7BbUi/Ba1zv1OllT/KJ6W9GqAoPzF6db8Lgv2+K4GZPh0noT940YS/TjVaPnGulz/DTaE8pVKrP8uG9D83P4c/GLaeP8CC4z6qn5C8HQWcvTGkEj9M2Tg/MAKJv03ylz98wYA+U20aP0WhgT98oKu+woAkPy029r5aGvc+kqyDvqGtxb50g0c/E5r1P0jjEz3dnUk/H+qSPxxb977APPW+l36AvVv8Oz8VO1a9OMIGQEI6MT9bX4M/VopfP6wK4j2Dv5s+dttrPuxlGL+2mlY/ndFmP0r0Bj+N8mU/HJlLv4gIb79VeeY9BgksQAhjo7/5ie2++PpXv0u+KT9Ug5U/GCs7Px11GD9tmA8/xc1qPlwDAr7O1Iu9iENuP0iKuz9qyZU/V8yYP39oVD/jlwU+pm8GvgdrIz/F17I+fkmXvpwaZb6+ylu+KY3Nvl8FXD/Pvo4/d1WPPZibSz9T00E+lSEjP9dXzL75o2C9YqU3PwuHEUDHRBY/59SaP16Wkj/VFGg/wOaTPz/qDD8/KPC8DXcQv+yegj4Qk1E/h8A1P6J2/T6k5EO/Y4jHvk/spr3kBfw9wDXiv2GNo70F+Mo/W7/nPJuJoz9WsJG/IJLJvvU4Fr0L5RI/evyQPySj4D5OcVs/5b6oPk+M+L0TzJs+zaXnP0OR476evO6+QDdAv0tCQj4y6OG+/mJuP2M6ub6w0TK/Ab0xP1DTtb3xIA4+ydcwP4iBcb+o1Su/AbQIv3LNqr8ZJSE/MemNP+lGFD7hQhE+G2zJP0BOVT8edrE+RuVAQGhXlD9J6hC/LRhhP2OmdD/QIgA/9DrYPqq3Lr+Cpg+/a8HMO1hQG0C19u2/sfFHv0dtJECx3Wm8zPcqP36lyj+Uha+9uUk3PyAJ4D+bnA2+QO1uPzubqz46CeU+BflIv6mIFj5mZ8A/kQ0wPlwHcL8=","4aDvUPxvkpr4w2kRA7TY4v3Wrgz98nk6/3VjhP+J+Pz9IBPo/sc1yP48lBr9rv/W9wKPmvwRZHUBWYko/abtXvXIfvj+a1aY+pi4iP5Hqjz+gcFk/1E6FP9csGj/ouzo/Ev3TP8EMR7/XJ58/S9Q5P2EDAj+ANeS+JwyNPHFql7/8rJA/WdEVv/gG9T7o2qQ/Gh5zPzM0L0CzllU/yTw6P95whb122Ji/MU9oP+WutD8ATfm/HwbhPtYSnD/eKD4+EWvtvwSJ0T+uVjk/M54wP1lI0D5SWybA9i1EP0sLOr+IT5E/+yr+vxyi/z+Xp1Y/RClXvtJEHkBXtcK/8NjqP6gniL5Dda0/lwQJQBsR5z699pg+lEt/Pz9KFT9E8qa/oUh2vrY09T43rRu+4cpAv4BAhT/RBS8/SiYFPyeA6L+VgsK9N2kfvpLMcj//JYK+LOnCP3+UHb7Q+ns/Nwl6P5hgSj/YTrA/WuP5Ppp/yL9RMpw/i+ixPxb5ir5yp3G/d08xP0Zpq742wpi/2uqcP/ggwb+XUv69RN+sPvmFPL9uvCQ/Gi/3vpnYCD9flmO/nTDLP1t9BD8gCA++YAo2Pxcyy7+6QplApqsMPnA2hz+pTVo/atlnvmWmU0C9E3s/SrcJP/3qIb+FR+C/TcIKPw6WgD3SwQe/ehHDPwqd/T68H7I+YGI4v4RJzb1SZ0g/sL9OP3aqBr9KsjNAUTmGv1DC9z6JVOk/0JW8PIJ91T8XaVs9HWoxwMn1Nj+4QDs/odpVvRkzDUDaLiI/KTzXv1RjUr/9Zty+YtjPPgJcYr5F08U+SQGovy+6Iz8psi69XlKIP7zqgb8vgKs/bSwiP70lxL2HlLA/xDa8v2aZcj9yWHQ+X6oMP4qjZT/3Nn2/mkteP3PGhD9mJv8+PuMOPymvkr8tvBg/JCACvxmFMz6Dgo4/08yZPm64qj4svqa+kmQpvpMKrD7f70o/xokpvnSPNEAlYla/+g47PzOcwj+AR1Y+5mIsPojpHT+RkGq//aqAPS1PIz9GuQk+NTLYP0RTdD8sdYy+xlhvv23+tD8=",